, 128637
. 119826
là 58031
tôi 52020
một 48978
có 48316
và 48021
những 37978
chúng 37382
của 37088
không 30792
ta 30156
người 26791
đó 26723
bạn 26685
trong 24821
thể 24363
này 23093
đã 22998
các 22511
được 22064
với 20556
&quot; 19840
cho 19671
sự 19046
Và 18757
ra 18717
làm 17876
nó 16643
ở 16621
mà 16202
để 16141
về 15976
sẽ 15653
như 15616
điều 14289
thế 14147
khi 12887
Tôi 12643
nói 12602
họ 12533
đến 11868
? 11433
phải 11412
rằng 10971
vào 10886
đang 10847
gì 10787
việc 10774
từ 10725
lại 10476
thấy 10329
rất 10124
cách 10100
hơn 9961
nhiều 9743
thực 9227
cả 9209
đầu 9186
đây 8965
học 8831
con 8767
khác 8746
công 8556
trên 8553
cái 8332
vì 8286
nào 8276
biết 8220
chỉ 8218
Chúng 8183
năm 7703
thứ 7539
nghĩ 7538
đi 7480
thành 7412
: 7332
-- 7184
cũng 7042
nhà 6856
số 6788
bị 6698
quan 6659
muốn 6621
mình 6364
nhưng 6316
nhất 6290
Nhưng 6250
tạo 6205
động 6159
chính 6142
giới 6127
nên 6016
vậy 5921
1 5860
hình 5611
hiện 5515
giờ 5515
sống 5474
tại 5420
nhận 5397
nếu 5396
mọi 5393
cuộc 5252
cần 5207
hay 5190
thì 5091
đề 5012
tự 4982
tất 4963
ông 4954
ấy 4902
bởi 4881
tới 4852
theo 4826
bắt 4815
còn 4774
nhìn 4757
lớn 4740
cùng 4699
bằng 4682
ý 4682
cảm 4666
tế 4611
sau 4597
dụng 4594
thật 4586
anh 4566
lên 4564
câu 4550
bản 4537
tin 4494
thời 4451
sao 4450
chuyện 4433
trở 4423
qua 4396
ngày 4383
nhân 4375
cơ 4355
bộ 4352
sinh 4347
năng 4216
phát 4188
trước 4186
nước 4181
đổi 4157
toàn 4111
phần 4099
nơi 4077
gia 4058
thông 4040
tìm 4000
thay 3985
nhau 3980
mới 3973
vấn 3929
định 3921
Nó 3885
trường 3857
nhiên 3836
tính 3805
Đây 3796
sử 3782
trình 3775
hệ 3768
tốt 3744
tưởng 3733
kết 3726
vật 3655
hàng 3630
lý 3622
hỏi 3590
Bạn 3532
máy 3499
ảnh 3499
hợp 3442
Đó 3405
mặt 3397
tiếp 3363
hành 3361
kinh 3334
nữa 3321
thức 3302
gian 3298
hội 3293
thiết 3272
rồi 3253
xem 3235
liệu 3230
trọng 3213
thích 3196
hoá 3192
cô 3192
vị 3165
đồng 3145
giải 3126
trẻ 3047
lượng 3038
hai 3033
ai 3020
bất 2990
thường 2984
vài 2980
đều 2973
Một 2942
tiên 2940
đối 2930
sáng 2917
hiểu 2885
quá 2871
tâm 2863
nay 2858
do 2857
loại 2846
giống 2840
Vì 2832
lần 2830
cứu 2814
bệnh 2795
bao 2794
thống 2788
viên 2749
nghệ 2696
nghĩa 2687
điểm 2686
gọi 2676
Có 2672
nhỏ 2639
Vậy 2635
đưa 2572
tương 2564
hoàn 2562
độ 2551
nghiệm 2545
quả 2532
tác 2524
đường 2521
vẫn 2493
Họ 2459
xảy 2455
chiếc 2444
thuật 2425
dùng 2416
biệt 2414
đại 2406
hoặc 2405
bên 2388
từng 2384
dân 2374
triển 2365
lúc 2360
chuyển 2358
diễn 2350
Điều 2343
Những 2321
quyết 2319
trị 2312
nghe 2299
cao 2299
ăn 2286
tuyệt 2260
mỗi 2255
khoảng 2244
cầu 2242
Nếu 2231
lực 2222
chất 2222
kế 2218
phụ 2198
lời 2164
giáo 2158
giúp 2152
đất 2144
cố 2142
ơn 2134
trung 2120
bảo 2099
giá 2090
nữ 2089
tiến 2086
hết 2084
phòng 2078
tình 2069
nghiên 2068
chưa 2068
xuất 2061
xe 2039
mang 2039
liên 2032
phân 2021
bài 2012
Anh 2011
tranh 2011
đơn 2009
em 2007
não 2003
truyền 2003
tập 2002
tuổi 1990
đúng 1989
phương 1988
điện 1984
bình 1982
đặt 1976
tượng 1969
biến 1956
tay 1956
Khi 1955
giữa 1948
yêu 1944
tiền 1941
sản 1940
tiếng 1930
hãy 1906
ngay 1894
khả 1891
trả 1888
khoa 1882
Không 1871
thú 1862
lấy 1852
gần 1829
2 1826
xã 1826
hoạt 1823
chiến 1810
bỏ 1806
cá 1801
đáng 1799
sách 1795
Trong 1789
phẩm 1774
thân 1771
pháp 1770
hiệu 1769
cuối 1763
cứ 1757
khó 1755
đời 1755
- 1754
chơi 1747
chủ 1742
dụ 1739
dự 1735
Các 1732
mất 1728
sức 1727
minh 1726
kể 1714
Mỹ 1701
mạnh 1685
nghiệp 1666
ngoài 1665
đồ 1665
ít 1664
dẫn 1659
bé 1659
tài 1651
lập 1651
chí 1641
đấy 1640
loài 1639
kỳ 1635
bức 1635
tinh 1623
luôn 1617
dựng 1612
xây 1611
trí 1608
tiêu 1601
tên 1590
âm 1587
vô 1586
cộng 1585
văn 1584
mô 1581
chứng 1581
tử 1562
thu 1561
hướng 1555
nhạc 1543
phố 1541
thử 1531
Hãy 1521
viết 1518
chức 1515
nguyên 1512
kiến 1510
đâu 1510
quốc 1508
giả 1506
ứng 1505
vời 1497
chọn 1493
quyền 1489
giản 1487
đặc 1483
chế 1481
chết 1470
tư 1466
bào 1466
mạng 1463
cấp 1459
suy 1457
bà 1455
triệu 1453
tăng 1450
khí 1445
thần 1442
nền 1442
vi 1440
ba 1438
đạo 1436
đứa 1436
phá 1417
lẽ 1416
khỏi 1409
sĩ 1407
màu 1405
đánh 1391
gặp 1380
tháng 1375
Thế 1375
dưới 1374
thị 1374
khu 1370
di 1368
chút 1354
xuống 1353
vụ 1352
mẹ 1351
3 1341
gắng 1339
khá 1322
phép 1321
nhóm 1319
quanh 1318
mở 1318
dịch 1317
án 1315
khiến 1309
vực 1307
xác 1306
dữ 1304
Bây 1302
% 1301
chia 1299
bay 1294
tham 1286
thêm 1286
trò 1280
mức 1277
thuyết 1276
quay 1271
nhanh 1269
dạng 1262
tổ 1261
gây 1259
rõ 1259
đàn 1259
cực 1257
vọng 1254
cụ 1252
nguồn 1241
vùng 1236
cảnh 1234
bây 1229
báo 1222
đẹp 1222
tục 1221
dù 1217
giác 1211
chắc 1206
sát 1203
càng 1203
dễ 1202
xa 1198
đủ 1194
cây 1193
ví 1188
trang 1185
phía 1183
nhớ 1180
phim 1178
biểu 1177
hôm 1176
hưởng 1176
đoạn 1171
duy 1166
chẳng 1163
vũ 1160
kiểm 1155
trái 1155
10 1149
thương 1145
Quốc 1140
Ông 1137
dài 1134
... 1134
vòng 1131
luận 1124
phản 1120
ngữ 1118
đôi 1113
Trung 1107
đầy 1104
kì 1096
lợi 1092
dục 1091
giảm 1083
thậm 1081
kia 1078
thuốc 1075
vừa 1067
kiếm 1066
ty 1066
chân 1065
tích 1062
chú 1059
trăm 1057
thôi 1050
thư 1049
; 1043
đình 1040
giao 1035
hạn 1035
bước 1034
lai 1030
Người 1027
sâu 1020
Tại 1018
so 1014
môi 1013
toán 1011
trải 1008
trời 1003
tồn 1003
diện 1000
rộng 992
phục 992
Bởi 991
giữ 991
thanh 989
dành 987
nối 985
đoán 982
địa 981
lòng 979
thuộc 977
riêng 976
tạp 970
sợ 969
mục 968
mắt 968
đứng 968
! 966
dạy 963
nổi 962
phủ 960
đạt 958
vệ 957
vẻ 957
sai 956
thí 955
thúc 950
kỹ 949
căn 949
luật 948
sẻ 945
tối 940
xung 939
lệ 939
chi 937
mẫu 936
lịch 932
ánh 932
bàn 923
đọc 923
lớp 918
Cảm 917
kỷ 913
yếu 909
khắp 903
đô 903
trụ 900
trông 897
vui 897
quy 894
tiết 893
khoẻ 893
chương 892
chạy 890
ngồi 890
bố 884
gái 881
cậu 880
phút 879
cuốn 877
mối 876
buổi 869
trợ 867
hầu 864
chắn 863
sắc 862
suốt 861
kiện 855
biển 851
trúc 850
ngôn 843
chung 842
mua 839
doanh 838
&apos; 837
kiểu 834
Tất 832
Vâng 831
sư 831
cửa 826
vận 824
Phi 821
khám 820
cánh 819
ngạc 818
xét 815
xúc 813
sở 812
20 811
lâu 809
ràng 809
thoại 808
tuần 806
bán 806
tỉ 805
hiểm 801
hồi 801
cấu 791
nhiệm 790
phức 782
thiên 781
kích 780
5 776
cung 775
nằm 774
chuyên 773
chụp 773
nhập 772
Ở 767
bóng 763
y 761
ngôi 759
thái 757
Sau 756
cạnh 755
kẻ 754
4 752
phí 752
độc 746
băng 744
viện 743
hạnh 743
hữu 742
hoà 738
ngành 737
chứ 737
chỗ 737
trưởng 731
ích 729
khủng 728
vẽ 727
thập 727
la 725
đa 722
Xin 714
tra 714
chuẩn 713
bác 712
quý 711
thiếu 709
phúc 709
Cô 708
Thật 706
chịu 706
ghi 704
hề 702
hoạ 700
xanh 700
lắng 700
tấm 698
an 696
sẵn 694
niệm 694
Nên 693
tức 691
phạm 691
tệ 690
nhiêu 690
Sự 689
áp 689
khăn 689
tái 687
to 686
đau 686
trai 685
sắp 683
Cái 682
hơi 681
Giờ 677
mặc 675
lạ 675
dung 674
Thực 674
chống 673
lạc 671
thất 669
dựa 663
cải 663
mong 662
châu 662
đóng 662
xử 658
Như 657
lựa 651
TED 651
trực 651
đội 647
xin 646
bánh 645
tổng 641
hậu 640
nội 635
ẩn 635
khắc 635
vượt 632
mật 632
tỷ 630
tầm 629
chăm 629
dần 627
xấu 627
gửi 627
ban 627
hộ 625
toà 625
Ý 624
Làm 623
da 620
hứng 619
thiện 619
hạt 618
Để 614
nguy 612
tim 611
danh 608
lưu 607
trạng 605
nhiệt 605
Ấn 604
lãnh 603
đột 602
chiều 601
30 599
lo 598
dầu 598
niềm 596
tội 591
ngoại 588
nạn 588
nghèo 587
cha 586
cận 586
sang 586
ung 584
chữa 582
kính 581
đấu 578
Châu 578
dấu 577
đẩy 575
Độ 574
nỗi 573
cổ 569
kéo 566
may 565
hát 565
thách 564
đen 562
tố 562
khách 560
tắc 559
thủ 559
giấy 555
ngược 555
nuôi 553
New 550
ước 550
hy 548
phi 547
bại 547
chữ 542
quản 542
Tây 541
50 541
soát 537
lỗi 537
nửa 537
lĩnh 536
mắc 535
tiện 534
hoạch 534
mơ 533
ngủ 532
gồm 530
nhiễm 530
tốc 528
dương 526
khiển 525
tả 524
lí 524
sóc 524
cắt 523
Mọi 520
nghi 519
hại 519
100 518
giết 518
thẳng 516
6 515
Con 514
khối 514
quen 513
bày 513
dây 513
quân 512
tàu 512
đông 511
cử 510
chiếu 509
đích 509
đức 508
Do 508
lưới 508
thấp 505
dòng 504
đá 504
Chỉ 503
bầu 501
lái 501
niên 500
ngờ 500
đêm 500
cười 499
đổ 498
nhờ 498
phóng 497
dàng 496
khai 496
thi 494
chấp 494
sàng 494
xếp 493
cư 493
rối 493
ngắn 492
gốc 491
mê 491
tận 490
phong 489
gấp 488
đem 487
nông 487
/ 486
đỡ 484
Với 483
giây 482
bạo 481
sân 481
lắm 481
kỉ 479
trách 477
gắn 476
bốn 475
vai 475
cân 473
cáo 472
Rồi 470
hồ 470
ngàn 467
đợi 467
tôn 466
ô 465
phẫu 465
hài 463
xuyên 461
nhảy 457
ca 456
chuyến 455
dừng 454
bí 454
siêu 453
hoa 452
thụ 452
&#91; 451
chị 451
mã 450
kĩ 449
&#93; 448
màn 448
ký 446
lao 446
giai 445
chim 445
ảo 445
nghị 444
đảm 444
tầng 442
tải 439
hấp 439
phổ 435
video 433
khởi 430
nhắc 429
ngăn 429
rừng 427
đo 425
chỉnh 424
tù 424
thải 422
góc 422
Internet 422
khái 422
Tuy 419
hút 418
hộp 417
ổn 417
nghiêm 417
Được 416
món 415
Nam 415
luyện 414
15 414
khuôn 411
nam 411
giàu 410
tín 410
chuột 409
cập 409
Âu 409
lá 409
Còn 408
thơ 408
Ví 407
gen 406
già 404
coi 404
ngân 404
đỏ 402
liệt 401
đám 401
thắng 399
phận 399
tuyến 399
tấn 398
trao 396
trừ 395
Hoa 394
Chúa 392
huỷ 392
đảo 392
tai 391
môn 391
nặng 390
chứa 390
Cho 390
Trái 390
dậy 389
hẳn 389
Câu 388
mềm 388
York 386
vân 386
nóng 385
ống 385
mấy 384
phù 383
mạch 381
cháu 381
Bắc 380
quyển 379
chóng 379
mùa 379
mẽ 379
điển 378
buộc 378
thiệu 377
sóng 377
Hiện 377
trùng 377
dưỡng 377
máu 376
in 376
hạ 375
linh 375
khán 374
thảo 373
rời 373
hãi 372
chủng 372
Công 371
Ta 370
uống 370
dõi 369
điên 369
Từ 368
tảng 368
tồi 368
sơ 367
lộ 367
Nhà 366
loạn 366
cũ 366
chờ 365
đáp 365
Kỳ 365
buồn 364
lầm 364
vững 363
sửa 360
Liệu 360
mắn 360
góp 359
Ai 357
lan 357
robot 356
thưởng 356
khổng 355
Rất 355
tránh 355
lồ 354
tường 354
Vào 354
miễn 353
khoản 353
Thứ 352
Mỗi 350
đói 350
xu 350
7 350
chàng 350
đèn 350
lạnh 349
ủng 349
8 347
tổn 347
mái 347
bảng 346
cơn 345
ấn 344
lẫn 344
mảnh 343
trắng 343
đỉnh 342
tộc 342
diệu 341
núi 340
12 340
tờ 340
Đúng 340
Ngày 338
áo 338
web 338
phỏng 337
tiểu 336
nhu 336
Đông 336
đào 336
9 335
tốn 333
giọng 332
Bà 332
trận 330
hảo 330
quên 329
giỏi 329
bề 328
rơi 328
trì 327
quảng 327
trồng 327
mãi 326
Hồi 325
chạm 324
kim 323
cầm 322
khuẩn 321
bật 321
vốn 320
Chính 320
bền 320
bang 320
đương 319
nghìn 319
40 318
phấn 318
sánh 318
tiềm 317
hôn 317
du 316
chấm 316
lương 316
ong 316
chiếm 314
cỡ 314
Năm 314
khoá 314
Đại 313
hoảng 313
mời 313
nắm 312
khích 312
nghỉ 311
hiển 311
vàng 310
ngừng 310
phối 310
bữa 310
hào 309
lửa 309
điệu 308
làng 308
đừng 307
thịt 307
vỡ 307
xương 307
ghế 306
vĩ 306
quần 305
tách 304
hỗ 304
nổ 303
chuỗi 303
dường 302
rút 302
vợ 301
chảy 301
khẩu 301
biên 300
đằng 299
kịch 299
sót 299
Trên 298
sớm 296
thoát 296
loạt 296
gió 295
chậm 294
chồng 294
Trước 292
tắt 291
sạch 291
tàn 291
giấc 289
Ồ 289
Vấn 288
bè 287
lặp 287
nghề 287
gợi 286
suất 286
dĩ 283
khổ 283
kê 283
khứ 283
quỹ 283
Cách 280
lối 279
trưng 279
lỗ 279
ngại 278
phê 277
sông 277
túi 277
nhé 277
tán 277
trại 276
trữ 275
Cám 274
chó 274
80 274
nguyện 274
hi 274
Google 274
viễn 271
Nói 270
thước 270
đăng 270
dặm 270
kiệm 269
cờ 268
Đầu 266
quang 266
đuổi 265
Việc 265
kháng 265
sỹ 265
nâng 264
Hay 263
bơi 263
nhắn 262
kém 262
ghép 261
thăm 260
cà 259
phiên 259
sốt 258
rẻ 257
khoảnh 257
thở 257
thảm 257
nhật 255
lặng 255
vỏ 255
nỗ 254
vết 254
Đất 254
thoả 254
bọn 253
tàng 253
25 252
hoang 252
ưu 252
sáu 251
Là 251
xoay 251
Nhật 250
lọc 250
hùng 250
tròn 249
trống 249
bờ 248
điệp 248
nhẹ 247
60 247
11 245
đẳng 244
lục 243
hổ 243
ngẫu 243
mùi 243
Lúc 243
voi 243
Bản 242
đam 241
bò 241
doạ 241
Bộ 240
lành 240
lính 240
đựng 238
thuận 237
thừa 236
thác 236
Ngay 235
thuỷ 235
tô 235
đoàn 234
rác 234
cấy 234
Hai 233
Theo 232
Cuối 232
trích 232
chặt 231
HIV 231
nhuận 230
họp 229
giảng 229
thang 229
Đức 228
đạp 228
đe 228
lược 227
Nào 227
miếng 227
nhựa 227
lãng 227
Cậu 226
Đừng 225
lắp 225
tan 224
cãi 224
khấu 224
can 224
Cuộc 224
chặn 224
Mà 223
giám 223
chào 222
tật 222
thai 222
mừng 221
ngoái 221
Hoặc 221
lễ 221
ngang 220
yên 220
đòi 220
mù 220
diệt 219
huống 219
200 219
90 218
cản 218
thao 218
thận 218
$ 218
Cũng 218
mại 218
Chẳng 217
hương 217
ko 217
mây 217
sổ 216
tri 216
đống 215
thấu 214
sợi 214
đùa 214
Thay 214
ám 214
chép 214
tràn 213
vong 213
18 212
u 212
cặp 212
vú 212
cứng 211
Em 211
thù 211
cám 211
óc 211
ma 211
mập 210
70 210
tuyên 210
tỏ 210
nhằm 210
cát 210
phiếu 209
Nhiều 209
Đối 209
bom 208
khía 207
mực 207
nhịp 207
súng 207
Dù 206
bối 206
trào 206
sụp 206
chán 206
hiếm 205
ADN 205
tiêm 205
tá 204
kêu 204
bắn 204
ngọn 203
hà 203
hoàng 202
lừa 202
Mẹ 202
khung 202
ác 202
triết 201
móc 201
dối 201
liền 201
Bằng 200
Pháp 200
béo 200
gỗ 200
Về 199
cục 199
côn 199
đua 198
mưa 198
Phải 197
thờ 197
hè 197
thầy 197
Liên 196
khảo 196
kí 195
mạc 195
thoải 195
căng 195
Thái 195
đập 195
bậc 195
hối 195
Phần 194
ngưỡng 194
nấm 194
chốt 193
lũ 193
chối 192
mét 191
huấn 191
ức 190
rượu 190
táo 189
thuyền 189
ghét 189
nhũng 189
trầm 189
hỗn 189
cam 189
mỏ 189
Sẽ 188
Ba 188
vâng 188
ạ 188
bi 187
mì 187
bảy 186
khuyến 185
biện 185
à 184
che 184
Thuỵ 184
cháy 183
tỉnh 183
đắt 183
nút 183
song 183
Hôm 182
ngón 182
hồn 181
Afghanistan 181
phán 181
hắn 181
truy 181
xứng 180
thọ 180
cỏ 180
mạo 179
Iran 179
thiểu 178
Nhìn 178
túc 178
John 178
Ả 178
thả 177
mũi 177
David 177
gọn 177
săn 177
khát 176
trứng 176
xoá 176
giận 176
bông 175
dinh 175
cỗ 175
cụt 175
mai 174
thạch 174
Mặt 174
Hầu 174
protein 174
khiếp 174
thuê 173
tia 173
dày 173
thiệp 173
rủi 173
xong 172
nấu 172
đắn 172
Sao 172
lộn 171
hước 171
binh 171
Đã 171
cột 171
thánh 171
TV 171
mò 170
giành 170
mộ 170
bãi 170
bột 170
đốt 169
ngũ 169
tóc 169
đốc 169
16 169
truyện 169
đài 168
chẩn 168
xưa 168
phó 168
dọc 167
thuần 167
răng 167
tụ 166
huyết 166
rưỡi 166
bạc 166
ro 166
ấm 166
miền 165
chừng 165
21 164
tặng 164
gương 164
đĩa 164
Lý 164
hiến 163
xâm 163
ném 163
mát 163
rắc 163
nhấn 163
.. 163
cốt 162
vườn 162
Đôi 162
dị 162
than 162
nhỉ 161
khóc 161
trộn 161
xạ 160
ngài 160
quê 160
ổ 159
cẩn 159
tuỳ 159
14 158
dính 158
miệng 157
sa 157
ơi 157
rào 157
tạm 156
bắc 156
500 156
huy 156
thẩm 156
đớn 155
đón 155
miêu 155
chai 155
Cơ 155
hẹn 154
gà 154
lỏng 154
ly 154
Giáo 154
mẩu 154
tuệ 153
tò 153
nhạy 153
đáy 153
phổi 153
ngầm 153
bạch 152
Israel 152
cốc 152
vuông 152
Facebook 152
đậu 152
hiệp 152
À 151
game 151
Chắc 151
hạng 151
Cả 150
cường 150
Thời 150
Giống 150
trôi 150
thoảng 150
lão 150
tây 149
Chuyện 149
kiên 149
Cực 148
thợ 148
quái 148
dàn 148
chu 148
hoại 148
hằng 147
quán 147
rồ 147
trắc 147
California 147
Á 147
Thậm 147
tóm 146
DNA 146
nướng 146
leo 146
chấn 146
bổ 146
trạm 146
Mĩ 146
quét 145
giường 145
giày 145
pin 145
hứa 145
ngã 145
lây 145
nét 145
lẻ 144
Lan 144
ngựa 144
đảng 144
khô 143
Kinh 143
đeo 143
13 143
tuyết 142
lưng 142
OK 142
chăng 141
Lần 141
mẻ 141
Cùng 141
Đến 140
tĩnh 140
Kết 140
đếm 140
tiếc 140
mãn 140
kèm 139
Nhân 139
17 139
mèo 139
Ban 138
ninh 138
Khán 138
ép 138
Chris 138
bụng 138
trăng 138
dán 138
tuy 137
hỏng 137
gói 137
tám 137
cong 136
Bất 136
hô 136
A 136
blog 136
dã 135
quà 135
24 135
Mexico 135
khuyên 135
vinh 134
trần 134
tiệc 134
gỡ 134
2000 134
Canada 134
lăn 134
giấu 133
lôi 133
thói 133
The 133
Nghệ 133
mờ 133
Hoá 132
gã 132
cụm 132
lệnh 131
kênh 131
dứt 131
trốn 131
phiền 131
email 131
chìm 131
Hội 131
lâm 131
ngon 131
lãm 130
19 130
ư 130
dò 130
Brazil 130
Nga 130
heo 130
lặn 130
tung 130
giơ 129
bão 129
dư 129
and 129
gõ 129
Bill 129
buôn 129
hư 129
khao 129
ngọt 129
đực 129
Mặc 128
thuế 128
virus 128
dao 127
Vài 127
Dĩ 127
thăng 127
cất 127
khoan 127
mệnh 127
Úc 127
Điển 127
gián 127
im 126
cú 126
ưa 126
va 126
bó 126
300 126
trưa 126
cúm 126
hố 126
Trường 126
AIDS 126
quí 126
thổi 125
sàn 125
lang 125
xinh 124
bếp 124
bận 124
hàm 124
tân 124
hang 123
bùng 123
tươi 123
London 123
lõi 123
dáng 123
Rập 123
Kenya 123
bụi 122
Gần 122
ngu 122
làn 122
sữa 122
dược 122
Học 122
quát 121
&apos;s 121
san 121
rét 121
tị 121
Tiếp 121
S@@ 121
ngắm 121
3D 121
nảy 121
khỉ 121
cấm 120
hải 120
phì 120
sưu 120
thẻ 120
tắm 120
camera 120
lường 119
tí 119
– 119
liều 119
nho 118
Khoảng 118
cưới 118
thịnh 118
tháp 117
Bài 117
sơn 117
lướt 117
Hy 117
say 117
Iraq 117
Bức 117
chúa 117
Thiên 117
thùng 116
-@@ 116
Trời 116
nở 116
trượt 116
rãi 116
nhẫn 116
muỗi 116
ngập 115
nhắm 115
khôn 115
thỉnh 115
ngốc 115
Cộng 115
thám 115
X-quang 115
trục 115
bốt 115
San 114
thính 114
tủ 114
tướng 114
nốt 114
châm 114
B@@ 114
thua 114
su 114
nàng 114
feet 114
giam 114
kín 114
quãng 113
phú 113
Bao 113
rô 113
dám 113
GDP 113
tuý 112
Bố 112
xóm 112
Viện 112
khớp 112
pha 112
dắt 112
CO2 112
cuộn 111
phái 111
cậy 111
Hơn 111
nắng 111
sung 111
thiệt 111
tháo 110
phạt 110
lông 110
rau 110
toả 110
mạn 109
Twitter 109
nhãn 109
trà 109
hầm 109
gấu 109
bong 109
khơi 108
cưỡng 108
nọ 108
dãy 108
Ôi 108
tuyển 108
đuôi 108
mũ 107
chước 107
Tương 107
Thành 107
Hệ 107
ồn 107
Bình 107
Thông 107
thô 106
bớt 106
đâm 106
Chủ 106
vắc 106
Này 106
thuẫn 106
lò 106
Einstein 106
chở 105
ranh 105
Thử 105
muộn 105
Dương 105
thưa 105
C@@ 105
hệt 105
nhở 105
T@@ 105
vở 105
ti 105
chìa 105
mệt 104
chục 104
lùi 104
Tự 104
điêu 104
lát 104
Tiếng 104
400 103
Chiến 103
Số 103
kho 103
hoả 103
lạm 103
slide 103
hòn 103
bút 102
nợ 102
vua 102
đồi 102
Mục 102
mỹ 102
phẳng 102
đế 102
Paul 102
Ngài 102
Hoả 102
Nha 101
thôn 101
cởi 101
múa 101
bọ 101
Hà 101
khúc 101
sứ 101
trấn 101
đới 101
ngực 101
gánh 101
&amp; 101
150 100
Quan 100
L@@ 100
Cập 100
mấu 100
George 100
kịp 100
C 100
Bảo 100
carbon 100
Khoa 99
Washington 99
Cứ 99
vải 99
B 99
sốc 99
rễ 99
Tin 99
A@@ 99
rung 99
Chiếc 98
duyệt 98
khôi 98
hãng 98
mỏi 98
nghiện 98
thâm 97
Dự 97
nghịch 97
Charles 97
Hàng 97
Nigeria 97
ngoan 97
N@@ 97
ráp 97
cối 97
hưu 97
website 97
internet 97
Tốt 96
Hình 96
lưỡng 96
Loại 96
tha 96
khẳng 96
nhặt 96
khiếm 96
Thổ 96
địch 95
M@@ 95
vây 95
mâu 95
hồng 95
cuồng 95
lật 95
nhiếp 95
I 94
hẹp 94
gan 94
sắt 94
Bệnh 94
đố 94
Toàn 94
phím 94
Thượng 94
khói 93
1000 93
Hiệp 93
2008 93
vươn 93
Rõ 93
Nghe 93
rắn 93
non 93
Quá 93
de 92
Oh 92
khuyết 92
MIT 92
mảng 92
Tình 92
đàm 92
đáo 92
long 92
rửa 91
cừu 91
gối 91
Tên 91
đoan 91
đẻ 91
khoái 91
tần 90
Thomas 90
cạn 90
stress 90
Bắt 89
sạn 89
cướp 89
màng 89
dải 89
Ok 89
dẻo 89
dạo 89
mồi 89
Michael 89
treo 88
vẹn 88
lận 88
Thiết 88
lệch 88
manh 88
đạn 88
Pakistan 88
Bên 88
chín 88
Ngân 88
Máy 88
trân 88
đạc 87
bơm 87
tông 87
Los 87
lợn 87
Dân 87
Tiến 87
dâm 87
ham 87
cắm 87
Cha 87
K@@ 86
đền 86
cắp 86
45 86
0 86
gene 86
Y 86
35 86
vĩnh 86
quyên 86
bắp 85
Hàn 85
tuân 85
lờ 85
bọc 85
khiêu 85
bia 85
kiệt 85
buýt 85
kẹt 85
khuynh 85
kẹo 85
GPS 85
H@@ 84
chúc 84
huyền 84
Âm 84
Kể 84
nhàng 84
nhầm 84
dọn 84
mòn 84
ồ 84
Nơi 84
lấp 84
Adam 84
2010 84
Haiti 84
rập 84
E 84
đỗ 83
thắc 83
xám 83
giãn 83
tựa 83
đai 83
Phụ 83
lũng 82
co 82
Chà 82
mười 82
mồ 82
trú 82
cương 81
thằng 81
mọc 81
mỏng 81
Mình 81
thép 81
chăn 81
nơ-ron 81
vay 81
vỗ 81
cựu 81
amp 81
Al 81
dở 80
khéo 80
Tuyệt 80
e 80
Lạp 80
Tổng 80
ốc 80
nêu 80
Nước 80
đợt 80
vượng 80
ngừa 80
vé 80
James 80
cacbon 80
nát 80
Nghiên 79
sôi 79
Hải 79
bá 79
dũng 79
hôi 79
75 79
dốc 79
rẽ 79
ga 79
PM 79
Richard 79
qui 78
xôi 78
lượt 78
chợ 78
Điểm 78
thoái 78
Tổ 78
Đồng 78
km 78
hạch 77
hung 77
men 77
nén 77
nản 77
bỗng 77
mày 77
phác 77
hoài 77
thầm 76
R@@ 76
Dan 76
dội 76
vang 76
bách 76
chả 76
trật 76
Robert 76
2007 76
G@@ 76
Quý 76
l@@ 75
trừu 75
Sinh 75
xíu 75
nghiệt 75
bấy 75
Bác 75
Phương 75
tiễn 75
gác 75
chua 75
hụt 74
nụ 74
bìa 74
lắc 74
ếch 74
cổng 74
Obama 74
muối 73
pho 73
Thánh 73
X 73
thẳm 73
May 73
of 73
iPhone 73
Steve 73
đà 73
van 73
ruồi 73
nề 72
trộm 72
vụn 72
Trẻ 72
La 72
lơ 72
soạn 72
mộng 72
ốm 72
thổ 72
đẽ 72
xích 72
NASA 72
giặt 72
xăng 72
súc 72
the 72
lúa 72
mươi 71
ván 71
Ch@@ 71
rũ 71
xưởng 71
Đi 71
chợt 71
xướng 71
gũi 71
Chào 71
Wikipedia 71
tráng 70
D@@ 70
khoáng 70
tím 70
000 70
Harvard 70
mượn 70
Hoà 70
ngẫm 70
chẽ 70
Tưởng 70
cống 69
Lấy 69
hét 69
--- 69
Gia 69
độn 69
quặc 69
bẩn 69
nơ 69
lân 69
nhường 69
ôm 69
trán 69
Darwin 69
quyến 69
cược 69
Nghĩa 69
nhào 69
dỗ 69
Derek 69
Francisco 68
Điện 68
mến 68
2009 68
hacker 68
nhạt 68
hò 68
Giá 68
Angeles 68
nồng 68
bám 68
m 68
Qua 68
oh 68
Nobel 68
gìn 68
Giọng 68
lều 68
bấm 68
sáo 67
Chị 67
rỗng 67
ruột 67
sắm 67
Martin 67
mãnh 67
23 67
b@@ 67
lánh 67
hiếp 67
thấm 66
Loài 66
mổ 66
Cần 66
cài 66
chôn 66
luỹ 66
P@@ 66
th@@ 66
Đấy 66
Nguyên 66
Paris 66
radio 66
nô 66
phun 66
3@@ 66
logic 66
lùng 66
nhện 66
Talk 66
thung 65
giọt 65
Sahara 65
vạch 65
hóc 65
Cháu 65
xuân 65
Quỹ 65
ái 65
lồng 65
xăm 64
2005 64
lỡ 64
Mark 64
ẩm 64
sét 64
tê 64
hãm 64
thượng 64
ấu 64
Ngoài 64
huynh 64
Nhĩ 64
chọc 64
triệt 64
léo 63
bóc 63
run 63
22 63
Big 63
lăng 63
Giải 63
a 63
Sĩ 63
móng 63
Tư 63
vòi 63
Amazon 63
tivi 63
D 62
oxytocin 62
m@@ 62
đc 62
t@@ 62
Manhattan 62
lề 62
Alzheimer 62
vịnh 62
Sức 62
tựu 62
Peter 61
Tom 61
ng@@ 61
ch@@ 61
vứt 61
Bang 61
chằm 61
Tác 61
tuỷ 61
Chicago 61
khiêm 61
chớp 61
đ@@ 61
chuông 61
mỳ 61
quạ 61
Đảng 61
thắt 60
Rwanda 60
lưỡi 60
kìa 60
ho 60
nhiễu 60
vờ 60
Bước 60
đô-la 60
bốc 60
Thường 60
ngẩn 60
27 60
Joe 60
luồng 60
Boston 60
laptop 60
nếp 60
Thưa 60
Đường 60
võng 60
ron 60
đóm 60
kiêng 59
dịp 59
Smith 59
gạch 59
nano 59
Cá 59
bê 59
Eric 59
hoành 59
n@@ 59
Chưa 59
Văn 59
ngưng 59
bồi 59
xà 59
đoạt 59
li 59
Uy 59
Luật 59
MRI 58
sọ 58
i 58
khoăn 58
đuối 58
nhóc 58
Thì 58
95 58
ngớ 58
hít 58
Đơn 58
cọ 58
đúc 58
Thêm 58
Xem 58
Giai 58
inch 58
đôla 58
lui 58
Đứa 57
đậm 57
Phát 57
Trở 57
golf 57
gậy 57
hận 57
Gabby 57
E@@ 56
canh 56
h@@ 56
rỉ 56
ngột 56
Hành 56
vả 56
hoãn 56
mỡ 56
hổng 56
ương 56
99 56
nhủ 56
600 56
x@@ 56
nàn 56
Động 56
Hợp 56
Vật 56
F@@ 56
1990 56
ghê 56
bể 56
Subtitles 56
Transcript 56
nhánh 55
Phòng 55
giật 55
Khá 55
băn 55
Đa 55
gãy 55
Quay 55
Việt 55
gom 55
vội 55
c@@ 55
Apple 55
tiệm 55
chuyền 55
điền 55
nghẽn 55
tuỵ 55
Na 55
Times 55
bầy 55
quỷ 55
oxy 55
xé 54
Giả 54
vất 54
que 54
giáp 54
Nhờ 54
nh@@ 54
lam 54
hoan 54
R 54
bẩm 54
Màu 54
Koran 54
2006 53
thiêng 53
2004 53
Okay 53
xỉ 53
s@@ 53
d@@ 53
súp 53
dại 53
Gates 53
Hắn 53
tu 53
trúng 53
Sử 53
đốm 53
Chú 53
gien 53
chày 53
bẻ 53
dệt 53
phô 53
--@@ 53
uy 53
bồ 53
vòm 52
rạp 52
Rio 52
xứ 52
Hoàn 52
tùng 52
II 52
Đặc 52
Tony 52
đụng 52
phiêu 52
2003 52
sướng 52
vặt 52
1960 52
lột 52
nón 52
xoắn 52
3000 52
xách 52
hông 52
mầm 52
Ben 51
Howard 51
rìa 51
Vẫn 51
vương 51
rộn 51
cự 51
Quân 51
tịch 51
ủi 51
Nền 51
Tính 51
2@@ 51
2011 51
Đạo 51
uốn 51
nhấp 51
Frank 50
ào 50
biếm 50
lọ 50
cảng 50
thốt 50
khùng 50
dập 50
Henry 50
thắn 50
cáp 50
Não 50
vaccine 50
mốc 50
28 50
hái 50
tôm 50
clip 50
1970 50
khan 50
65 50
phốt 50
kẹp 49
thoáng 49
piano 49
đệm 49
khen 49
bực 49
chóc 49
origami 49
đinh 49
YouTube 49
chíp 49
củng 49
nhàm 49
sửng 49
phe 49
Phật 49
kem 49
khoai 49
Nữ 49
Congo 49
v@@ 49
hydro 49
1@@ 48
Sáu 48
gạt 48
huýt 48
Tạo 48
phơi 48
.@@ 48
dồn 48
tăm 48
mớ 48
âu 48
ghé 48
Brian 48
búa 48
choáng 48
xộn 48
rỡ 48
trùm 48
Mùa 48
Ghana 48
xí 48
tr@@ 48
tam 48
Uganda 48
thơm 48
Yemen 48
250 48
mép 48
studio 48
chướng 48
sườn 48
vịt 48
dịu 47
Toà 47
ướt 47
rỗi 47
dai 47
ngục 47
ân 47
O@@ 47
nhét 47
Rằng 47
26 47
g@@ 47
thiền 47
trèo 47
triều 47
ấp 47
Đỏ 47
bướm 47
Kì 47
tống 47
Coca-Cola 47
Ngôi 47
Vô 47
Microsoft 47
Tháng 47
LED 47
đom 47
ph@@ 47
tạng 47
Ford 47
Higgs 47
dê 46
trọn 46
khẩn 46
10,000 46
hàn 46
lau 46
Oxford 46
mưu 46
rèn 46
Lego 46
gai 46
hưng 46
kg 46
túng 46
kệ 46
T 46
gieo 46
Tài 46
Giới 46
râu 46
1950 46
MT 46
phiến 46
10.000 46
Cambridge 45
banh 45
hâm 45
Syria 45
ngụ 45
I@@ 45
trễ 45
man 45
Vũ 45
nan 45
tẩy 45
vần 45
ngư 45
môt 45
King 45
Kim 45
đục 45
Web 45
Aristotle 45
bón 45
NL 45
Đột 44
Gi@@ 44
Ngược 44
xay 44
Ít 44
jazz 44
Ừ 44
dẹp 44
Tế 44
2001 44
Taliban 44
cóc 44
r@@ 44
trừng 44
vạn 44
120 44
.... 44
bộc 44
buồng 44
vọt 44
dơi 44
Bush 44
chiêm 44
Hoàng 44
phồng 44
Stanford 44
cồn 44
đòn 44
SW 44
nghiêng 43
cent 43
đè 43
vớ 43
— 43
Sáng 43
Địa 43
vẩn 43
ngửi 43
Texas 43
Amy 43
7@@ 43
pháo 43
ngợi 43
vắng 43
Florida 43
chay 43
ôtô 43
Di 43
pizza 43
Hans 43
bồn 43
Charlie 43
Yeah 43
nha 43
then 42
tao 42
nhị 42
chì 42
Lại 42
kìm 42
ơ 42
ngây 42
bát 42
nuốt 42
nhi 42
nâu 42
Chương 42
bưu 42
thèm 42
dưa 42
29 42
Ước 42
bẫy 42
Quả 42
thạo 42
online 42
bù 42
rốt 42
ắc 42
4@@ 42
Bốn 42
Tim 42
33 42
xảo 42
quad 42
entropy 42
Trông 41
Đ@@ 41
bỏng 41
dâng 41
cay 41
xoáy 41
Đương 41
tảo 41
ngươi 41
bến 41
thuỳ 41
đắm 41
rực 41
quận 41
Giáng 41
Vịnh 41
1980 41
chiên 41
chùm 41
Mạch 41
85 41
nạp 41
phế 41
xế 41
virút 41
nhã 40
Jim 40
nhộn 40
lô 40
nhuộm 40
tang 40
soi 40
Lời 40
Thôi 40
Lớn 40
o 40
2050 40
Đế 40
ray 40
diều 40
viêm 40
thiếp 40
ôi 40
Lịch 40
Tối 40
luân 40
rã 40
lay 40
Brown 40
32 40
Youtube 40
Nhóm 40
Wall 40
nhồi 40
Ngôn 40
Cyrus 40
Quyền 40
cộ 40
Vương 40
khiếu 40
Nghĩ 40
gay 40
uỷ 40
V@@ 40
v 40
Đoạn 40
Cầu 40
bẩy 40
nín 40
Ma 39
Latin 39
trội 39
Kiến 39
Tìm 39
800 39
sùng 39
thắp 39
Đáng 39
Xô 39
khăng 39
lậu 39
v.v 39
bổng 39
lội 39
xá 39
hân 39
gộp 39
xơ 39
keo 39
An 39
Daniel 39
lê 39
hé 39
ria 39
nghiền 39
Rosling 39
Toán 39
khuất 39
vi-rút 39
Kh@@ 39
Norden 39
khoán 38
mọt 38
Chất 38
Thống 38
Scotland 38
dỡ 38
gập 38
xả 38
Stephen 38
sếp 38
Mike 38
Kính 38
trêu 38
700 38
Khả 38
cai 38
ngộ 38
bế 38
laser 38
Abraham 38
sói 38
chip 38
en 38
trinh 38
lượm 38
nhăn 38
William 38
Mandela 38
Andrew 38
ôn 38
CEO 38
Ánh 38
kề 38
5@@ 38
ngô 38
Gore 38
Arthur 38
cuả 38
Đan 38
Watson 38
Tiền 38
Detroit 38
insulin 38
Neanderthal 38
vẫy 37
Hollywood 37
khâu 37
bới 37
Đưa 37
khe 37
bóp 37
ỏi 37
sảnh 37
Palestine 37
hả 37
xô 37
dang 37
Kiểu 37
Mới 37
trương 37
hán 37
gi@@ 37
hẻo 37
dạ 37
rải 37
Wow 37
khép 37
khốn 37
World 37
Ngoại 37
Da 37
Indonesia 37
Bọn 37
Singapore 37
vàn 36
ngơi 36
chặng 36
bùn 36
Nh@@ 36
thề 36
Cố 36
rổ 36
vặn 36
chốn 36
nãy 36
đun 36
êm 36
tụt 36
31 36
cẩu 36
36 36
xài 36
phôi 36
lượn 36
giếng 36
Nguồn 36
đàng 36
tơ 36
khoang 36
Laden 36
Nelson 36
Iceland 36
khốc 36
lách 36
len 36
Ray 36
Xã 36
Định 36
6@@ 35
lứa 35
DVD 35
ngắt 35
Shakespeare 35
liêng 35
Carolina 35
đãi 35
Thí 35
Nhạc 35
lửng 35
rặng 35
Long 35
nắp 35
đan 35
hàu 35
Cảnh 35
2002 35
bênh 35
Zealand 35
đọng 35
muôn 35
Lee 35
hăng 35
18@@ 35
n 35
pound 35
Dưới 35
marketing 35
logo 35
nhược 35
Thú 35
loa 35
Tâm 35
J@@ 35
vách 35
rò 35
mẹo 35
show 35
đồn 35
Truyền 35
Dường 35
quạt 35
khiết 35
bội 35
Bảy 35
ngào 35
sỏi 35
nếm 35
Montana 35
nuối 35
on 34
váy 34
quăng 34
ngoạn 34
dâu 34
+ 34
chuộng 34
Bob 34
Kevin 34
tát 34
toa 34
Bronx 34
Đàn 34
chui 34
kh@@ 34
Suy 34
Mấy 34
Mối 34
IBM 34
Silicon 34
Quảng 34
rệt 34
&apos;@@ 34
Joshua 34
nạ 34
bin 34
dời 34
lấn 34
x 34
Newton 34
scan 34
suối 34
hiếu 34
Mộc 34
tước 33
quỵ 33
kẽ 33
nhạo 33
Street 33
C. 33
Đồ 33
Kế 33
1999 33
Chân 33
Ng@@ 33
cán 33
nhát 33
Joseph 33
48 33
55 33
Xây 33
Sam 33
South 33
tạc 33
Chữ 33
nứt 33
đứt 33
chuối 33
1930 33
Chile 33
100,000 33
ha 33
toilet 33
Delhi 33
tua 33
devil 33
cắn 33
Môi 33
Gandhi 32
sô 32
Đô 32
hở 32
Phía 32
Uỷ 32
lót 32
khinh 32
37 32
Buổi 32
Lewis 32
kiềm 32
sứa 32
Càng 32
G 32
cua 32
Alexander 32
đạm 32
2012 32
Wright 32
cọc 32
Chuyến 32
Băng 32
củ 32
p 32
Khu 32
BJ 32
khử 32
Thương 32
1900 32
chạp 32
H 32
tớ 32
dồi 32
vắc-xin 32
Thần 32
trói 32
Wolfram 32
ngả 32
Alpha 32
đính 31
hoi 31
Stewart 31
găng 31
Hiệu 31
chọi 31
phích 31
cạo 31
ve 31
ả 31
nến 31
t 31
tẻ 31
nộp 31
ven 31
Mạng 31
Cụ 31
Viết 31
giàn 31
Thuật 31
thốn 31
xốp 31
rong 31
lọt 31
Ted 31
vướng 31
chật 31
Tuổi 31
nặc 31
click 31
phàn 31
cưỡi 31
h 31
ao 31
Năng 31
Van 31
St. 31
Cuốn 31
tre 31
đốn 31
sưởi 31
quẩn 31
nhấc 31
rớt 31
N 31
USD 31
Đâu 31
nguội 31
WK 31
GG 31
tít 30
5000 30
bọt 30
Căn 30
Nỗi 30
Thị 30
bì 30
Thỉnh 30
bời 30
tiệt 30
phớt 30
ngủi 30
thiêu 30
khoác 30
dollar 30
cm 30
chốc 30
hao 30
al 30
Cứu 30
1984 30
Thủ 30
xấp 30
cafe 30
mạ 30
Phong 30
Mười 30
Simon 30
Olympic 30
electron 30
ngạo 30
ủ 30
gắt 30
Vỗ 30
Matt 30
cằn 30
dào 30
JH 30
thừng 30
Sarah 30
2030 30
Jill 30
rô-bốt 30
CP 30
á 30
Mô 29
lụa 29
ah 29
Elizabeth 29
Brooklyn 29
Báo 29
giáng 29
Trò 29
khuếch 29
dẳng 29
Vị 29
dưng 29
Moore 29
vựng 29
Chúc 29
Johnny 29
sờ 29
ghen 29
cớ 29
cưa 29
vùi 29
xen 29
gạo 29
điếu 29
Ảo 29
Kỹ 29
nhục 29
Mar@@ 29
TEDGlobal 29
háo 29
axit 29
ngọc 29
Virginia 29
Biết 29
Copenhagen 29
Tanzania 29
Trí 29
mìn 29
vành 29
nhại 29
gớm 29
Của 29
trệ 29
Dịch 29
nhúng 29
Julia 29
Robot 29
Tranh 29
Parkinson 29
rìu 29
thảy 29
Xe 29
Quy 29
phanh 29
tràng 29
Ken 29
Venice 29
Nghị 29
tuộc 29
trá 29
thỏ 29
méo 28
Bỏ 28
Tập 28
Scott 28
bar 28
đặn 28
nhức 28
mác 28
Jay 28
9@@ 28
lụt 28
ập 28
opera 28
vắt 28
nhọn 28
cành 28
ng. 28
Cây 28
Phục 28
Tóm 28
chinh 28
tụng 28
buồm 28
nới 28
choàng 28
chích 28
Jerusalem 28
k@@ 28
Trang 28
Cục 28
M 28
nộ 28
láng 28
dopamine 28
củi 28
kiều 28
Bosnia 28
Argentina 28
High 28
Teszler 28
EDI 28
130 27
Luân 27
nấc 27
Alex 27
8@@ 27
Tạp 27
kép 27
Nội 27
vitamin 27
bỉ 27
mông 27
X@@ 27
Chết 27
mỉ 27
g 27
Sai 27
bự 27
tweet 27
CD 27
Tuần 27
Columbia 27
Lincoln 27
hon 27
Phân 27
cào 27
72 27
lười 27
Babylon 27
Clinton 27
Nhất 27
thối 27
Leone 27
đươc 27
Diễn 27
liêu 27
Sylvia 27
Từng 27
Jones 27
Ph@@ 27
vỉa 27
toạ 27
ng 27
silicon 27
poster 27
diễu 27
này. 27
album 27
Jack 27
42 27
nực 27
khoe 27
Vụ 27
Quần 27
Maya 27
Line 27
mài 26
El 26
mỉa 26
xuôi 26
Tinh 26
Niềm 26
Nhiệm 26
Ah 26
cúi 26
rảnh 26
rock 26
pop 26
đắng 26
Hawaii 26
Qu@@ 26
Somalia 26
Tấm 26
chà 26
dạn 26
gót 26
phiện 26
qu@@ 26
gục 26
rùa 26
Tới 26
Ethiopia 26
đầm 26
né 26
Nhận 26
tạ 26
gầy 26
quầy 26
lúng 26
O 26
2.5 26
am 26
Dựa 26
lung 26
Minh 26
gas 26
1.@@ 26
nóc 26
kiếp 26
gán 26
Jonathan 26
Sierra 26
gốm 26
Trắng 26
it 26
Lượng 26
nhốt 26
Đào 26
phả 26
iPad 26
nháy 26
lén 26
Ô 26
huỳnh 26
Giao 26
báu 26
Victoria 26
Muhammad 26
Đặt 26
Yêu 26
Greenland 26
ươi 26
Thấy 26
chênh 26
Apollo 26
OECD 26
Lòng 26
taxi 26
sương 26
Leonardo 26
bon 26
Qatar 26
Anderson 26
Jane 25
Tokyo 25
căm 25
mỉm 25
Disney 25
suýt 25
Berkeley 25
này-- 25
Cameron 25
ngoặt 25
bén 25
tỉa 25
Biểu 25
F 25
điểu 25
Sputnik 25
lãi 25
ngâm 25
Edinburgh 25
Siêu 25
hức 25
rồng 25
U 25
98 25
chéo 25
chổ 25
bệ 25
Hi 25
Zimbabwe 25
côi 25
National 25
1.5 25
Mức 25
Siberia 25
quấn 25
cửu 25
Bồ 25
hen 25
Tỉ 25
Vi 25
xào 25
ớt 25
son 25
Hẳn 25
chảo 25
sấu 25
nham 25
Bali 25
c 25
Li@@ 25
oxi 25
Hiển 25
sộ 25
Julian 25
Alice 25
Tasmanian 25
thản 25
Bell 25
đười 25
Bay 25
Khối 25
Emma 25
giầy 25
Đa-vít 25
Ushahidi 25
FG 25
xoa 24
64 24
Eve 24
Khác 24
quấy 24
xịt 24
sáp 24
mộc 24
đó-- 24
Carnegie 24
Áo 24
mánh 24
ầm 24
rậm 24
Đài 24
Khó 24
rãnh 24
Bí 24
Starbucks 24
đó. 24
vầy 24
Giám 24
Bangladesh 24
nguỵ 24
Steven 24
mầu 24
tòi 24
tý 24
Sống 24
bướu 24
mi 24
Xanh 24
go 24
điếc 24
đỗi 24
Đời 24
Luther 24
100.000 24
virut 24
86 24
cúng 24
Benjamin 24
Philadelphia 24
tởm 24
Mở 24
Ăn 24
Thầy 24
1.000 24
W 24
chóp 24
ngự 24
Atlanta 24
Kennedy 24
50.000 24
xáo 24
xót 24
cày 24
Michigan 24
ion 24
Francis 24
xẻ 24
Colombia 24
Mắt 24
bịt 24
So 24
Nike 24
giục 24
Hungary 24
= 24
Tesla 24
Triều 24
Jazeera 24
Gô-li-át 24
AM 23
Gửi 23
viền 23
Đôn 23
bôi 23
Danh 23
Co@@ 23
rà 23
Al@@ 23
Phố 23
nhôm 23
DJ 23
bầm 23
chén 23
Warren 23
46 23
tụi 23
Everest 23
Mất 23
ghim 23
Dữ 23
cưng 23
lầy 23
iPod 23
Tạng 23
Galapagos 23
trớ 23
2,000 23
Susan 23
Sách 23
Yves 23
triễn 23
xâu 23
Ung 23
2.0 23
bơ 23
xi 23
acid 23
1998 23
Phản 23
chiết 23
ín 23
Quí 23
duyên 23
khống 23
Giữa 23
Bánh 23
Marco 23
chải 23
chói 23
hamburger 23
… 23
Thư 23
96 23
AO 23
Ngành 23
yeah 23
xắn 23
at 23
vôi 23
Nick 23
1996 23
giun 23
Lester 23
Biển 23
Suốt 23
dì 23
hốc 23
Roger 23
Kelly 23
93 23
trỗi 23
20.000 23
Ivan 23
Joel 23
xì 23
Movember 23
Emily 23
chồn 23
Lakota 23
Nanopatch 23
Anas 23
Christopher 22
reo 22
Kẻ 22
Xét 22
chằng 22
ok 22
Ro@@ 22
bành 22
ngặt 22
ngước 22
micro 22
38 22
dấn 22
nhượng 22
sập 22
TS 22
Khí 22
Dùng 22
Chi 22
Dàn 22
52 22
Nepal 22
việt 22
út 22
Sở 22
Tử 22
Chứng 22
sô-cô-la 22
phông 22
Lạt 22
Chờ 22
TEDx 22
44 22
bàng 22
140 22
đắc 22
City 22
lẫy 22
vá 22
Tempest 22
tột 22
Đêm 22
nguyệt 22
Samuel 22
Arizona 22
thủng 22
Johnson 22
gật 22
Đám 22
Mumbai 22
khuấy 22
ảm 22
Kansas 22
Hạt 22
vũng 22
Earth 22
Nathan 22
giềng 22
Princeton 22
Tasmania 22
quáng 22
ooh 22
xổ 22
Trị 22
Khan 22
Aaron 22
CAPTCHA 22
Bhutan 22
Jeopardy 22
FGM 22
Havard 21
ngừ 21
trơn 21
nồi 21
i. 21
) 21
át 21
đậy 21
kỵ 21
nhọc 21
Jordan 21
West 21
mặn 21
vuốt 21
sẹo 21
thẹn 21
1995 21
đắp 21
Dễ 21
Ngươi 21
Skype 21
20@@ 21
lít 21
Carl 21
tản 21
Jesus 21
Ảnh 21
hiên 21
1994 21
Lai 21
Edward 21
thỉu 21
suôn 21
Luôn 21
V 21
Sudan 21
Re@@ 21
tặc 21
Xu 21
còi 21
testosterone 21
Jonas 21
trù 21
nhai 21
phình 21
Tiêu 21
hơn. 21
Jackson 21
Mong 21
n. 21
náo 21
Alan 21
bus 21
Larry 21
Jennifer 21
cẩm 21
Time 21
Lực 21
Thách 21
Bar@@ 21
viếng 21
Ha@@ 21
350 21
Berlin 21
Beethoven 21
Tức 21
Rick 21
báng 21
News 21
Tầm 21
violin 21
Tám 21
97 21
Cairo 21
Alaska 21
Pat 21
cừ 21
Kiribati 21
Giấc 21
AK 21
tưới 21
Cam-pu-chia 21
mao 21
Romo 21
RW 21
chổi 20
6000 20
Bàn 20
34 20
sụt 20
160 20
thình 20
Yorker 20
hèn 20
Ờ 20
Ma@@ 20
gồ 20
Great 20
rách 20
í 20
ừ 20
sạc 20
Hoạt 20
ng-- 20
Seattle 20
quẳng 20
đệ 20
4000 20
ngần 20
Jersey 20
banjo 20
ròng 20
gầm 20
Margaret 20
Thung 20
Cổ 20
nang 20
câm 20
is 20
Sản 20
fan 20
2.000 20
Vua 20
Jefferson 20
Le@@ 20
xít 20
ngh@@ 20
ờ 20
hắc 20
dấy 20
lộng 20
phao 20
kiêu 20
no 20
xở 20
đựơc 20
Graham 20
nai 20
Cuba 20
Hồng 20
ngợp 20
giang 20
1975 20
Lawrence 20
má 20
Lập 20
lẽo 20
Lên 20
gôn 20
Fox 20
Lesterland 20
lố 20
bịch 20
Mama 20
Europa 20
họng 20
trỏ 20
SR 20
bã 20
Nấm 20
CNN 20
Trưởng 20
IQ 20
Plato 20
kị 20
Vận 20
chanh 20
bazơ 20
Titus 20
Dòng 20
Chia 20
Grace 20
XL 20
Cheryl 20
Ni@@ 19
900 19
cỗi 19
teen 19
rọi 19
Tạm 19
50,000 19
Bị 19
17@@ 19
thà 19
Trừ 19
khuya 19
0,@@ 19
Beach 19
lon 19
xói 19
Rome 19
Toronto 19
Vancouver 19
Island 19
Đợi 19
Hạ 19
rạng 19
i-- 19
Hawking 19
buông 19
sừng 19
Katrina 19
Chad 19
nhô 19
Me@@ 19
đây-- 19
vác 19
1,000 19
Lu@@ 19
trút 19
Cao 19
thuở 19
mường 19
Oregon 19
dè 19
De@@ 19
180 19
i@@ 19
giễu 19
Thuyết 19
marathon 19
uyên 19
kèn 19
43 19
Khủng 19
Oliver 19
gặm 19
nhấm 19
Diana 19
nấng 19
Geographic 19
nòng 19
Thuốc 19
5.000 19
K 19
Vòng 19
Đội 19
1992 19
Diego 19
Philip 19
TEDx@@ 19
Quản 19
Taylor 19
Cười 19
Gary 19
Ron 19
gel 19
North 19
o@@ 19
khờ 19
McDonald 19
Kyoto 19
Thanh 19
Vùng 19
rạc 19
Murray 19
Dean 19
Ứng 19
loé 19
lạy 19
Don 19
Di@@ 19
Keith 19
đút 19
Park 19
Jerry 19
Hát 19
Lạy 19
bịp 19
rẩy 19
Doha 19
link 19
phẫn 19
Nhớ 19
tứ 19
Ryan 19
Dubai 19
1945 19
bú 19
thêu 19
DP 19
thạc 19
Sắp 19
serotonin 19
1997 19
Kỷ 19
liễu 19
hươu 19
Afghan 19
Nô 19
Phượng 19
Carol 19
Aimee 19
spaghetti 19
PH 19
games 19
phthalate 19
FOXO 19
password 19
Rachel 18
miệt 18
Biến 18
n-- 18
shock 18
Cơn 18
Mario 18
neuron 18
Mã 18
Đứng 18
Kích 18
Lebanon 18
2,5 18
Trăng 18
ghề 18
trọt 18
xuẩn 18
vóc 18
ạt 18
S 18
điềm 18
Nửa 18
Mày 18
Bangalore 18
đẫm 18
nôn 18
sải 18
Dấu 18
kiêm 18
sấm 18
58 18
State 18
dẫu 18
Nhiên 18
chệch 18
gi 18
thoa 18
Walker 18
2020 18
mĩ 18
trâu 18
FDA 18
Craig 18
gởi 18
SMS 18
5,000 18
gram 18
Peru 18
Dây 18
hoạn 18
Miễn 18
Tai 18
rụng 18
hãnh 18
Dave 18
nguyền 18
rành 18
Rose 18
Oakland 18
Franklin 18
r 18
m. 18
Mary 18
Blue 18
Lâm 18
Treasure 18
Nông 18
nôi 18
rạch 18
bit 18
Bờ 18
Si@@ 18
chen 18
82 18
canxi 18
Tham 18
Copernicus 18
Mitchell 18
Chạy 18
metan 18
miên 18
top 18
Chống 18
cơm 18
vã 18
bần 18
cáu 18
Th@@ 18
Man 18
mịn 18
calo 18
ướp 18
Ig 18
cõi 18
Guinea 18
đấng 18
Tiên 18
Sa@@ 18
nặn 18
Luận 18
sảy 18
Bóng 18
125 18
Dầu 18
Qaeda 18
Roy 18
rap 18
Nairobi 18
Tôn 18
Fibonacci 18
Julie 18
Baltimore 18
Clay 18
file 18
RG 18
Doug 18
FBI 18
Bertie 18
Sweeney 18
S.O.S. 18
microRNA 18
Gwen 18
MG 18
Trọng 17
Khách 17
lẩn 17
Bé 17
110 17
Khái 17
gào 17
Mozart 17
ĩ 17
dẫm 17
Tehran 17
41 17
el 17
rưởi 17
mút 17
phu 17
East 17
00 17
3,000 17
Harlem 17
ì 17
bạt 17
mình. 17
xông 17
Potter 17
Ẩn 17
Ừm 17
Bán 17
đê 17
nhí 17
vv 17
quật 17
# 17
er 17
phai 17
mội 17
Buồn 17
Da@@ 17
tú 17
Tỷ 17
Su@@ 17
Mac 17
Thức 17
gallon 17
American 17
Pa@@ 17
Alfred 17
duỗi 17
Ba@@ 17
ch 17
Albert 17
loà 17
ho@@ 17
Tiểu 17
Đạt 17
Gaza 17
Melinda 17
you 17
You 17
us 17
Like 17
ngách 17
CAD 17
z 17
Chế 17
Jeff 17
Thu 17
sỡ 17
Har@@ 17
nhẽ 17
Kiểm 17
k 17
na 17
Tệ 17
giòn 17
hun 17
Caltech 17
gò 17
thoi 17
usd 17
tro 17
Ber@@ 17
Well 17
Liberia 17
ine 17
chắt 17
Mời 17
Xếp 17
bục 17
nhún 17
Venezuela 17
Thập 17
Rory 17
nghênh 17
axít 17
404 17
Saudi 17
B. 17
eo 17
Mal@@ 17
Stirling 17
Gando 17
Sobule 17
SOPA 17
AV 17
Black 17
nitric 17
một-hai-ba-bốn 17
ô-xy 17
ngửa 16
Chọn 16
Ross 16
Car@@ 16
Dolby 16
Bruce 16
D.C. 16
tem 16
quỳ 16
mau 16
ng-@@ 16
vụng 16
Yale 16
Doanh 16
xén 16
77 16
nhảm 16
tôi. 16
đũa 16
m-- 16
SS 16
Thể 16
--và 16
Màn 16
Lợi 16
Moses 16
94 16
chuồng 16
Vui 16
1,@@ 16
Neil 16
biếng 16
ế 16
Tahrir 16
450 16
watt 16
Oscar 16
Norman 16
are 16
Santa 16
19@@ 16
Leo 16
gáy 16
Nhiếp 16
Langley 16
47 16
Tháp 16
gân 16
me 16
Barack 16
56 16
0.@@ 16
rán 16
n-@@ 16
Chức 16
sút 16
Palextin 16
Gehry 16
lẫm 16
luẩn 16
Hiến 16
Ooh 16
sandwich 16
Nico 16
Đánh 16
Chernobyl 16
pheromone 16
kén 16
ăng-ten 16
Justin 16
lanh 16
1989 16
Irag 16
Billy 16
thục 16
văng 16
Hong 16
Tay 16
Bonnie 16
nọc 16
D. 16
vãn 16
chửng 16
hời 16
tể 16
Matthew 16
sưng 16
Oprah 16
MoMA 16
ma-ra-tông 16
Essex 16
Latinh 16
Pepsi 16
progeria 16
Guatemala 16
R.S 16
FreeSpeech 16
ti@@ 15
hack 15
tấu 15
ft 15
cội 15
hót 15
Giữ 15
Bi@@ 15
náu 15
Orleans 15
84 15
Evan 15
tuôn 15
Jon 15
ị 15
khoát 15
ngó 15
Anthony 15
lầu 15
ắp 15
u@@ 15
đấm 15
Vợ 15
Hạnh 15
giở 15
Harry 15
Karl 15
76 15
lốc 15
AG 15
dặn 15
thê 15
Uhm 15
Chồng 15
Carter 15
sảo 15
khoả 15
hằn 15
hoán 15
mm 15
ngừơi 15
Dừng 15
Ar@@ 15
Nicholas 15
CC 15
Chụp 15
gặt 15
Ra@@ 15
20,000 15
Stone 15
sụn 15
CL 15
cật 15
Sri 15
1986 15
rụi 15
Loan 15
võ 15
p@@ 15
dốt 15
nung 15
sục 15
khoanh 15
noi 15
Tr@@ 15
phồn 15
la@@ 15
Hỏi 15
Ailen 15
In 15
kẽm 15
rộ 15
10000 15
Bono 15
ton 15
16@@ 15
Grand 15
ngấm 15
loang 15
chiêu 15
40,000 15
Tennessee 15
Lựa 15
TEDMED 15
Triển 15
Chuyển 15
Ireland 15
ngất 15
Jake 15
ZK 15
2013 15
viêc 15
Cor@@ 15
Arkansas 15
Cánh 15
Thula 15
White 15
Quyển 15
Viễn 15
Khám 15
Pennsylvania 15
ỉ 15
74 15
Kibera 15
chững 15
Kepler 15
váng 15
Độc 15
Gilbert 15
Kate 15
sen 15
s 15
d 15
nhút 15
Intel 15
Phiên 15
Pantheon 15
Mc@@ 15
loãng 15
ô@@ 15
bịa 15
ngơ 15
túp 15
blogger 15
Archie 15
Joey 15
Du@@ 15
nhoi 15
NBA 15
cello 15
Aye 15
sên 15
PIPA 15
Tarahumara 15
God 15
Vẻ 15
Irắc 15
Dạ 15
Mahmoud 15
doo 15
Toraja 15
daf-2 15
Weibo 15
Goering 15
ESG 15
Solly 15
Nổ 14
Jimmy 14
thiển 14
Video 14
hơn-- 14
lình 14
chộp 14
khoé 14
thét 14
gam 14
hip 14
hop 14
Tốc 14
đong 14
Nhiệt 14
Maria 14
milimet 14
Hill 14
Ca 14
thuyên 14
Đang 14
Nhanh 14
TEDWomen 14
Stanley 14
Fort 14
đùi 14
ụ 14
măng 14
Tái 14
lóng 14
nó. 14
I.Q. 14
ki 14
8000 14
ngời 14
Hồ 14
Art 14
hỉnh 14
Hmm 14
Sẵn 14
bíp 14
es 14
Fellow 14
Đấu 14
vấp 14
Yếu 14
nhổ 14
tu@@ 14
đả 14
Miller 14
tour 14
Dần 14
Rezero 14
Malcolm 14
gamma 14
67 14
Chứ 14
57 14
Lanka 14
thầu 14
Vượt 14
Ed 14
Tuyên 14
Super 14
nhoáng 14
Freud 14
89 14
rẫy 14
Tàu 14
54 14
1988 14
Jason 14
nấp 14
rắm 14
rợ 14
sành 14
An@@ 14
Browne 14
P 14
Bo@@ 14
dép 14
J 14
Louis 14
Bảng 14
Mang 14
râm 14
y@@ 14
Noel 14
Mon@@ 14
nh 14
PowerPoint 14
sủa 14
Dennis 14
Tso 14
Phóng 14
nhì 14
Linux 14
Stefan 14
Kông 14
1985 14
ắt 14
Vây 14
Maryland 14
Tội 14
Gì 14
Kay 14
chậu 14
Johns 14
núm 14
ô-@@ 14
Đủ 14
1500 14
cợt 14
Helen 14
Chìa 14
Netflix 14
Xa 14
hoóc 14
Abu 14
copy 14
Charlotte 14
von 14
lo@@ 14
Agnes 14
LA 14
Freeman 14
Chín 14
Tụi 14
Đề 14
nại 14
200,000 14
Mao 14
360 14
Amsterdam 14
Viên 14
Phim 14
7000 14
glucose 14
Aurora 14
BP 14
nạt 14
Green 14
SB 14
Jamaica 14
ối 14
Sebastian 14
luồn 14
vệt 14
Vàng 14
Ze 14
vịn 14
Man@@ 14
UCLA 14
Palm 14
Libya 14
Noah 14
Mathematica 14
Nauy 14
Andy 14
Đốc 14
rệp 14
nghiã 14
Broadmoor 14
chocolate 14
nách 14
water 14
Cochrane 14
Scratch 14
Sioux 14
Malaysia 13
euro 13
Y@@ 13
Án 13
Gen 13
Ho@@ 13
Ru@@ 13
rầu 13
Khoảnh 13
rầm 13
trướng 13
Vườn 13
ngòi 13
Giúp 13
Quyết 13
E. 13
ê 13
Grant 13
MBA 13
Nạn 13
chót 13
IKEA 13
1.3 13
ruộng 13
đước 13
ó@@ 13
hóm 13
1991 13
dế 13
E.@@ 13
Voyager 13
ngẩng 13
Nhu 13
u. 13
i-@@ 13
1957 13
78 13
Luke 13
Pe@@ 13
cồng 13
MBI 13
83 13
Connecticut 13
10@@ 13
loanh 13
maratông 13
Chuyên 13
Lo@@ 13
Cựu 13
foot 13
Ali 13
Osama 13
Gordon 13
Bonnet 13
xao 13
Robinson 13
4.000 13
O2 13
ngóc 13
dạt 13
Ann 13
giông 13
Sông 13
suyễn 13
Đảo 13
L.A 13
úp 13
40.000 13
Baxter 13
nữa. 13
CIA 13
Indiana 13
Na@@ 13
So@@ 13
Central 13
chánh 13
1800 13
Lễ 13
Món 13
30,000 13
Ixaren 13
Rob 13
Hopkins 13
Walmart 13
ưng 13
1940 13
khánh 13
Dạng 13
Red 13
Mahatma 13
lư 13
Ra 13
chèo 13
ngõ 13
vượn 13
Bahamas 13
der 13
Mu@@ 13
Russell 13
cỏi 13
Sỹ 13
Rives 13
JR 13
1,5 13
yoga 13
chập 13
quặng 13
cặn 13
59 13
Pascal 13
vạt 13
dằn 13
Stockholm 13
Trình 13
Chen 13
Jamie 13
trơ 13
ngợm 13
Nhịp 13
ươm 13
Homo 13
Foundation 13
Elvis 13
Williams 13
bô 13
4,000 13
Beverly 13
Palestin 13
Wilson 13
ê@@ 13
Libăng 13
Karen 13
68 13
Brenda 13
mồm 13
Papua 13
qúi 13
mào 13
Sean 13
chèn 13
Bayes 13
proton 13
Sarajevo 13
Australia 13
92 13
MW 13
Al-Qaeda 13
Triceratops 13
Marc 13
Odysseus 13
đần 13
phiệt 13
KB 13
1993 13
Mars 13
53 13
Rockett 13
INCRA 13
Tamiflu 13
Biosphere 13
catadore 13
Scoop 13
ganh 12
xua 12
Oz 12
chu@@ 12
google 12
lộc 12
ng- 12
u-- 12
răn 12
Mellon 12
Pittsburgh 12
lõm 12
MP3 12
nhối 12
ni 12
Gọi 12
Wales 12
750 12
oà 12
Thằng 12
nể 12
năn 12
Nhảy 12
v.v. 12
chat 12
vu 12
nành 12
Tờ 12
2,@@ 12
ố 12
b 12
vơ 12
Sergey 12
nhau. 12
Campuchia 12
Picasso 12
Friedman 12
nhuần 12
Hướng 12
goá 12
ten 12
Mông 12
be 12
nguời 12
DARPA 12
se 12
Nguy 12
kềnh 12
60,000 12
Hu@@ 12
Chỗ 12
L 12
l 12
Mubarak 12
1918 12
1979 12
cocktail 12
ARN 12
graffiti 12
vớt 12
giỏ 12
El@@ 12
phước 12
365 12
bừa 12
estrogen 12
1973 12
3.000 12
chuồn 12
gãi 12
ó 12
a@@ 12
nhan 12
vồng 12
Vai 12
Toyota 12
Mẫu 12
chưng 12
chk 12
Chủng 12
Lạnh 12
Troy 12
nhen 12
rót 12
1.2 12
Ki@@ 12
nhót 12
1965 12
nhím 12
Chả 12
1983 12
túm 12
ài 12
rơm 12
Tớ 12
trũng 12
Le 12
Photoshop 12
Hiroshima 12
Massachusetts 12
Hampshire 12
Fred 12
sò 12
nhung 12
Monterey 12
rữa 12
Gabriel 12
diêm 12
Danny 12
bở 12
Marshall 12
Hey 12
Wide 12
Rừng 12
enzyme 12
prôtein 12
dó 12
Ohio 12
Guardian 12
Hunter 12
quây 12
Brand 12
rùng 12
ốn 12
chang 12
lab 12
Len 12
thây 12
39 12
hũ 12
Kosovo 12
Song 12
tợn 12
gt 12
Molly 12
Gấp 12
IMF 12
Vừa 12
Vinci 12
2015 12
Tàng 12
Tunisia 12
Giảm 12
Ổn 12
vãnh 12
ngà 12
EEG 12
thềm 12
nỉ 12
Casey 12
Accenture 12
nè 12
Cohen 12
Bấy 12
Flickr 12
Trục 12
Ai-len 12
Mo 12
HS 12
Judy 12
Cynthia 12
thu@@ 12
cortisol 12
H5N1 12
BBC 12
Tân 12
Linus 12
Donald 12
Studio 12
Viking 12
Naomi 12
amino 12
Gian 12
yo-yo 12
Georgia 12
Hitler 12
Rufus 12
HP 12
JK 12
Critic 12
Riley 12
401 12
Kiva 12
token 12
Bilbao 12
Oxy 12
Gayla 12
Heh 12
Phép 11
Anne 11
Ellen 11
ngỡ 11
ét 11
đi@@ 11
nhõm 11
demo 11
Star 11
Byrne 11
lồi 11
Bach 11
La@@ 11
xiết 11
He@@ 11
một-@@ 11
t. 11
êu 11
ừm 11
hòm 11
sững 11
Lắng 11
neo 11
ta@@ 11
Bu@@ 11
mắng 11
dí 11
( 11
Amanda 11
Terence 11
àm 11
My 11
ắng 11
It 11
Khắp 11
Trách 11
RNA 11
Prize 11
F. 11
3,5 11
gàng 11
biêt 11
nháp 11
được. 11
ngầu 11
Tiện 11
mị 11
Riverside 11
Jacob 11
trờ 11
Chơi 11
mùng 11
Cấp 11
thòi 11
dặt 11
Cooper 11
1-2 11
Venter 11
lu 11
Media 11
nghĩnh 11
Sinclair 11
vụt 11
30.000 11
Xuyên 11
rèm 11
khứu 11
a-@@ 11
bổn 11
giời 11
té 11
héo 11
yến 11
Bal@@ 11
Klein 11
Lũ 11
khay 11
England 11
tuột 11
rao 11
¼ 11
bùm 11
Show 11
Josh 11
House 11
tròng 11
civic 11
hốt 11
Jeremy 11
Kabul 11
Rốt 11
hormones 11
Sch@@ 11
photon 11
Barbara 11
1920 11
Khuôn 11
nhứng 11
trăn 11
chũng 11
Roman 11
2-3 11
penicillin 11
PC 11
Jean 11
mic 11
Hoạ 11
A. 11
phách 11
Se@@ 11
101 11
Ottoman 11
bùa 11
gỉ 11
Juan 11
và@@ 11
25,000 11
đuợc 11
huyện 11
Trải 11
63 11
ED 11
Lối 11
rên 11
Ben@@ 11
Illinois 11
Jo@@ 11
Olympics 11
ăng 11
Mây 11
vậy. 11
Lí 11
Bữa 11
Transition 11
Colorado 11
1,500 11
Davis 11
U@@ 11
80.000 11
chao 11
chuộc 11
Evelyn 11
Tuyết 11
sầu 11
Đọc 11
lẹ 11
không-@@ 11
dơ 11
đên 11
laze 11
Minnesota 11
Cu@@ 11
Star@@ 11
AI 11
le 11
Bầu 11
Canyon 11
12,000 11
Aviv 11
sofa 11
CERN 11
Enceladus 11
Galileo 11
ói 11
tôi-- 11
Gapminder 11
nều 11
eBay 11
chém 11
wow 11
Núi 11
Ngồi 11
Phẫu 11
giới-- 11
Thi 11
Beau 11
đùng 11
chừa 11
mách 11
sồi 11
gợn 11
rợn 11
Hơi 11
Gió 11
1858 11
2014 11
Kia 11
toái 11
Bin 11
Cú 11
Faiza 11
nhầy 11
helium 11
4,@@ 11
LOL 11
Do@@ 11
Perry 11
Tạ 11
nitơ 11
nhúm 11
Jacques 11
DC 11
khắt 11
Cape 11
Lớp 11
hạc 11
Khơ-me 11
các-bon 11
​ 11
USDA 11
là-- 11
Thoả 11
chần 11
chừ 11
.000 11
okay 11
Emmanuel 11
TG 11
ô-xi 11
Gene 11
Jihad 11
Mãi 11
Serra 11
Greg 11
1962 11
phỉ 11
Paula 11
ABC 11
E.U. 11
Huck 11
Malawi 11
MM 11
ngạt 11
Hamlet 11
jihad 11
nhàn 11
Bandura 11
7.@@ 11
Bong 11
Clonie 11
Najmuddin 11
TD 11
Thưởng 11
Actor 11
Higg 11
complex 11
bonobo 11
Ukraine 11
Barefoot 11
1948 10
Ri@@ 10
ce 10
Cửa 10
vợt 10
rầy 10
Max 10
Hậu 10
Lẽ 10
n- 10
mó 10
i- 10
Hall 10
gẫu 10
lảng 10
ngượng 10
ngùng 10
nương 10
650 10
Ngọn 10
we 10
uất 10
t-- 10
xo@@ 10
Hằng 10
Khiến 10
ại 10
Sheila 10
uý 10
Afganistan 10
cu@@ 10
3.5 10
lóc 10
Point 10
Sisyphus 10
Darfur 10
niêm 10
Hy@@ 10
st 10
Himalayas 10
lu@@ 10
nghẹn 10
6,@@ 10
dĩa 10
Đẹp 10
Fortune 10
el@@ 10
Hiểu 10
Whitacre 10
University 10
c-@@ 10
trụi 10
Dr. 10
Cassini 10
Bỉ 10
hidro 10
Trân 10
1200 10
bạn. 10
Trại 10
Roosevelt 10
sọc 10
Dolly 10
polymer 10
uyển 10
0@@ 10
ang 10
hùm 10
Tường 10
Windows 10
Mi@@ 10
đu 10
Harris 10
sôcôla 10
hiều 10
Marduk 10
phụng 10
Chim 10
Chàng 10
thoạt 10
Reagan 10
t-@@ 10
nhẹn 10
rang 10
Mozambique 10
500,000 10
Anna 10
lim 10
Saunders 10
nhuyễn 10
robots 10
Wired 10
TED@@ 10
khét 10
Brooks 10
chĩa 10
@ 10
Missouri 10
Lake 10
Caroline 10
lự 10
Collins 10
Je@@ 10
Kentucky 10
NIH 10
Eiffel 10
nhả 10
Cải 10
05 10
Woo 10
tằm 10
lụi 10
amin 10
Sagmeister 10
Sony 10
Mor@@ 10
thẩn 10
đãng 10
ùn 10
Quỷ 10
Budrus 10
Ne@@ 10
Bỗng 10
á@@ 10
si@@ 10
TEDTalk 10
Zetas 10
Sợ 10
Go 10
Home 10
Allen 10
Science 10
dollars 10
Kaplan 10
Cleveland 10
Khung 10
luyến 10
hiền 10
Gã 10
Tel 10
lỏi 10
Erik 10
siết 10
LHC 10
1968 10
su@@ 10
61 10
ã 10
quot 10
Trạm 10
đái 10
Senegal 10
luỵ 10
quĩ 10
áng 10
Phổ 10
Mad@@ 10
Phúc 10
1949 10
ổng 10
Radio 10
ngỏ 10
cácbon 10
Ka@@ 10
dừa 10
vò 10
Neumann 10
79 10
Von 10
rain 10
Tra 10
hột 10
Đổi 10
lở 10
nga 10
66 10
Xác 10
thớ 10
0.5 10
ách 10
Whoa 10
Lisa 10
Libby 10
lún 10
Estonia 10
li@@ 10
gù 10
Christian 10
trặc 10
Tù 10
Exxon 10
chồi 10
Hyderabad 10
Tránh 10
Istanbul 10
a-- 10
Algeria 10
Hết 10
1,3 10
1987 10
vẹt 10
Saddam 10
Hussein 10
Baghdad 10
Lucy 10
sệt 10
nghiến 10
phà 10
GV 10
Toby 10
Shi@@ 10
12.000 10
vói 10
School 10
Luria 10
as 10
3,@@ 10
trau 10
Jesse 10
Jessica 10
Blair 10
Pauling 10
nẹp 10
AR 10
Im 10
beep 10
Reddit 10
Splashy 10
máng 10
Kĩ 10
Nano 10
én 10
15@@ 10
Madagascar 10
blah 10
Tulu 10
sin 10
mòng 10
Broadway 10
Janine 10
Duolingo 10
flash 10
Prego 10
Sheryl 10
Farmer 10
Zipcar 10
Hannah 10
Gowanus 10
Hirshhorn 10
khong 10
CPhi 10
Sốt 10
thụt 10
lốp 10
Chopin 10
Rebecca 10
Samantha 10
Vẫy 10
Linda 10
Tide 10
Robicsek 10
Kaluza 10
HLV 10
Knee 10
Cargill 10
BR 10
HC 10
Shirley 10
Altos 10
Gillian 10
Roma 10
Row 10
pheromones 10
meerkat 10
chửi 9
rủa 9
Will 9
ell 9
Moscow 9
̣ 9
Ariely 9
ơ@@ 9
trề 9
et 9
ra. 9
ạch 9
Philippines 9
Mua 9
nom 9
Airstream 9
al@@ 9
to@@ 9
chường 9
thự 9
oi 9
đây. 9
ậy 9
Post 9
ến 9
McChrystal 9
bung 9
nh-- 9
bừng 9
liếc 9
Armstrong 9
ley 9
nấy 9
Ca@@ 9
Paulo 9
gẫy 9
Mực 9
muội 9
xui 9
hit 9
nhòm 9
bặm 9
73 9
1,2 9
nhoà 9
vể 9
Hôn 9
lả 9
nhịn 9
2.3 9
Thuỷ 9
sài 9
2.@@ 9
Cảng 9
1976 9
Bời 9
Eleanor 9
nhất-- 9
dỏm 9
Đóng 9
tót 9
Economist 9
ts 9
Gladwell 9
ner 9
Pranav 9
Giác 9
tru 9
webcam 9
microphone 9
enzim 9
Côn 9
bỏi 9
két 9
biễu 9
ải 9
Shah 9
Las 9
nhờn 9
Ronald 9
Aung 9
Suu 9
Kyi 9
1982 9
ù 9
Chuột 9
f 9
Tan 9
gh@@ 9
America 9
for 9
1947 9
chiêc 9
Ahmed 9
Costa 9
Am@@ 9
Nicole 9
sỉ 9
quệ 9
pounds 9
Mo@@ 9
vậy-- 9
Heather 9
Coca 9
sá 9
Cam 9
Miền 9
kha 9
Nghiệp 9
Dick 9
Quên 9
dột 9
cò 9
Trần 9
hớt 9
nhãng 9
ròi 9
C.@@ 9
ta. 9
Chip 9
Lady 9
Men 9
oan 9
Newcastle 9
teo 9
thàng 9
dìm 9
UE 9
gàn 9
nghếch 9
den 9
Utah 9
LHQ 9
sặc 9
Up 9
thun 9
dật 9
Ngắn 9
Ti@@ 9
Beatles 9
Dục 9
200.000 9
Nghịch 9
thưc 9
salad 9
lẻo 9
747 9
Alberta 9
Trồng 9
Vệ 9
tễ 9
chê 9
bêu 9
cents 9
CDC 9
Phoenix 9
nó-- 9
ư@@ 9
Android 9
Titanic 9
Petersburg 9
Allende 9
Hansen 9
91 9
Sân 9
Pal@@ 9
etc 9
gara 9
100@@ 9
Kerry 9
Chung 9
Hudson 9
na-nô 9
Deep 9
Lương 9
ngoạc 9
er@@ 9
ỏ 9
phết 9
No@@ 9
Saul 9
Bra@@ 9
Mississippi 9
IP 9
hắt 9
Muốn 9
giũ 9
Nổi 9
kỉnh 9
ren 9
mafia 9
vét 9
ệt 9
eureka 9
enzym 9
Blackberry 9
Ả-rập 9
ck 9
X. 9
170 9
Sophia 9
quark 9
Celine 9
Sun 9
1953 9
Trận 9
Ong 9
Matthieu 9
ản 9
Valley 9
Tri 9
Kuwait 9
Ghi 9
nhau-- 9
Isabel 9
Alberto 9
Cung 9
bứt 9
Dyson 9
Feynman 9
51 9
ốt 9
lt 9
DDT 9
Mảnh 9
ợ 9
LM 9
Kong 9
1.8 9
Chechnya 9
Arab 9
trợn 9
Kant 9
vênh 9
1974 9
Sa 9
giăng 9
ngàng 9
Phil 9
Alabama 9
Nikola 9
Trinidad 9
Tobago 9
giấm 9
Ian 9
Tuỳ 9
ồng 9
khố 9
Ngựa 9
one 9
Vạn 9
rạn 9
Wii 9
Pop 9
0.1 9
One 9
Ad@@ 9
Ge@@ 9
j 9
moi 9
Kháng 9
tennis 9
14@@ 9
Pinker 9
Sang 9
Dãy 9
há 9
Eames 9
Euro 9
Juliet 9
ubuntu 9
Pants 9
Arabia 9
Chaz 9
giùm 9
Cha@@ 9
Victor 9
Hưng 9
trồi 9
Torosaurus 9
bái 9
trành 9
Nevada 9
Lagos 9
Khai 9
Zambia 9
BM 9
WikiLeaks 9
Bolt 9
Gupta 9
Hadron 9
in@@ 9
mu@@ 9
ngạch 9
ngấy 9
Orkut 9
nĩa 9
Uh 9
H2 9
Ragu 9
Harvey 9
Alain 9
mậu 9
chùi 9
Giê-su 9
Azerbaijan 9
Buenos 9
Aires 9
series 9
_ 9
Laramie 9
geo-engineering 9
sunphua 9
Forbes 9
Kurdistan 9
ngứa 9
Collider 9
Sugata 9
Mitra 9
Tucson 9
oxide 9
Jordans 9
Hills 9
Hasan 9
Lang 9
woo 9
JM 9
ngáp 9
bloop 9
Boltzmann 9
I-rắc 9
Georgetown 9
DH 9
Yo 9
BKT 9
Sting 9
Slow 9
JY 9
Jarrett 9
Maslow 9
Vivian 9
Pine 9
yum 9
Giffords 9
Hurtigruten 9
Vila 9
Hany 9
Ola 9
awesome 9
Owens 9
IPCC 8
20-@@ 8
dãn 8
7,000 8
Be@@ 8
Hả 8
ọt 8
Coke 8
Sunni 8
phầm 8
thât 8
Is@@ 8
ngỗng 8
lìa 8
tẹo 8
Carolyn 8
More 8
khít 8
dể 8
Triết 8
t- 8
Umar 8
táng 8
ỵ 8
Ê 8
ngo@@ 8
thường. 8
ford 8
lựu 8
Sh@@ 8
hãn 8
càm 8
nớt 8
rể 8
cóng 8
Marx 8
Gô 8
Rockefeller 8
Grey 8
fải 8
1.7 8
4.5 8
e@@ 8
Lakshmi 8
nghẹt 8
Bab@@ 8
Cụm 8
Barbie 8
My@@ 8
En@@ 8
185 8
Sleep 8
Esther 8
ngu@@ 8
Hoffman 8
Mania 8
Unilever 8
vali 8
Jobs 8
62 8
goi 8
phật 8
Cam@@ 8
ĐH 8
Alexis 8
Chi@@ 8
Duke 8
Mật 8
mịt 8
Ngạc 8
xo 8
Rào 8
collagen 8
Lệ 8
1kg 8
Bruno 8
Kir@@ 8
lọi 8
ô-tô 8
y-@@ 8
bít 8
Rhode 8
phẩu 8
ổi 8
Bowl 8
Hal@@ 8
McCain 8
Thảm 8
Drori 8
hu@@ 8
Hài 8
Miến 8
mẫn 8
WHO 8
vê 8
nhằng 8
Hol@@ 8
vơi 8
ăm 8
Honolulu 8
Code 8
lin 8
Durga 8
Hindu 8
Nghèo 8
Rica 8
UNICEF 8
bi@@ 8
les 8
nít 8
Thấu 8
AlloSphere 8
Ô@@ 8
Khoẻ 8
sọt 8
giũa 8
.Tôi 8
Nixon 8
quyện 8
khác. 8
tết 8
huyên 8
Robin 8
Earle 8
60@@ 8
chòi 8
Chấm 8
hip-hop 8
úa 8
xửa 8
B.@@ 8
5,@@ 8
Edison 8
nắn 8
Penn 8
nheo 8
chầm 8
Biên 8
acrylic 8
Trả 8
Fi@@ 8
bợ 8
25000 8
xỉn 8
Snowden 8
NSA 8
Marcus 8
Buy 8
hoo 8
Ha 8
Siri 8
vừng 8
Young 8
ớ 8
Angela 8
Niết 8
Vọng 8
150,000 8
Súng 8
Seth 8
kho@@ 8
To 8
2100 8
ỡ 8
Thatcher 8
xới 8
cau 8
nghén 8
Tiết 8
cảu 8
ngáy 8
Mac@@ 8
font 8
Light 8
1981 8
dả 8
Dụng 8
múc 8
sán 8
socola 8
sexy 8
L.A. 8
hẻm 8
thò 8
Tầng 8
Gogh 8
Hang 8
Sar@@ 8
số@@ 8
o-@@ 8
Stalin 8
Bắn 8
đờ 8
bạ 8
tã 8
Gu@@ 8
lùn 8
lại. 8
nghê 8
ha@@ 8
cotton 8
Sandy 8
Bách 8
Britannica 8
Chimborazo 8
Andes 8
Dược 8
tuối 8
Myhrvold 8
Ptolemy 8
Diamond 8
Brent 8
Ridge 8
1977 8
1978 8
ên 8
8,@@ 8
ngoặc 8
Par@@ 8
iTunes 8
RIAA 8
Robbins 8
lổ 8
thể. 8
Mohamed 8
xiếc 8
Igbo 8
guitar 8
phàm 8
Wisconsin 8
Tăng 8
Brothers 8
1972 8
1100 8
ãn 8
Đoán 8
toan 8
chòm 8
khu@@ 8
UC 8
Austin 8
ran 8
Kinsey 8
nơron 8
o-- 8
ATM 8
1969 8
Valdez 8
Ơn 8
Philips 8
Ice 8
Report 8
Han 8
Cẩn 8
toát 8
Sutherland 8
Buffett 8
khoét 8
Rumi 8
Ngữ 8
Palin 8
Steward 8
Nino 8
Hữu 8
Cash 8
Sue 8
lùa 8
Ca-ri-bê 8
ền 8
ngấu 8
Bank 8
by 8
bợm 8
Per@@ 8
la-de 8
loát 8
lới 8
Kaaba 8
Cấu 8
Thơ 8
Foster 8
ia 8
séc 8
Li 8
Warner 8
Online 8
TT 8
xù 8
Q@@ 8
Port-au-Prince 8
ngừoi 8
Sir 8
Rossy 8
chuốt 8
Rượu 8
Ornish 8
Atkins 8
rupi 8
British 8
vảy 8
hủ 8
Đằng 8
HAL 8
lăm 8
Chuck 8
mí 8
Annie 8
Rồng 8
ềm 8
Sau-lơ 8
giỡn 8
Barry 8
Goldilocks 8
Usain 8
Đá 8
Nu@@ 8
Nằm 8
Greenville 8
Electrolux 8
Yellowstone 8
Gấu 8
TEDster 8
vữa 8
Jose 8
mè 8
Or@@ 8
Gould 8
Botswana 8
Đàng 8
ethanol 8
coumarin 8
TH 8
Knight 8
xẻo 8
.org 8
cúc 8
71 8
Atlantic 8
Dai 8
Sally 8
nhám 8
Instagram 8
Shirky 8
Allan 8
Botton 8
te 8
Resnick 8
MAS 8
quậy 8
Ferris 8
Sachs 8
NO 8
Kar@@ 8
Ram 8
Git 8
Licklider 8
Data 8
Pac-Man 8
Patrick 8
bla 8
Haidt 8
JS 8
Patel 8
quác 8
Mừng 8
Evans 8
sấy 8
oliu 8
Wong 8
Karachi 8
Okinawa 8
Nicolas 8
nhái 8
Shreddies 8
Ngà 8
gừng 8
Curitiba 8
Wang 8
Percy 8
Turbo 8
JO 8
Krosoczka 8
Makoko 8
Popcorn 8
Pope 8
microblog 8
Sợi 8
Nathaniel 8
gluten 8
Skid 8
CSF 8
Randolph 8
Húp 8
Fez 8
Sửa 8
fMRI 7
Đau 7
Triệu 7
sushi 7
Shaw 7
Enron 7
Răn 7
Gây 7
McGonigal 7
ành 7
Chuẩn 7
organ 7
bass 7
Trầm 7
vỏn 7
nẻo 7
Điên 7
gắm 7
Thuyền 7
Life 7
diesel 7
Bãi 7
inches 7
Thịt 7
ận 7
khẽ 7
mẫm 7
Hỡi 7
Thất 7
z@@ 7
gọt 7
mix 7
Standford 7
ibuprofen 7
* 7
tuyền 7
SARS 7
Porter 7
Kendall 7
mi@@ 7
bèn 7
nao 7
Hillary 7
ne 7
nài 7
Janeiro 7
Yay 7
Nghiêm 7
toi 7
300,000 7
Thích 7
Oklahoma 7
Lão 7
trc 7
Ko 7
nng 7
Pugh 7
chùn 7
t.@@ 7
gột 7
đít 7
Project 7
Night 7
Ly@@ 7
Beth 7
lặt 7
Himalaya 7
thảnh 7
Ham 7
Đáp 7
Robbie 7
tịt 7
400.000 7
x-quang 7
thán 7
20000 7
Hỗ 7
Sha@@ 7
Chuỗi 7
dòm 7
nhừng 7
xỏ 7
nòi 7
Chó 7
Research 7
lươn 7
ủa 7
bấp 7
nhói 7
Con@@ 7
rọc 7
NG 7
Aspen 7
Achilles 7
200@@ 7
ri@@ 7
Khuyến 7
Natalie 7
sảng 7
roi 7
Portland 7
2500 7
Mer@@ 7
PR 7
Dạy 7
mênh 7
Chừng 7
Betty 7
lạ@@ 7
Tech 7
Vegas 7
Frederick 7
ệ 7
nhu@@ 7
Python 7
Sal@@ 7
Madrid 7
Morocco 7
Môn 7
Children 7
Ci@@ 7
Bon@@ 7
ắm 7
Salaam 7
nhỡ 7
Đầy 7
dìu 7
TQ 7
kilomet 7
Miranda 7
ri 7
Jazz 7
Geneva 7
Jackie 7
chon 7
Maine 7
Namibia 7
Khẩu 7
càn 7
FM 7
ôxy 7
ad 7
de@@ 7
art 7
dãi 7
K. 7
ỷ 7
Gever 7
Tulley 7
Mission 7
Meggendorfer 7
6.000 7
Harriet 7
ta-- 7
Trích 7
80,000 7
du@@ 7
ộc 7
Clarke 7
Dietrich 7
ii 7
Aicha 7
Walt 7
Lĩnh 7
tìn 7
JE 7
wingsuit 7
Palmer 7
Bri@@ 7
w@@ 7
Yahoo 7
um 7
12@@ 7
Ros@@ 7
Meyer 7
Thảo 7
Good 7
McMurdo 7
Erin 7
đành 7
cacbonat 7
protêin 7
gở 7
Bre@@ 7
ạ@@ 7
Gặp 7
S. 7
Nancy 7
hói 7
đễnh 7
Silver 7
Lãnh 7
Ko@@ 7
Hãng 7
50000 7
Sơn 7
Can@@ 7
Boy 7
nh. 7
ồi 7
cháo 7
Frankie 7
ghiếc 7
Bel@@ 7
1.4 7
8,000 7
PMTCT 7
400,000 7
Capetown 7
thon 7
Viagra 7
Fear 7
aah 7
Ed@@ 7
San@@ 7
quai 7
Iowa 7
Sâu 7
Midwest 7
Babbage 7
Zach 7
sầm 7
Riêng 7
Du 7
xiên 7
Monica 7
Oldenburg 7
Barcelona 7
bồng 7
Harold 7
Italy 7
In@@ 7
cằm 7
m-@@ 7
mụn 7
iết 7
nguệch 7
Meyerowitz 7
mẩn 7
net 7
ậm 7
Suzanne 7
India 7
mer 7
mili 7
Boeing 7
thâu 7
USB 7
PA@@ 7
heli 7
seri 7
nần 7
Hubble 7
Edwards 7
Lauren 7
đay 7
McLuhan 7
Bos@@ 7
Tỉnh 7
búp 7
Smithsonian 7
Whole 7
ú@@ 7
ò 7
Ger@@ 7
Terry 7
000@@ 7
nơtrino 7
Stern 7
gao 7
Lạc 7
Tweet 7
dù@@ 7
Peace 7
Kuznets 7
Giơ 7
Seligman 7
Cắt 7
bridge 7
cuốc 7
Linh 7
rồi. 7
Marilyn 7
Điệu 7
Gái 7
Sur@@ 7
Sunitha 7
Đỉnh 7
Simpson 7
Turing 7
RCA 7
tuýp 7
1954 7
1963 7
Cầm 7
suông 7
loét 7
vaccin 7
KIPP 7
xê 7
Maps 7
wi-fi 7
Atala 7
Paolo 7
TB 7
Jenny 7
DARwln 7
EL 7
IV 7
ela 7
Ab@@ 7
Journal 7
Motors 7
1926 7
Budapest 7
fischeri 7
remix 7
Lâu 7
ka 7
3-4 7
nua 7
Feki 7
Walter 7
50@@ 7
guồng 7
Tồn 7
30@@ 7
03 7
9000 7
thớt 7
Minority 7
truỵ 7
Chiều 7
Pink 7
ày 7
Drew 7
ậ@@ 7
Mèo 7
Martha 7
Eskimo 7
EG 7
nức 7
Nina 7
Xong 7
đung 7
24@@ 7
Love 7
Cal@@ 7
Pierre 7
don 7
Mohammed 7
Zurich 7
Thiệt 7
ter 7
150.000 7
iếu 7
ạn 7
Rối 7
JavaScript 7
hợt 7
trổ 7
BMW 7
Heidi 7
đư@@ 7
Đoàn 7
p. 7
Xử 7
oxit 7
Cờ 7
burger 7
Fabian 7
whiskey 7
I.@@ 7
tweets 7
Donna 7
Ground 7
Liz 7
5m 7
0.2 7
Denisovan 7
cocaine 7
Nàng 7
si 7
tơi 7
Trạch 7
Ecosia 7
dộng 7
Cà 7
Góc 7
Doyle 7
Tô 7
TNCs 7
A-@@ 7
bớ 7
còng 7
30000 7
88 7
cholesterol 7
PSA 7
Ganđi 7
liêm 7
Eddy 7
lẻn 7
Ebert 7
neutron 7
GW 7
Chán 7
Móc 7
1300 7
Geoff 7
Luton 7
Dracorex 7
Inuit 7
Solomon 7
gươm 7
muông 7
Bro@@ 7
khác-- 7
Derartu 7
Radcliffe 7
Chu 7
hấn 7
Ấy 7
Diane 7
Xương 7
Burkina 7
code 7
Đói 7
Coast 7
diệp 7
ất 7
cẳng 7
Phillips 7
Dereck 7
triền 7
cỡi 7
Go@@ 7
Houston 7
phất 7
Pilot 7
Hotmail 7
Bolivia 7
UNESCO 7
Manju 7
hóc-môn 7
Reed 7
mail 7
M-Pesa 7
Curtis 7
phiếm 7
Phổi 7
Mills 7
Tamara 7
Birmingham 7
ú 7
Durkheim 7
Powerpoint 7
sào 7
Chí 7
lữ 7
shows 7
xãy 7
Adams 7
Goldman 7
Hán 7
G20 7
chạc 7
Torvalds 7
Alisa 7
250.000 7
LB 7
Bernard 7
Ruby 7
film 7
Locke 7
xóc 7
ARES 7
transistor 7
love 7
Fowler 7
Rita 7
---- 7
Cookie 7
xuồng 7
Air 7
Moi 7
Me 7
Cesar 7
tầu 7
Mill 7
YR 7
Tamil 7
Granny 7
Beijerinck 7
Pia 7
Slick 7
Dublin 7
húp 7
Ukraina 7
Randi 7
gaga 7
thặng 7
Maggie 7
Milly 7
epoxy 7
BRCK 7
SK 7
Whirlwind 7
Engelbart 7
dioxit 7
một-hai-ba 7
Vincent 7
Bloom 7
Michoacán 7
Fildes 7
Gambia 7
Khadija 7
Morgana 7
Carroça 7
Bergen 7
Cruzeiro 7
Kiều 7
DemocracyOS 7
Tonya 7
FB 7
pa-nô 7
Tijuana 7
Hasbro 7
MOOCs 7
15,000 6
u-@@ 6
Milan 6
De 6
Cap@@ 6
thuý 6
Hàm 6
tấp 6
Austen 6
é@@ 6
Frankenstein 6
A.@@ 6
Rotterdam 6
khô@@ 6
â@@ 6
iều 6
cá@@ 6
giờ@@ 6
ộp 6
Wagner 6
Heads 6
Joplin 6
Sin@@ 6
micrô 6
Attenborough 6
rì 6
die 6
Lưu 6
phẩy 6
bềnh 6
ể 6
Ang@@ 6
Reader 6
cabin 6
Palo 6
Chandler 6
khuỷu 6
ứ@@ 6
International 6
sởi 6
ạng 6
nhât 6
Matty 6
bòng 6
Tướng 6
Bragg 6
boong 6
hấu 6
sưa 6
ị@@ 6
bẽ 6
Biệt 6
dụ@@ 6
SE@@ 6
Bennett 6
bủa 6
khải 6
São 6
ngóng 6
ADHD 6
c. 6
Bionicle 6
Kinshasa 6
Gulf 6
ans 6
ke 6
bu@@ 6
7.5 6
ực 6
kilômét 6
ff 6
Cử 6
Starck 6
như@@ 6
Tracy 6
Brin 6
Lock 6
Theodore 6
lì 6
Cloudburst 6
Mưa 6
Laura 6
Titan 6
ngưởi 6
nhiê@@ 6
ẫn 6
về. 6
Douglas 6
Phẩm 6
Jonny 6
Tommy 6
ghi-ta 6
Ngủ 6
99.9 6
Mũi 6
Gallup 6
3G 6
Hel@@ 6
thế-- 6
ũng 6
ố@@ 6
Ralph 6
Behar 6
90@@ 6
trĩ 6
Gốc 6
Uruguay 6
Puerto 6
cún 6
Seoul 6
Miguel 6
la-ze 6
Mistry 6
Tiềm 6
Camera 6
Kal@@ 6
nhẵn 6
gài 6
Masters 6
Marcel 6
chấu 6
Arnold 6
Dựng 6
Hutu 6
lán 6
Kobe 6
post 6
ời 6
Bundy 6
ằng 6
Dakota 6
tà 6
Hosni 6
chội 6
1879 6
ra@@ 6
Hacker 6
Wael 6
kền 6
Kermit 6
Sesame 6
dẻ 6
Bart 6
xắp 6
tôt 6
rât 6
1967 6
Nghi 6
đễ 6
Hộp 6
Crimer 6
oái 6
Catherine 6
giương 6
cuôc 6
ani 6
G.@@ 6
ừ@@ 6
ling 6
muồi 6
Mag@@ 6
1.6 6
hormone 6
10-@@ 6
cút 6
Kerala 6
field 6
all 6
xy 6
buốt 6
Dải 6
sởn 6
R.@@ 6
này- 6
Prius 6
ye 6
ì@@ 6
Lothar 6
vồ 6
ả@@ 6
terawatt 6
cùa 6
nó@@ 6
3-@@ 6
Kìa 6
Col@@ 6
Á@@ 6
ần 6
Ju@@ 6
Kindle 6
09 6
mía 6
tic 6
Gregory 6
220 6
Webb 6
ọ 6
ây 6
hững 6
trọ 6
Reuters 6
Orwell 6
ná 6
Mêhicô 6
Improv 6
Everywhere 6
quàng 6
Best 6
ey 6
Albania 6
Sarkozy 6
sắn 6
Nellie 6
McKay 6
dum 6
Ku@@ 6
ngai 6
ma@@ 6
Nokia 6
Burger 6
vi@@ 6
China 6
úi 6
õi 6
set 6
pH 6
ney 6
ngốn 6
United 6
Hatzalah 6
Panama 6
Braxin 6
phũ 6
Gamble 6
ol 6
Lazarus 6
nhằn 6
Joan 6
Berry 6
rỏ 6
Hẹn 6
RISD 6
Salinas 6
Herbie 6
xát 6
Mũ 6
miles 6
bộn 6
om 6
Bacon 6
180@@ 6
Jurvetson 6
tào 6
cùn 6
Marie 6
del 6
Claes 6
Sacramento 6
Kohn 6
ường 6
Khảo 6
iểu 6
Ol@@ 6
01 6
Madison 6
Disneyland 6
Maui 6
vin 6
è 6
Gell-Mann 6
well 6
rụt 6
quất 6
Hamburg 6
Cox 6
1890 6
tưng 6
Monster 6
tho@@ 6
thơi 6
Lord 6
Thân 6
é 6
Nuôi 6
Guy 6
Mali 6
Lei@@ 6
chi@@ 6
Bieber 6
ru@@ 6
ngông 6
sh 6
La-tinh 6
Her@@ 6
key 6
Gồm 6
1600 6
Greene 6
Alley 6
1400 6
ate 6
Jared 6
bai 6
Khổng 6
Công-gô 6
Holocaust 6
Ghraib 6
Bối 6
hoc 6
huých 6
Inter@@ 6
Clark 6
Hiếm 6
Đen 6
RA 6
vát 6
nhân-- 6
vo 6
nhậm 6
ỗi 6
Lái 6
nhác 6
Now 6
Brussels 6
Neanderthals 6
hăm 6
Ariel 6
Pi@@ 6
iPods 6
chịt 6
Lehman 6
giõi 6
MA@@ 6
ráo 6
nôm 6
líp 6
Chăm 6
Batiuk 6
rốn 6
lithium 6
cúp 6
xẩy 6
XML 6
ộn 6
Quê 6
Bur@@ 6
tẩm 6
cọp 6
mảy 6
Manchester 6
Shereen 6
trọc 6
ớn 6
Dẫu 6
Socrates 6
Kirk 6
Spock 6
DryBath 6
vắn 6
nhĩ 6
Pur@@ 6
Niên 6
Burma 6
tru@@ 6
Wangari 6
Men@@ 6
Telescope 6
Toả 6
Ridley 6
ắ@@ 6
Malthus 6
Bolte 6
party 6
hoocmôn 6
nickname 6
gu 6
beatbox 6
Sim 6
w 6
Daily 6
Pew 6
College 6
SM 6
70@@ 6
Kiếm 6
Giết 6
ẹt 6
Temple 6
25.000 6
Cruz 6
Maddie 6
Balkans 6
centimét 6
hơp 6
Macintosh 6
4.@@ 6
chút. 6
Vermeer 6
Coi 6
Richards 6
kia. 6
lằn 6
Yunus 6
Grameen 6
Laurie 6
Turk 6
n--@@ 6
Oslo 6
thong 6
Adrian 6
Port 6
dầm 6
lằng 6
mo 6
cạch 6
Sydney 6
Hazleton 6
ẩu 6
Thẩm 6
Mẩu 6
Tượng 6
,@@ 6
49 6
au 6
LG 6
1910 6
Bernoulli 6
ã@@ 6
người-- 6
Burns 6
nào. 6
JN 6
Zero 6
Rock 6
ráng 6
mini 6
dịnh 6
Warcraft 6
Boulder 6
Cornell 6
ứ 6
Sivers 6
2,500 6
MR 6
H1N1 6
Eliot 6
Tao 6
Huang 6
giằng 6
ững 6
Talks 6
Alison 6
là@@ 6
Jo 6
Crick 6
Wilkins 6
nhẩm 6
MI@@ 6
Kamen 6
Ubuntu 6
Nhện 6
Xung 6
.com 6
Nhung 6
cầ@@ 6
Ratan 6
Tata 6
Yochai 6
Kamal 6
Bond 6
Salman 6
Florence 6
Cousteau 6
DB 6
Ga 6
JB 6
ngoi 6
Somali 6
Shephelah 6
Phi-li-tin 6
Meadow 6
nhúc 6
Rao 6
trìu 6
5,5 6
Churchill 6
SAT 6
khua 6
Schwartz 6
upload 6
ịch 6
Vẽ 6
mô-men 6
Rabin 6
tango 6
dứa 6
Jenn 6
táp 6
4Shbab 6
ammonia 6
Action 6
hi@@ 6
Hal 6
radar 6
Faso 6
Kurzweil 6
on@@ 6
Bulgaria 6
Prospera 6
PP 6
giá@@ 6
Store 6
Bose 6
ar 6
Garden 6
Gol@@ 6
Michel 6
Avelile 6
àn 6
Benoit 6
bện 6
Svalbard 6
Koolhaas 6
ngậm 6
gấm 6
Legadema 6
Hương 6
Borane 6
bói 6
Mullins 6
ID 6
hám 6
hợm 6
oát 6
container 6
Moskowitz 6
lol 6
Beatrice 6
Montreal 6
giới. 6
80@@ 6
Giêng 6
DMCA 6
ă@@ 6
lòi 6
do@@ 6
4,5 6
2016 6
Shackleton 6
Bobby 6
sâm 6
panh 6
Ashdown 6
Swaptree 6
liệng 6
nạo 6
hê 6
amen 6
1959 6
yo 6
bu 6
mượt 6
Elyn 6
chùng 6
Grove 6
Autodesk 6
hecta 6
ozone 6
Angola 6
Na-uy 6
tĩu 6
cta 6
Rajasthan 6
Depp 6
XDR-TB 6
fu 6
Kasparov 6
Trek 6
Erez 6
AB 6
Cát 6
nuông 6
FN 6
Acumen 6
Pierson 6
c-- 6
Limb 6
3.7 6
Muỗi 6
Karmapa 6
Athabasca 6
Sóng 6
Dharamsala 6
ROV 6
không-thời 6
Grier 6
mền 6
Zullinger 6
fission 6
Sheena 6
Kiev 6
nái 6
Sandberg 6
Bitcoin 6
Hân 6
Moon 6
Scrabble 6
Wofford 6
napot 6
Bartok 6
Milliken 6
Dorothy 6
Interval 6
Ferguson 6
Hama 6
Mê-hi-cô 6
Georges 6
Pear 6
Kenneth 6
Dewey 6
D.J. 6
Toonchi-too 6
guga 6
Webster 6
Osorio 6
Calcutta 6
Mau 6
Jeanny 6
Pizza 6
Punta 6
Huntington 6
Zabbaleen 6
-40 6
Gray 6
modem 6
Winky 6
Dink 6
HyperCard 6
Berners-Lee 6
Carrillo 6
Tuynisi 6
Klee 6
Meegeren 6
Wounded 6
WT 6
Apophis 6
Cheval 6
Blanc 6
terroir 6
n-gram 6
Sughar 6
Pimp 6
carroça 6
Maidan 6
VM 6
DU 6
Erick 6
amyloid-beta 6
Quixote 6
coban 6
monkey 6
Toxo 6
Pholeros 6
ể@@ 5
Len@@ 5
Mildred 5
ện 5
ack 5
Genspace 5
khồng 5
Char@@ 5
Khô 5
175 5
Bề 5
óng 5
Hebrew 5
tie 5
Hỗn 5
1.500 5
Khoan 5
ài. 5
Lãng 5
cộm 5
war 5
ar@@ 5
ựa 5
loi 5
Cab@@ 5
ca-lo 5
liềm 5
Kur@@ 5
He 5
Elliot 5
Nhi 5
Alto 5
đuốc 5
Chan@@ 5
ợt 5
búng 5
nhg 5
nghành 5
Lính 5
Bùm 5
m- 5
ọi 5
xưng 5
mạt 5
bẹ 5
đểu 5
Little 5
League 5
Brad 5
Shawn 5
ở@@ 5
Power 5
vào-- 5
ruy 5
13@@ 5
Sp@@ 5
County 5
vệc 5
đăc 5
100000 5
list 5
\ 5
genes 5
Ever@@ 5
Pu@@ 5
ận. 5
Khu@@ 5
hổn 5
5-6 5
Vulnerability 5
cuồn 5
Virtual 5
Choir 5
ơ-@@ 5
tiệ@@ 5
Trụ 5
Pin@@ 5
hổi 5
ón 5
sam 5
Hoang 5
Banjo 5
bluegrass 5
Mizzone 5
kham 5
xi-lanh 5
1958 5
Milton 5
khảm 5
Xấu 5
--những 5
Lá 5
Y. 5
ều 5
photoshop 5
EPA 5
com 5
ụp 5
dich 5
Map 5
Lab 5
Abdul 5
dầy 5
Uri 5
9kg 5
calori 5
CH 5
loã 5
Tồi 5
330 5
Tứ 5
70,000 5
G8 5
On@@ 5
Homer 5
bịu 5
mống 5
Kathryn 5
Schulz 5
ony 5
cu 5
sạo 5
Vá 5
Augustine 5
Glass 5
Empire 5
Quạ 5
Pandora 5
ngán 5
W@@ 5
USC 5
gượng 5
Zappos 5
tiền-@@ 5
y. 5
Bông 5
đich 5
oanh 5
Main 5
Vang 5
espresso 5
Ghonim 5
Save 5
Royal 5
Hippocrates 5
chác 5
hơ@@ 5
ớ@@ 5
ạp 5
lữa 5
Fitzgerald 5
Wool 5
Egan 5
bits 5
Edith 5
For 5
ử 5
tuốc 5
Vân 5
boom 5
ghita 5
Kofi 5
Sam@@ 5
Ngừng 5
Ahmad 5
© 5
ISAF 5
NATO 5
Fa@@ 5
Afgh@@ 5
áy 5
phít 5
bowling 5
1928 5
kít 5
15.000 5
Cup 5
ửa 5
350.000 5
ẵm 5
Hydro 5
CT 5
Imperial 5
Rút 5
locavore 5
Rice 5
ẻo 5
Hanson 5
est 5
Bla@@ 5
nhợ 5
¾ 5
ny 5
khuân 5
Bron@@ 5
Bogota 5
4-@@ 5
Cannes 5
Volvo 5
Salt 5
xước 5
ặng 5
Mi 5
6-@@ 5
Hepburn 5
Coleridge 5
Truyện 5
fax 5
Universal 5
lút 5
Hamas 5
Han@@ 5
Thước 5
Campbell 5
Phủ 5
Idaho 5
Timothy 5
Enriquez 5
j@@ 5
vs 5
os 5
Melbourne 5
ọng 5
Napster 5
chí@@ 5
nu@@ 5
911 5
ỉn 5
se@@ 5
Mil@@ 5
Mại 5
Lao 5
Phá 5
khạo 5
hỡi 5
Ngon 5
1904 5
a. 5
Food 5
mùn 5
Tu 5
McKean 5
vít 5
8.1 5
só 5
sơm 5
download 5
True 5
đúp 5
Your 5
ụa 5
Tần 5
Eli 5
7.000 5
ô-liu 5
Godin 5
Hard 5
250000 5
sắc. 5
15-20 5
TEDTalks 5
chè 5
Ines 5
15000 5
Commons 5
Denver 5
ự 5
thệ 5
Nghiệm 5
úm 5
õ 5
Nhấn 5
rằ@@ 5
đôn 5
xạc 5
rôi 5
Đo 5
ãy 5
đàu 5
ppm 5
CE 5
Pri@@ 5
Ô-@@ 5
TEDsters 5
SJ 5
picnic 5
card 5
ừa 5
ara 5
Damon 5
P. 5
Goliath 5
ồ@@ 5
Lou 5
1964 5
stan 5
199@@ 5
Sát 5
Chekhov 5
Phú 5
ry 5
River 5
lác 5
1,4 5
Lessig 5
0,05 5
PAC 5
Leslie 5
nhuỵ 5
Willy 5
f@@ 5
TED2011 5
Tiếc 5
ớp 5
Avatar 5
nho@@ 5
blues 5
Company 5
người. 5
Z@@ 5
Cod 5
Louise 5
coli 5
R. 5
Marvin 5
Z 5
Bradley 5
240 5
CH@@ 5
sê-ri 5
quầng 5
Fleming 5
Sagan 5
dùi 5
ngụm 5
vè 5
khiêng 5
cộc 5
đạ@@ 5
sulfur 5
dioxide 5
Đồi 5
ầ@@ 5
PBS 5
Diêm 5
2kg 5
dà 5
Đom 5
Cameroon 5
Top 5
bi-a 5
Kevlar 5
Foods 5
đó@@ 5
Cronin 5
nh- 5
ano 5
11.000 5
chú@@ 5
Rau 5
CSI 5
1929 5
ngoằn 5
ninja 5
ụ@@ 5
Game 5
le@@ 5
War 5
phung 5
Dow 5
Shirin 5
Casablanca 5
Lotto 5
Can 5
man@@ 5
nhiện 5
Gh@@ 5
2,3 5
Patricia 5
mới. 5
Patton 5
Frans 5
Ensler 5
rie 5
thấy. 5
Giacometti 5
1932 5
Wislawa 5
Szymborska 5
Barricelli 5
Aha 5
ẹo 5
1952 5
byte 5
Ranh 5
Global 5
ế@@ 5
để@@ 5
Renny 5
Gleeson 5
tomorrow 5
chắp 5
Paravicini 5
Bumblebee 5
Slovenia 5
Em@@ 5
megawatt 5
smartphone 5
Khoá 5
1850 5
Đặng 5
tủa 5
học. 5
ùi 5
Allison 5
hinh 5
I. 5
Treo 5
JPL 5
nghiễm 5
Basit 5
Amjad 5
toại 5
Siemens 5
Eva 5
íc 5
phường 5
Rock@@ 5
tôi- 5
lô-gic 5
Rich 5
rip 5
đăt 5
sực 5
sy 5
quy@@ 5
Bat@@ 5
Pha 5
Archer 5
Sư 5
Tyler 5
Church 5
ùa 5
liếm 5
Yugoslavia 5
Rico 5
hão 5
ngi 5
out 5
tô@@ 5
berg 5
Horowitz 5
lênh 5
ay 5
phập 5
ỗ 5
Pre@@ 5
AN@@ 5
Vực 5
Limpopo 5
nhiếm 5
TH@@ 5
Chữa 5
thóc 5
Jody 5
diển 5
Maathai 5
thổng 5
NGO 5
stein 5
H. 5
Atacama 5
ạc 5
Design 5
For@@ 5
Laurel 5
Weiffenbach 5
analog 5
Table 5
Cruise 5
Haas 5
Tia 5
Marrow 5
Miner 5
ly@@ 5
Lồng 5
bye 5
Nhắn 5
3.@@ 5
2D 5
karate 5
Oxytocin 5
Tuyến 5
siêng 5
ỏng 5
Square 5
Fey 5
Today 5
ya 5
4chan 5
6.5 5
board 5
chài 5
cầy 5
Caucasus 5
Leonard 5
Jansky 5
1941 5
bucardo 5
Bò 5
Caribbean 5
ant 5
Kazakhstan 5
ựng 5
ển 5
HI@@ 5
thâ@@ 5
JU 5
hòng 5
Nhập 5
mửa 5
nhá 5
Participant 5
va@@ 5
CA@@ 5
250,000 5
dance 5
được@@ 5
Mechanical 5
Jansen 5
my 5
Business 5
Sếp 5
Họp 5
phăng 5
Maz 5
Allah 5
Tặc 5
Lovegrove 5
Mecca 5
Kéo 5
generic 5
Bật 5
vât 5
Idol 5
Lima 5
CS 5
Airbus 5
Nè 5
TiVo 5
Phái 5
Sox 5
Zig 5
Carson 5
ed 5
ferrofluid 5
ỉ@@ 5
Dọc 5
năm-- 5
Sears 5
Buckminster 5
Fuller 5
Deb 5
Noujaim 5
MTV 5
Trực 5
Nghề 5
Thói 5
Christina 5
era 5
Stephanie 5
jeans 5
Yosemite 5
n.@@ 5
Wyoming 5
0.8 5
ngày. 5
rít 5
25@@ 5
21@@ 5
giớ 5
Berkley 5
but 5
ỳ 5
Aah 5
12000 5
dong 5
Qui 5
TED2010 5
thinh 5
Vứt 5
grams 5
Sandel 5
ượng 5
Kiran 5
IT 5
.Chúng 5
meme-ome 5
Joachim 5
1966 5
tạt 5
BRD4 5
Dana 5
Gà 5
thali 5
Novocure 5
GBM 5
Mat@@ 5
Lưới 5
Italia 5
Kenyan 5
Mena 5
th 5
Rockwell 5
Romeo 5
Daphne 5
mầy 5
Tựa 5
re@@ 5
thôi. 5
facebook 5
u- 5
ứt 5
tuồi 5
môtô 5
ảy 5
từ-@@ 5
Fargo 5
Merckx 5
Rap 5
ắc-@@ 5
Mall 5
AC 5
tritium 5
uranium 5
Pilots 5
Playstation 5
Kit@@ 5
Pollock 5
Skerry 5
ê-@@ 5
ùm 5
Barton 5
Ngón 5
11@@ 5
Mustafa 5
Mul@@ 5
lag 5
Stygimoloch 5
T.@@ 5
Java 5
ầy 5
soundscape 5
oai 5
Iphone 5
McAfee 5
cáng 5
Reuther 5
Xô-viết 5
Antonio 5
lơi 5
UNAIDS 5
Rằm 5
trớn 5
Gross 5
Full 5
rám 5
Lynn 5
am@@ 5
múi 5
Tam 5
Ahn 5
Assange 5
nanh 5
mủ 5
ắn 5
8.000 5
Nốt 5
thọc 5
Springs 5
Parker 5
quở 5
khi@@ 5
êt 5
Creative 5
ic 5
nhích 5
Pamela 5
Koko 5
Trật 5
poker 5
Goldstein 5
Hanna 5
quắt 5
Claron 5
Prozac 5
Zimbardo 5
Gayle 5
vầng 5
nong 5
JT 5
CAO 5
Hardy 5
like 5
SING 5
tulip 5
calorie 5
PTSD 5
Phiến 5
Bơi 5
Thrun 5
DA@@ 5
Mis@@ 5
Thiếu 5
Turin 5
Eden 5
trệt 5
Borges 5
Studs 5
Jenkins 5
Dallas 5
Twain 5
Myesha 5
Cúc 5
Milk 5
oo@@ 5
Volta 5
magie 5
cola 5
thich 5
Mù 5
ướng 5
Virgin 5
Joyce 5
Birds 5
dến 5
mê-tan 5
choi 5
Act 5
mát-xa 5
người- 5
ạnh 5
Kendal 5
Lầu 5
năm. 5
Hunt 5
Phạm 5
Standard 5
Ga@@ 5
ak 5
lbs 5
Basque 5
Bunker 5
ver 5
yếm 5
Bậc 5
Bike 5
Mont@@ 5
parabol 5
Walters 5
102 5
lẩm 5
Bennington 5
D.@@ 5
550 5
Marla 5
Wujec 5
lúp 5
ụt 5
bập 5
bét 5
giầu 5
Olson 5
Đác-uyn 5
Kuiper 5
vút 5
Hừm 5
èn 5
Day 5
GitHub 5
Teresa 5
Khởi 5
Bluetooth 5
cool 5
Glasgow 5
Than 5
Xuống 5
Small 5
Geoffrey 5
Dale 5
Randy 5
Mason 5
Del 5
ma-@@ 5
ning 5
1956 5
YB 5
Christakis 5
Cra@@ 5
Bosch 5
ứa 5
bạ@@ 5
Camden 5
Liu 5
Bor@@ 5
Kismet 5
Lê 5
Hamilton 5
Bear 5
ir 5
Loren 5
Mapendo 5
Trứng 5
Phô 5
iên 5
Quác 5
OMG 5
Ronson 5
Dunlap 5
Xuất 5
thãi 5
VÌ 5
cac-bon 5
NFL 5
loai 5
683 5
Mann 5
Nor@@ 5
1938 5
Sardinia 5
ikigai 5
Tibbits 5
Tuy-ni-di 5
cưú 5
Thaler 5
Rony 5
3K 5
caramen 5
Hood 5
Birke 5
Miko 5
cuống 5
1919 5
Brendan 5
Jal 5
Fide 5
Galvani 5
Susana 5
Prickly 5
Forer 5
Bồi 5
Bloomberg 5
cocain 5
duệ 5
Vanier 5
Remen 5
xơi 5
Rupal 5
DR 5
Tahltan 5
Hi@@ 5
cở 5
Mobile 5
Fraser 5
Tombo 5
Citi 5
Worcester 5
Monkey 5
Punk 5
Farm 5
Lunch 5
duplex 5
IGF-1 5
Ahmedabad 5
GNH 5
Copernican 5
MySpace 5
mg 5
an@@ 5
Casa 5
Musica 5
SANCCOB 5
Saxe 5
Blackawton 5
Haring 5
Wormwood 5
Scrubs 5
Niall 5
Phấn 5
Mycoplasma 5
sá@@ 5
Lamanites 5
WorldWide 5
Bueller 5
Conan 5
Collusion 5
Jacobs 5
Schlaug 5
Goran 5
Pinot 5
Chilê 5
Achill 5
Khalida 5
Brohi 5
NRK 5
Galen 5
Ommm 5
goro 5
Chỉnh 5
442 5
Hz 5
defriend 5
Mellody 5
Bannister 5
SAMS 5
Sán 5
Avaz 5
edX 5
isoprene 4
1939 4
Sidney 4
Po@@ 4
Nazi 4
Kane 4
ale 4
DIYbio 4
vọc 4
xoăn 4
Francesca 4
thía 4
Ap@@ 4
toạc 4
-và 4
đầu-- 4
phới 4
Talking 4
id 4
Nashville 4
gothic 4
MC 4
bal@@ 4
nhin 4
way 4
mớm 4
Pedro 4
Thả 4
ọc 4
Sitopia 4
Eddi 4
cuội 4
Diều 4
Te@@ 4
ler 4
Aylward 4
Úi 4
GI@@ 4
Pradesh 4
Bihar 4
PostSecret 4
tè 4
chan 4
ới 4
ghìm 4
thé 4
Huấn 4
da@@ 4
bẹp 4
Stan@@ 4
Mội 4
hiêu 4
câ@@ 4
Muruganantham 4
ên-- 4
gòn 4
cellulose 4
ăng-@@ 4
domain 4
TED2008 4
4.6 4
Fo@@ 4
núng 4
Ira 4
Dartmouth 4
Juliana 4
26@@ 4
Bobo 4
phú@@ 4
Trust 4
Myanmar 4
Ninth 4
Ward 4
Gal@@ 4
Oxfam 4
viển 4
Geo@@ 4
Aubrey 4
váo 4
Đay 4
nhình 4
chúng. 4
ễm 4
kilô 4
nện 4
hển 4
Building 4
gie 4
check 4
Pratury 4
đó- 4
Vinh 4
Christ 4
ấ@@ 4
Rubin 4
Porco 4
P.@@ 4
ngở 4
....@@ 4
..... 4
..@@ 4
cả@@ 4
vế 4
khoải 4
chớm 4
xúp 4
àoo 4
thế@@ 4
Rosa 4
Jung 4
ởi 4
trược 4
Lũng 4
Cap 4
Herman 4
Jawbone 4
Negroponte 4
wifi 4
vằn 4
ball 4
tính. 4
Us 4
Deborah 4
Rhodes 4
1cm 4
Carrie 4
G. 4
cricket 4
khập 4
khiễng 4
Liều 4
Dicke 4
Súp 4
5kg 4
ac 4
Tutsi 4
Sumatra 4
Nigel 4
jean 4
cạm 4
bưng 4
C.A. 4
xuốt 4
 4
sum 4
Rembrandt 4
Belshazzar 4
XIX 4
Jehovah 4
Isaiah 4
four 4
Ir@@ 4
Hitchcock 4
ki-lô-mét 4
nhạnh 4
TEDxUSC 4
phễu 4
ves 4
NBC 4
loáng 4
húc 4
loè 4
Bjorn 4
Monty 4
Soviet 4
Serbia 4
Balkan 4
Khaled 4
Aid 4
50-@@ 4
apartheid 4
Winehouse 4
rưới 4
Rosalie 4
1759 4
or@@ 4
ât 4
ễ 4
met 4
thể@@ 4
1.9 4
ni@@ 4
Jen@@ 4
Elliott 4
Emanuel 4
ker 4
thổn 4
hacking 4
ad@@ 4
Ethel 4
J.@@ 4
Billie 4
được-- 4
hippie 4
Mou@@ 4
nhất. 4
Burundi 4
viên. 4
Jack@@ 4
òng 4
ược 4
French 4
Nan@@ 4
our 4
1.600 4
Brain 4
đrô 4
ần. 4
Pepper 4
Net 4
chực 4
chắng 4
mốt 4
Pringle 4
xốt 4
ze 4
diếp 4
Nấu 4
Đều 4
Dậy 4
Majora 4
MacArthur 4
héc 4
Randall 4
lơn 4
Bi 4
bay-- 4
7-@@ 4
nh-@@ 4
đến-- 4
ểu 4
Huyền 4
xó 4
ơng 4
Ki 4
Gánh 4
dặc 4
2-@@ 4
5-@@ 4
Rodney 4
loan 4
về@@ 4
ếp 4
Cặp 4
nhanh. 4
ge 4
Gaga 4
Thu@@ 4
truồng 4
Mad 4
Type 4
Ahh 4
Phyllis 4
i.@@ 4
Braille 4
nệm 4
hồ@@ 4
` 4
channelrhodopsin 4
iệc 4
Sky@@ 4
chong 4
BASE 4
ăn-ten 4
họ. 4
Miami 4
Lower 4
Mikko 4
Hypponen 4
PRISM 4
ìng 4
NA@@ 4
LinkedIn 4
Box 4
Bra-xin 4
sữ 4
Todd 4
Cưỡng 4
3500 4
Union 4
Queens 4
Rama 4
ki-ốt 4
lạp 4
hù 4
dăm 4
Spo@@ 4
Quái 4
Delaware 4
Fried 4
Wendy 4
nem 4
iệt 4
ĩ. 4
Sen 4
xắt 4
đơợc 4
xố 4
104 4
Kho 4
OED 4
Newsweek 4
khuyếch 4
02 4
iểm 4
toanh 4
Bliss 4
MTA 4
Isaac 4
bướng 4
Force 4
Sil@@ 4
wan 4
Safeway 4
Lionel 4
FedEx 4
Ho 4
mé 4
Market 4
Gar@@ 4
5-10 4
éo 4
07 4
hà@@ 4
heroin 4
Catholic 4
June 4
hiu 4
sụng 4
tắn 4
Mot@@ 4
Johannesburg 4
1,100 4
ýt 4
Phi. 4
McCarthy 4
trét 4
mải 4
Sandra 4
Maeda 4
Helvetica 4
whoa 4
Spar@@ 4
free 4
Free 4
Cấm 4
Carlos 4
Gor@@ 4
fi 4
Barón 4
Gri@@ 4
Hancock 4
nhó 4
Natural 4
xôn 4
Phí 4
Whewell 4
Herschel 4
nghiệm. 4
ard 4
nghi@@ 4
xoè 4
liu 4
ên-@@ 4
260 4
Oops 4
Center 4
Rec@@ 4
Đùa 4
thoai 4
Fin@@ 4
ra-- 4
Ana@@ 4
des 4
mướt 4
mãng 4
tốt. 4
Denis 4
-1 4
00@@ 4
Capitol 4
Thoreau 4
ga-ra 4
mi-li-mét 4
líu 4
en@@ 4
nhỏ. 4
ca@@ 4
Vusi 4
èo 4
1915 4
Bot@@ 4
dodo 4
Spinoza 4
Bol@@ 4
Nabokov 4
Bertrand 4
Chaplin 4
Den@@ 4
Ex@@ 4
.&apos; 4
Rod 4
Hawkins 4
Minsky 4
Shepherd 4
Hillis 4
Larsson 4
Karolinska 4
3.3 4
0.6 4
silic 4
tro@@ 4
xuông 4
số. 4
ding 4
rinh 4
big 4
adrenaline 4
solo 4
chỏ 4
lian 4
Hallelujah 4
½ 4
ville 4
hế 4
Trượt 4
y.@@ 4
caffeine 4
đản 4
Israeli 4
ếu 4
xenluloza 4
Nguyen 4
Nye 4
khư 4
phào 4
Gagarin 4
1m@@ 4
ôc 4
vẵn 4
Zuckerberg 4
sel 4
típ 4
10,20,@@ 4
7,@@ 4
vén 4
luộc 4
Hấp 4
Watt 4
win 4
Tilson 4
MTT 4
1880 4
retrovirus 4
pao 4
Cất 4
4x@@ 4
c.@@ 4
họ@@ 4
ng--@@ 4
Africa 4
ệ@@ 4
nc 4
ờng 4
network 4
tât 4
Hạn 4
Lộ 4
Shack 4
đo@@ 4
Bible 4
Blaise 4
Đấng 4
Dhabi 4
chúng-- 4
Ngăn 4
cùm 4
măt 4
Ingrid 4
chãi 4
Buộc 4
Rift 4
Jeep 4
Nar@@ 4
Jaclyn 4
hờ 4
Kịch 4
Neu@@ 4
Cỗ 4
Bigelow 4
24h 4
ặt 4
nucleic 4
Phillip 4
sắng 4
học-- 4
dượt 4
Kohler 4
đấy-- 4
German 4
chớ 4
ỡn 4
Michelin 4
vun 4
Mau@@ 4
kangaroo 4
Ockelford 4
độ@@ 4
ra-@@ 4
sỏ 4
mất. 4
Tatum 4
106 4
hậ@@ 4
đoái 4
5t 4
dậm 4
Bom 4
Griffith 4
Orville 4
230 4
256 4
Tweets 4
i&apos; 4
Ritalin 4
phàng 4
tron 4
Protein 4
xịn 4
centimet 4
Lindbergh 4
Hockenberry 4
Louie 4
e-@@ 4
ngoãn 4
Thâm 4
Dishman 4
Legacy 4
IMPASS 4
Tảng 4
ộng 4
ghềnh 4
tời 4
Co 4
Nối 4
Tốn 4
Lahore 4
rượt 4
Ser@@ 4
nã 4
Jain 4
Mercedes 4
play 4
General 4
Vibro 4
ẩ@@ 4
Baraniuk 4
ề 4
Hemingway 4
Adelaide 4
Màng 4
Túi 4
kang-gu-ru 4
dingo 4
AT@@ 4
miến 4
bỏ@@ 4
iO 4
Tillett 4
trầy 4
dùm 4
ic@@ 4
Quentin 4
lỉnh 4
king 4
ki@@ 4
mới-- 4
Huy 4
vèo 4
quánh 4
1870 4
vảng 4
lét 4
nhổm 4
hội. 4
NG@@ 4
Ấ@@ 4
Rời 4
ana 4
Mairead 4
8.@@ 4
Wi@@ 4
Griffin 4
Newark 4
Willie 4
INK 4
Seatle 4
ru 4
ò@@ 4
Large 4
Shelf 4
1650 4
gin 4
40@@ 4
Dunbar 4
Khoản 4
han 4
SIM 4
sần 4
Phăng-teo 4
996 4
Stress 4
adrenalin 4
Chateau 4
yards 4
Ayelet 4
Vienna 4
Pra@@ 4
Mises 4
Armenia 4
ms 4
sủng 4
Au@@ 4
Sufi 4
Baby 4
Ste@@ 4
ina 4
Mấu 4
Limbaugh 4
thưở 4
ick 4
USA 4
A-Rập 4
Kat@@ 4
memes 4
roll 4
đầu. 4
Dusty 4
16,000 4
FOXP2 4
1,6 4
Leopold 4
Direct 4
Wyss 4
Lanza 4
Vỏ 4
Albright 4
Paley 4
192 4
kilowatt 4
HIện 4
sáng-tối 4
gian. 4
Mowgli 4
1971 4
Clooney 4
huh 4
Giây 4
Hindi 4
Voi 4
mứt 4
Page 4
Kinect 4
cyborg 4
Nyad 4
Cháy 4
Nachtwey 4
Lyn@@ 4
Club 4
Scandinavia 4
Ernest 4
TED.com 4
đụn 4
Ghemawat 4
1.25 4
à@@ 4
Ibrahim 4
Guinness 4
săm 4
Beat@@ 4
Jobrani 4
ines 4
day 4
Handspring 4
Basil 4
ca-nô 4
Morris 4
Town 4
nylon 4
ngụp 4
tong 4
nhơ 4
ba-lê 4
Thum 4
Miệng 4
Brisbane 4
Opera 4
Vishna 4
156 4
Copper 4
Vander 4
103 4
with 4
sai. 4
Pashtun 4
6kg 4
Garone 4
Sinek 4
Pierpont 4
Jeffrey 4
gờ 4
ite 4
úc 4
Kitchen 4
đúa 4
99@@ 4
sandwiches 4
Who 4
80-@@ 4
Pete 4
Q 4
1885 4
hạm 4
nhang 4
Leroy 4
nhò 4
violon 4
cọng 4
cả. 4
di@@ 4
ướ@@ 4
sau@@ 4
Miếng 4
Ostrow 4
Truy 4
Jehane 4
phực 4
Mạo 4
Thẳng 4
Winnipeg 4
Doris 4
kiếng 4
thuật-- 4
lớn-- 4
ters 4
tiế@@ 4
PET 4
Brynjolfsson 4
1875 4
bậy 4
ngạn 4
Bailey 4
Ferrari 4
mỏm 4
US 4
hiệ@@ 4
Pranitha 4
Financial 4
vãi 4
prô-tê-in 4
nanô 4
Sớm 4
Thúc 4
lèo 4
Trilogy 4
cụ@@ 4
Berlow 4
Gourley 4
ướn 4
Dodi 4
tuyệ@@ 4
họ-- 4
hừm 4
JQ1 4
Quán 4
Chapman 4
co@@ 4
had 4
Saint 4
-c@@ 4
Jetman 4
CU@@ 4
Ơ 4
190 4
Sải 4
Jean-@@ 4
600,000 4
Weber 4
Far@@ 4
Johnston 4
mui 4
111 4
Gr@@ 4
Bouba 4
Kiki 4
toang 4
it@@ 4
Grandin 4
Asperger 4
thuât 4
đấy. 4
1-@@ 4
nicotine 4
87 4
Tu@@ 4
dục-- 4
Lancet 4
Mashelkar 4
9,000 4
RAM 4
Rủi 4
Biff 4
nếu-thì 4
Leadbeater 4
Aron 4
Por@@ 4
vung 4
Shin@@ 4
đếu 4
Khỉ 4
Whitney 4
Money 4
Lear 4
Debora 4
Glenn 4
àng. 4
ji 4
Hè 4
Pachycephalosaurus 4
xẩu 4
ầ 4
at@@ 4
Yucatan 4
ảng 4
TEDxWomen 4
sunfat 4
Bernie 4
biophony 4
spectrogram 4
chorusing 4
Aparna 4
Soren 4
Xcốt-len 4
Wiki 4
IRC 4
AOL 4
Tật 4
Winston 4
Ala@@ 4
Amnesty 4
Hole 4
Damasio 4
Thừa 4
Mas@@ 4
rồ@@ 4
Vodka 4
.org. 4
Mankoff 4
NH@@ 4
sất 4
Keller 4
thòng 4
wiki 4
Xuân 4
headphone 4
Dar@@ 4
Thompson 4
A4 4
Velcro 4
ora 4
Áp 4
Portal 4
Colin 4
Carmen 4
phone 4
ẻ 4
Sharmeen 4
luyên 4
SOC 4
Worldchanging 4
ĐTDĐ 4
Gan@@ 4
Lula 4
Trúng 4
tuốt 4
ờm 4
Cởi 4
Senior 4
Aria 4
Cage 4
à. 4
PCCC 4
Làng 4
tư@@ 4
Gắn 4
Gmail 4
Mc 4
CNC 4
Hòn 4
Khuynh 4
trọng-- 4
App 4
Blo@@ 4
Parikrma 4
ụm 4
Boys 4
Parusharam 4
sing 4
Rupert 4
46664 4
Robben 4
Nation 4
Treatment 4
SIDA 4
Mùi 4
Bào 4
1944 4
Barnett 4
mình-- 4
1933 4
Golden 4
Ash@@ 4
Rem 4
Ani@@ 4
Joubert 4
bá@@ 4
o. 4
Cirque 4
Luca 4
Cis 4
THPT 4
46@@ 4
vodka 4
S-H 4
Jonh 4
quyệt 4
Luis 4
CMU 4
reCAPTCHA 4
ab@@ 4
Heatherwick 4
Jorge 4
Lil 4
Cisco 4
ngỗ 4
thô@@ 4
kè 4
1912 4
Worth 4
Finn 4
tủi 4
Lửa 4
Ngo@@ 4
Koblin 4
69 4
Labs 4
Thom 4
&apos;t 4
No 4
trumpet 4
Thang 4
Diet 4
Poupon 4
Ox@@ 4
Chiếm 4
garage 4
Duflo 4
Woods 4
uhm 4
iếm 4
Angry 4
Beirut 4
Niger 4
Saima 4
thùa 4
tt 4
Nãy 4
việc@@ 4
tề 4
Shea 4
Geraldine 4
trát 4
Km 4
MDG 4
Audio 4
Recording 4
ợng 4
ya@@ 4
Kew 4
Jolly 4
Dalai 4
Lama 4
Googler 4
RE@@ 4
544 4
Moby 4
gạc 4
DEPTHX 4
Wood 4
Tandon 4
router 4
Cac@@ 4
Markus 4
Bismark 4
EP 4
Wal-Mart 4
Mujahideen 4
Ủng 4
huyệt 4
Avril 4
ội 4
Mandelbrot 4
Trạng 4
Sex 4
ghiền 4
413 4
Discovery 4
ửng 4
đúng. 4
em@@ 4
ẳ@@ 4
&apos;Andrea 4
nhẩy 4
ỗ@@ 4
&apos;n 4
hotdog 4
Amen 4
Ti 4
ún 4
xem. 4
ZF 4
Yann 4
Trúc 4
nhiểu 4
Maasai 4
chỉa 4
ục 4
Lát 4
1-2-3 4
ve@@ 4
10,@@ 4
Dung 4
Clare 4
Luce 4
Saks 4
Rebel 4
Val 4
cù 4
Janet 4
cấn 4
Cru@@ 4
Delta 4
Oxi 4
Rider 4
27@@ 4
0.000 4
Zulu 4
Shu@@ 4
TCN 4
Roth 4
Medicine 4
xunphua 4
Babble 4
Thwaites 4
Lyne 4
server 4
agra 4
Cương 4
Gatsby 4
UV 4
Krishna 4
tắp 4
vacxin 4
coltan 4
ưc 4
Hối 4
CI 4
10.@@ 4
Giày 4
Eliasson 4
Tate 4
Avi 4
P25 4
Bowery 4
hộc 4
gì. 4
16mm 4
Burton 4
Merz 4
Yentl 4
Levine 4
mile 4
Borneo 4
Auschwitz 4
Juanderson 4
Rodrigo 4
Zaire 4
Gooch 4
Etete 4
Shell 4
GIờ 4
Kwabena 4
gigabyte 4
Kareem 4
Kyle 4
Wurman 4
trư 4
Image 4
cloud 4
ngáng 4
Jennings 4
&apos;an 4
Jes@@ 4
slash 4
Haha 4
Lois 4
Luyện 4
Ngụ 4
e-mail 4
Aberdeen 4
Gang 4
Scalia 4
Bạc 4
Ches@@ 4
ore 4
Holly 4
Fisher 4
hẵng 4
hemozoin 4
Mam@@ 4
TEEB 4
2.7 4
Cla@@ 4
Flow 4
Swahili 4
qủa 4
kung 4
Limor 4
nhử 4
Ecuado 4
Polaroid 4
Huaorani 4
Levy 4
Aquarius 4
DIY 4
Ghế 4
Lắc 4
truờng 4
Bluegrass 4
TM 4
Nintendo 4
Brother 4
WOW 4
lip 4
Raymond 4
Er@@ 4
Ganson 4
muỗng 4
Kamkwamba 4
Anatomage 4
Hổ 4
Wes 4
Ebola 4
DD 4
lâng 4
Rosey 4
nguôi 4
ngoai 4
Morgan 4
Giovanni 4
cookie 4
249 4
Shady 4
Mira 4
Nair 4
Tuscany 4
Stuart 4
Velde 4
Suarez 4
bản. 4
gội 4
Scud 4
xi-náp 4
Winter 4
Buettner 4
Adventist 4
Skylar 4
4D 4
Bạch 4
cô@@ 4
12,@@ 4
Shhh 4
SOLE 4
vác-xin 4
Keats 4
Abrahams 4
Johanna 4
Blakley 4
Santee 4
Ataturk 4
Sandor 4
pacak 4
Kings 4
Castle 4
Eisenhower 4
videos 4
Print 4
thàm 4
Khẩn 4
Siyathemba 4
Bio@@ 4
Baehr 4
Purple 4
Halloween 4
Brooke 4
Leyla 4
Poor 4
Sơ 4
more 4
Duran 4
Máu 4
Pol@@ 4
Ramsey 4
Bacillus 4
pasteurii 4
Lạch 4
Pettengill 4
Wallace 4
vel 4
Krista 4
Hercules 4
m2 4
Jinsop 4
homeopathy 4
dượng 4
Phận 4
ass 4
D-Rev 4
ruổi 4
Abdi 4
Deqo 4
favelas 4
6.@@ 4
Pragmatic 4
Chaos 4
inh 4
Homaro 4
Roche 4
Rookie 4
Cat@@ 4
FEED 4
Phthalate 4
Graves 4
Michaela 4
IDEO 4
H.W. 4
Kid 4
Magellanic 4
xéo 4
Aremeyaw 4
AA 4
Khoai 4
Harford 4
Taniyama 4
Goro 4
Tana 4
Shaffi 4
Torre 4
Scatch 4
elegans 4
TOR 4
rapamycin 4
Guttenberg 4
nhíp 4
Sethi 4
dotcom 4
Fransisco 4
mụ 4
Nadia 4
Al-Sakkaf 4
trytophan 4
Hai-Sáu 4
LXD 4
rôbốt 4
TW 4
Ư@@ 4
Boyle 4
Angeline 4
bindi 4
Vauxhall 4
RTPJ 4
TMS 4
Wadah 4
Frieda 4
Dọn 4
Vannevar 4
Andre 4
vờn 4
Agaricon 4
mú 4
Chagall 4
Britlin 4
Torah 4
Hệt 4
Sinaloa 4
Federation 4
Hutchison 4
Siza 4
Lloyd 4
kiếu 4
base 4
Mormon 4
Nephites 4
1908 4
lesbian 4
Yến 4
Benefield 4
NHÂN 4
CHỨNG 4
níu 4
Bazooka 4
Noir 4
AIDG 4
19,000 4
cassava 4
throve 4
thrived 4
Samboja 4
Lestari 4
Ba-lê 4
heparin 4
Shermer 4
Clint 4
Sangu 4
Delle 4
Balochistan 4
Angelo 4
halal 4
milimét 4
Jugaad 4
Danone 4
wug 4
Railway 4
Naná 4
Vasconcelos 4
BBQ 4
Daria 4
Bercken 4
Handel 4
826 4
Summerwear 4
tành 4
Tajfel 4
Tôm 4
Ge 4
Ocarina 4
xkcd 4
impactful 4
Khalil 4
Anonymous 4
Swenson 4
Munroe 4
Kalenjin 4
Kílian 4
Swartz 4
Gordian 4
Perony 4
KPI 4
bossy 4
Boyd 4
Attia 4
Yami 4
Pike 3
620 3
146 3
mili@@ 3
FILMCLUB 3
ệ-- 3
favela 3
Schindler 3
Sho@@ 3
chùa 3
Phù 3
Geert 3
trịa 3
ự@@ 3
burg 3
Mỹ. 3
khoàng 3
theo. 3
Fedeli 3
liệu. 3
nan@@ 3
từ-- 3
ke@@ 3
ch-- 3
Et@@ 3
kình 3
slides 3
CBGB 3
rườm 3
Mahler 3
Dylan 3
Mic@@ 3
Savannah 3
vù 3
đi. 3
nhè 3
Michal 3
Yêu-Israel 3
Rác 3
thày 3
ona 3
Baja 3
Lucas 3
Mid@@ 3
oney 3
line 3
lia 3
1840 3
Loạt 3
NewYork 3
Toa 3
Mảng 3
ur@@ 3
rát 3
nia 3
nà@@ 3
ba@@ 3
đén 3
soá@@ 3
Uttar 3
ỡ@@ 3
ắn. 3
nán 3
Thoát 3
loạng 3
choạng 3
đất. 3
giờ. 3
M-@@ 3
ot 3
phiá 3
Sher@@ 3
Arunachalam 3
giẻ 3
Nhắm 3
Maxwell 3
WMAP 3
UFO 3
núp 3
Đích 3
Trung-@@ 3
Mạnh 3
Alexandria 3
MỘT 3
Hogwart 3
Ari@@ 3
đển 3
Legos 3
Damien 3
Christine 3
Arroyo 3
Vi@@ 3
nhem 3
Twin 3
Right 3
chọ 3
town 3
trôn 3
hứ@@ 3
aa 3
ớc 3
1903 3
hoá. 3
List 3
bết 3
5.300 3
Hodgman 3
Theme 3
ron@@ 3
bạn- 3
TED2013 3
Mmm 3
Brené 3
TEDxHouston 3
Brene 3
30m 3
Ninja 3
huênh 3
sao. 3
Sing 3
ghém 3
Petri 3
Octavio 3
Paz 3
Spielberg 3
thỉ 3
Emmart 3
Atlas 3
Lin@@ 3
Tibet 3
Perel 3
vởi 3
Proust 3
ạo 3
vest 3
tậm 3
Nalini 3
Nad@@ 3
ực-@@ 3
tố@@ 3
ggs 3
Cột 3
700@@ 3
Columbus 3
nghệ. 3
4G 3
60.000 3
Hoạch 3
Bền 3
Vững 3
Cain 3
muố@@ 3
xuể 3
hiể@@ 3
Theodor 3
Seuss 3
q 3
xết 3
đềm 3
3PO 3
xoàng 3
ĩnh 3
Mini 3
đẩu 3
Đèn 3
Ăng 3
Làn 3
tea 3
Carrel 3
TC 3
guốc 3
mouflon 3
nhộng 3
Talwar 3
Nicolelis 3
Ballbot 3
XIn 3
-kinh 3
stereo 3
Mayo 3
3mm 3
TEDIndia 3
sủ 3
gal 3
chấy 3
ằn 3
tế. 3
ari 3
ac@@ 3
mon@@ 3
hot 3
dog 3
UAE 3
1.1 3
ốp 3
EcoRock 3
kilogram 3
Phó 3
Thạch 3
Shigeru 3
Pompidou 3
giáo-- 3
Santo 3
Christchurch 3
giống-mạng-lưới 3
Marsh 3
TEDxSydney 3
Benedict 3
sống. 3
đỏi 3
S.H. 3
Ghê 3
ergo 3
2600 3
íp 3
539 3
Nebuchadnezzar 3
530 3
VIII 3
60s 3
rú 3
Budweiser 3
Nô-en 3
AR@@ 3
hâu 3
tâ@@ 3
loẹt 3
Dorset 3
ầu 3
il 3
đăm 3
Athens 3
Epsilon 3
Z. 3
Slo@@ 3
phỉnh 3
Islam 3
ết 3
sie 3
Live 3
Olof 3
Palme 3
Mugabe 3
6,5 3
Miriam 3
xiềng 3
ero 3
Sacks 3
accordion 3
Ếch 3
fusiform 3
Aston 3
O.@@ 3
nghiệ@@ 3
p-- 3
e. 3
1,800 3
Eggers 3
Dong 3
Phi@@ 3
ệm 3
Howey 3
got 3
Wing 3
Rahm 3
Cole 3
Rachelle 3
Garniez 3
ọn 3
lất 3
Lợn 3
Jayant 3
in-@@ 3
grade 3
bum 3
hớp 3
Barnaby 3
Ay@@ 3
114 3
Annan 3
ssa 3
Arusha 3
ại. 3
174 3
Seb 3
Brahimi 3
nhú 3
ruồng 3
Lan@@ 3
tuổ@@ 3
uyết 3
triến 3
o-oh 3
See 3
Shriram 3
ìm 3
Mallory 3
Edmund 3
Feli@@ 3
Bour@@ 3
5.@@ 3
nịt 3
Tal 3
3.2 3
y-- 3
warfarin 3
động-- 3
ấy-- 3
ẳng 3
NICE 3
methane 3
vẹo 3
Child 3
Vitamin 3
lên-- 3
tược 3
yaourt 3
Kỳ@@ 3
CHúng 3
diên 3
Cường 3
Xoay 3
Hunts 3
điếm 3
Lafayette 3
Gul@@ 3
Pen@@ 3
Mullis 3
aptamer 3
Sabia 3
And 3
thố@@ 3
cos 3
Miwa 3
Matreyek 3
Ami 3
Klin 3
Chẩn 3
Liêu 3
cúa 3
Siegel 3
Bot 3
vector 3
think 3
Robotics 3
lực. 3
ng.&apos; 3
Kidd 3
TED2012 3
pt 3
Knopf 3
photocopy 3
Scotch 3
fa 3
Bìa 3
haiku 3
Buddha 3
Nhât 3
Rodriguez 3
el-Wafi 3
Zacharias 3
Kenny 3
Mâu 3
Calvin 3
Williamson 3
Dur@@ 3
Gerhard 3
75,000 3
Pr@@ 3
Ueli 3
Gegenschatz 3
jumping 3
skydiving 3
Free@@ 3
flying 3
Copacabana 3
8-@@ 3
Foot 3
New@@ 3
punk 3
Honduras 3
Side 3
Kickstarter 3
Bec@@ 3
twitter 3
Ương 3
Fla@@ 3
nhậu 3
sến 3
lỏm 3
Forever 3
cũa 3
Tirana 3
0. 3
khộng 3
thẩy 3
NY@@ 3
Dea@@ 3
Two 3
Pearl 3
Xà 3
Mariana 3
Job 3
Gara 3
Marketing 3
nhiền 3
Công-@@ 3
500.000 3
Chicken 3
gỏi 3
chop 3
suey 3
Buchanan 3
Sand@@ 3
ers 3
Lem 3
Kem 3
Ram@@ 3
vian 3
Mê 3
tz 3
Jang 3
đẽo 3
ừng 3
thới 3
R-@@ 3
T-@@ 3
lexicographical 3
Kai 3
Walkman 3
Police 3
à-@@ 3
Vik 3
Muniz 3
55.000 3
Diamandis 3
By@@ 3
Issac 3
Killingsworth 3
bỉnh 3
As@@ 3
yan 3
Williamsburg 3
Bacha 3
Ixra@@ 3
ja 3
Sheikh 3
ons 3
Otto 3
Wonder 3
Saturday 3
ing 3
Arby 3
Citizen 3
Proctor 3
Sữa 3
cáo. 3
mấp 3
Bristol 3
District 3
đây- 3
tỵ 3
tượt 3
sex 3
Pisani 3
tuồn 3
Jakarta 3
Nâng 3
2025 3
ìu 3
St.@@ 3
mar 3
tua-bin 3
Astroturf 3
Besser 3
hớn 3
nhh 3
phu@@ 3
ật 3
1,600 3
lie 3
Bul@@ 3
lock 3
Ree@@ 3
cạc-tông 3
CPU 3
lượng-@@ 3
RO@@ 3
fear 3
Becky 3
shop 3
Emiliano 3
Gượm 3
Chihuahua 3
Benjamín 3
Julián 3
khiên 3
Here 3
beat 3
lài 3
Grammy 3
390 3
25-@@ 3
Plains 3
1812 3
1813 3
Ricardo 3
khác- 3
Anh. 3
3M 3
ngổn 3
diết 3
VI@@ 3
ù@@ 3
But@@ 3
Cống 3
--chúng 3
quá@@ 3
Loyola 3
các-tông 3
ko@@ 3
Chiat 3
-P@@ 3
Bren@@ 3
Mái 3
Micheal 3
Eisner 3
Seine 3
Louvre 3
Euro@@ 3
Magic 3
format 3
Ritz-Carlton 3
op@@ 3
Laptop 3
ton-- 3
ủ. 3
Dutton 3
Pleistocene 3
Lascaux 3
144 3
Chấp 3
1787 3
mi-crô 3
Wonka 3
gra@@ 3
dot 3
trô@@ 3
trong-- 3
Blake 3
over 3
Humboldt 3
nhọt 3
Nhẹ 3
Lauder 3
ượt 3
River@@ 3
dale 3
sia 3
nick 3
Str@@ 3
Heisenberg 3
rè 3
Kitty 3
Hart 3
Lolita 3
1931 3
Barcia-Colombo 3
Dennett 3
Steinberg 3
Canaletto 3
2.9 3
I.P. 3
protocol 3
ET 3
BCG 3
thui 3
9,@@ 3
Levin 3
Schwarzchild 3
ưới 3
IG@@ 3
ệch 3
LISA 3
Stu@@ 3
ơn. 3
Kowan 3
Talmud 3
nhữn 3
Pythago 3
ang-- 3
hường 3
Ối 3
quest 3
Rẽ 3
bạn-- 3
thầ@@ 3
cacbonic 3
ờn 3
đị@@ 3
Huyết 3
127 3
PI 3
khuông 3
insideoutproject.net 3
Champs-Elysees 3
Providencia 3
Monrovia 3
Lev@@ 3
phảm 3
ỹ. 3
ga@@ 3
System 3
Nova 3
ISS 3
Dawn 3
Vesta 3
thực. 3
10km 3
nay. 3
Lesotho 3
140@@ 3
đ 3
244 3
Ecuador 3
bingo 3
ty@@ 3
Gián 3
1.6@@ 3
7m 3
cầu. 3
đã@@ 3
p-@@ 3
thìa 3
thành. 3
Huffington 3
Superman 3
Ventura 3
30,@@ 3
Insulin 3
Â@@ 3
ẫy 3
Khô@@ 3
Soto 3
Johannes 3
Si 3
Bes@@ 3
tuệ. 3
cới 3
ịu 3
BPA 3
Soát 3
oc@@ 3
đê@@ 3
Chôn 3
Huỷ 3
Tang 3
gia. 3
Kent 3
gới 3
ẹp 3
c--@@ 3
ris 3
tôi--@@ 3
Virgina 3
Tzu 3
vầ 3
Hobbes 3
Hứa 3
Neshat 3
Ma-rốc 3
huyễn 3
Mos@@ 3
this 3
not 3
reading 3
What 3
Đùng 3
úng 3
đu@@ 3
Pogue 3
Son@@ 3
Village 3
People 3
no@@ 3
Cambri@@ 3
Braun 3
105 3
thoã 3
Hùng 3
Steffen 3
Guer@@ 3
cho@@ 3
Flip 3
trĩu 3
2.4 3
Nin 3
10h 3
NDD 3
Pari 3
Danielle 3
V-Day 3
Bukavu 3
yết 3
Masai 3
ương. 3
Atta 3
Faron 3
Dench 3
190@@ 3
quạnh 3
Random 3
Ori@@ 3
Stan 3
Vladimir 3
kHz 3
uh 3
MHz 3
phen 3
CR 3
tay. 3
Hiroshi 3
nhếch 3
ươ@@ 3
đây-@@ 3
will 3
Yesterday 3
phia 3
Già 3
Nghỉ 3
USAID 3
Hau@@ 3
Hút 3
Merchant 3
W.@@ 3
dát 3
chờn 3
Kimbo 3
Southam 3
ôxi 3
Malone 3
Davos 3
kẻ-@@ 3
Schelling 3
Tât 3
ưởng 3
135 3
Nice 3
turbine 3
30-40 3
Ricard 3
Henri 3
vông 3
Hoan 3
hỉ 3
Garten 3
mình.&apos; 3
&apos;Hãy 3
InteraXon 3
iPhones 3
ùng 3
Chút 3
Niagara 3
beta 3
tag 3
Ramon 3
Is 3
Pin 3
Koh 3
Bengal 3
Gab@@ 3
38@@ 3
Kang 3
Shannon 3
thiếc 3
Moshe 3
Safdie 3
Quyến 3
Mahattan 3
xỉu 3
gường 3
gian-@@ 3
iệ@@ 3
Tracey 3
CLIMBeR 3
H.@@ 3
Wells 3
STriDER 3
Khớp 3
LE@@ 3
MARS 3
amip 3
IM@@ 3
soda 3
Pentium 3
GHz 3
Crash 3
tệp 3
trức 3
Key@@ 3
Sun@@ 3
IMU 3
14.@@ 3
900.000 3
đỉa 3
gằng 3
tiêng 3
ada 3
Stuxnet 3
Corbusier 3
Dame 3
ut 3
Piano 3
Zeisel 3
EZ 3
Lom@@ 3
Vibrio 3
Hawai 3
hóoc-môn 3
ẳn 3
burn 3
Pas@@ 3
500@@ 3
gáp 3
Wayne 3
Jami@@ 3
trước-- 3
sẳn 3
Hilton 3
Yip 3
Phốt 3
Nature 3
Biện 3
nỡ 3
Yes 3
Damascus 3
Bethlehem 3
Hebron 3
Um 3
víu 3
SEF 3
háng 3
RC 3
xuý 3
LGBT 3
Andres 3
ng.@@ 3
May@@ 3
Emory 3
Nietzsche 3
Excel 3
Hartman 3
nhón 3
vật-- 3
ml 3
Bản. 3
mà-- 3
trị. 3
Kho@@ 3
hydrocarbon 3
Sạch 3
chặc 3
Lệnh 3
FC 3
Steindl-Rast 3
Suỵt 3
Ắ@@ 3
plasma 3
mycelium 3
Poly@@ 3
Té 3
profile 3
ams 3
Toni 3
Cư 3
3,7 3
doang 3
300.000 3
Anil 3
biều 3
ộ 3
40km 3
Bia 3
} 3
sáng-@@ 3
Kraft 3
Ào 3
165 3
Comp@@ 3
ghì 3
phẩm-- 3
Căng 3
việc-- 3
WiFi 3
Petrus 3
biến. 3
Trớ 3
trót 3
ngớt 3
ấc 3
Baldwin 3
Philipp@@ 3
pa 3
TEDxRainier 3
Márquez 3
Trăm 3
ốc. 3
scandal 3
Mượn 3
đọ 3
lại-- 3
ý@@ 3
Washing@@ 3
Sheikha 3
Aba 3
biệt. 3
Saatchi 3
Ce@@ 3
Tribeca 3
cã@@ 3
Macy 3
AL@@ 3
AM@@ 3
Had@@ 3
ríu 3
rắt 3
Hertz 3
Penzias 3
Aldo 3
Mehico 3
16.000 3
Novak 3
McGrew 3
IUCN 3
405 3
0,000 3
1,2,3 3
Madeleine 3
G7 3
Môt 3
òm 3
mói 3
đât 3
Powell 3
vược 3
lạng 3
shi 3
tuy@@ 3
ụi 3
sụ 3
tệ. 3
kin 3
ướm 3
Napoleon 3
04 3
Case 3
-p@@ 3
vợi 3
prednisone 3
ALS 3
Ự 3
KHÔ@@ 3
À@@ 3
Watergate 3
Skoll 3
Productions 3
Syri@@ 3
Bạo 3
Runner 3
Kilimanjaro 3
từ@@ 3
i.Tôi 3
2300 3
99.5 3
Gallo 3
neon 3
Review 3
globaloney 3
10-15 3
Pharaoh 3
ờ@@ 3
ần-- 3
ương-- 3
Rolling 3
khoắc 3
ian 3
Outlook 3
Tupperware 3
Phillipp@@ 3
Habibi 3
Axis 3
Evil 3
Ken@@ 3
Mari@@ 3
kheo 3
Thính 3
Mikey 3
Joaquin 3
rĩ 3
Khỏi 3
Petra 3
Agusta 3
chuyển. 3
Thợ 3
mi-li-met 3
Thắng 3
box 3
Smo@@ 3
Lesley 3
CD@@ 3
go@@ 3
Rees 3
viêt 3
hoạc 3
Dah@@ 3
Ja@@ 3
Schaefer 3
Malin 3
tậu 3
600.000 3
450.000 3
Trào 3
PDA 3
sapien 3
limbic 3
nảo 3
Chậm 3
Missmahl 3
Nỗ 3
gả 3
Maezza 3
Cưng 3
corn 3
xi-@@ 3
công-@@ 3
duh 3
Fer@@ 3
Flynn 3
AAA 3
1955 3
Cur@@ 3
zon 3
Dickens 3
Kipling 3
Grady 3
ảng-- 3
phả@@ 3
nữa-- 3
snack 3
thá@@ 3
nhấ@@ 3
đá@@ 3
Donne 3
hooc-môn 3
update 3
Sy@@ 3
ặc 3
Rushing 3
Bas@@ 3
Zvika 3
jeep 3
Nay 3
Pangea 3
Libeskind 3
formaldehyde 3
ậu 3
Ác-@@ 3
il@@ 3
Turner 3
Twilight 3
Dance 3
Cary 3
lá@@ 3
nhựng 3
vời. 3
tại-- 3
ome 3
Close 3
O-@@ 3
1891 3
dúng 3
148 3
OS 3
WI@@ 3
ý-- 3
không-- 3
Pagel 3
erectus 3
Svante 3
32,000 3
kếch 3
36,000 3
trước. 3
vắc-xin-học-ngược 3
Hawkes 3
chình 3
T.S. 3
iện 3
Krishnan 3
ars 3
1990s 3
2.2 3
Fry 3
ịnh 3
9.000 3
Nêu 3
Mitch 3
Camilla 3
Bloggs 3
Hen@@ 3
Carole 3
Schrodinger 3
Cavendish 3
Rosalind 3
Harbor 3
Conrad 3
zoom 3
P53 3
trâm 3
Gopnik 3
Caledonia 3
Cristine 3
lạn 3
hope 3
nice 3
time 3
Kymaerica 3
Cranbrook 3
thau 3
BI@@ 3
Glattfelder 3
khâm 3
cước 3
Sharon 3
Trott 3
Blog 3
Kryptonite 3
Word 3
PDF 3
Geary 3
All 3
cogito 3
Ur@@ 3
X-@@ 3
Greenpeace 3
I-ran 3
Mister 3
Fark 3
trường. 3
lớn. 3
Trừu 3
Sat@@ 3
và-- 3
cứ@@ 3
như-- 3
khoẻ@@ 3
lần. 3
ụ-- 3
xem-- 3
11,000 3
LP 3
ủn 3
đanh 3
guacamole 3
gạ 3
gẫm 3
TE@@ 3
IM 3
Lưỡi 3
&apos;m 3
loay 3
hoay 3
Sis@@ 3
Jr 3
Harlan 3
PLATO 3
Model 3
DEC 3
uyến 3
Sou@@ 3
Săn 3
Lance 3
Gallery 3
Ashanti 3
Atari 3
Sti@@ 3
Lux 3
củ@@ 3
Othello 3
B-@@ 3
Fiji 3
Tahiti 3
Oak 3
Charley 3
Deavere 3
Perasa 3
rứt 3
CN 3
Ara@@ 3
Wald 3
huân 3
Mulgan 3
GCSE 3
Horner 3
Dodson 3
he 3
Anatotitan 3
Rex 3
Nanotyrannus 3
Buechley 3
TEDYouth 3
Tolstoy 3
Phillipines 3
Lưỡng 3
Crete 3
Basin 3
Pors 3
emails 3
panô 3
ườn 3
Lục 3
5.5 3
media 3
ĩ@@ 3
Voltaire 3
Friedrich 3
Montessori 3
â 3
NY 3
Stein 3
Cheney 3
Hoover 3
nhụt 3
Smits 3
Khao 3
chứ@@ 3
2,3,4 3
Chlamydia 3
Cas@@ 3
Diffee 3
ỗi. 3
trạc 3
Kel@@ 3
Nghiện 3
junk 3
IP@@ 3
Motorola 3
sứt 3
lọng 3
liến 3
.5 3
gluon 3
acids 3
truất 3
dề 3
Arianna 3
en. 3
Tapscott 3
Kỉ 3
McDougall 3
Hẻm 3
pi@@ 3
tuổi. 3
Bầy 3
9.@@ 3
ồm 3
tịnh 3
cấ@@ 3
Lim 3
quị 3
117 3
Arvind 3
Pune 3
Đẩy 3
T. 3
mô-tơ 3
đẵng 3
mõm 3
Bollywood 3
Fulla 3
Haifa 3
Ferdinand 3
Hiên 3
Hazlewood 3
cso 3
Paralympics 3
Haydn 3
Valenti 3
Obaid 3
Chinoy 3
Swat 3
oud 3
rận 3
me@@ 3
Va 3
nhi@@ 3
giẫm 3
con@@ 3
cát-sét 3
cà-phê 3
Madoff 3
gorilla 3
ỉnh 3
mắm 3
Botox 3
Pos@@ 3
Express 3
Rosin 3
Bud 3
Mirren 3
hởi 3
nghĩ@@ 3
a.@@ 3
Thác 3
ounce 3
ali 3
Mick 3
Jagger 3
McFadden 3
lừng 3
khổi 3
đẫn 3
zer 3
Lobo 3
AK-47 3
14,@@ 3
Stock 3
Economics 3
Atlassian 3
Yên 3
Fra@@ 3
Manila 3
xổm 3
Tribune 3
Fullbright 3
Tree 3
Taymor 3
Frida 3
Oedipus 3
Caliban 3
Tunis 3
Asner 3
Kruger 3
1000@@ 3
đạng 3
Shukla 3
chiề@@ 3
Parikma 3
Mackenzie 3
Murdoch 3
Sherwin 3
Nuland 3
Nhứng 3
Kr@@ 3
tuyêt 3
Campaign 3
Murphy 3
Dijon 3
yểu 3
Mallifert 3
̀ 3
Wolff 3
Butler 3
English 3
Ran 3
ữa 3
Vera 3
get 3
Caribê 3
chyện 3
Hộ 3
app 3
Mand@@ 3
Kê 3
Hillel 3
lego 3
£ 3
nước. 3
polyme 3
Mỉa 3
Kil@@ 3
Pla@@ 3
45,000 3
Soleil 3
Cali@@ 3
Hexanol 3
hú 3
.v.v. 3
Garrett 3
Ticketmaster 3
OCR 3
Denise 3
ẹ@@ 3
giãi 3
Cobalt 3
Pack 3
CHAT 3
3m 3
66.000 3
Astro 3
phá@@ 3
Warhol 3
Hipp@@ 3
Narcissus 3
giả@@ 3
Nho 3
Nặng 3
vẩy 3
cao-- 3
Terkel 3
lẳng 3
I-@@ 3
bẵng 3
Bùng 3
ặm 3
Wolfgang 3
Đạp 3
Chuông 3
Frost 3
Yorke 3
Arcade 3
Fire 3
Alessandro 3
bèo 3
hockey 3
KW 3
lý- 3
Pickles 3
ôliu 3
Rolls 3
Royce 3
tren 3
Willis 3
sẫm 3
pi 3
hòi 3
Heathrow 3
ngac 3
Tiger 3
Ashburn 3
BMA 3
cứa 3
Bea@@ 3
Hat@@ 3
Hugo 3
Marley 3
Michelle 3
ca-@@ 3
Abbey 3
PVC 3
Phili@@ 3
Jer@@ 3
Shapshak 3
128 3
Huh 3
Resources 3
so@@ 3
Tivi 3
od 3
Millennium 3
Cốc 3
Woody 3
đát 3
Oh@@ 3
quơ 3
tho 3
tở 3
Partners 3
Health 3
400000 3
Noble 3
Quét 3
Lawler 3
kỏoảng 3
nói. 3
micromet 3
Cướp 3
Maersk 3
jet 3
công-te-nơ 3
2-5 3
Ta@@ 3
J2 3
Thám 3
sunfua 3
Livermore 3
Bolinsky 3
Quận 3
Aurasma 3
AD@@ 3
U.K 3
UK 3
Wi-Fi 3
xụp 3
SmartBird 3
Fe 3
ỡi 3
Reeve 3
Reggie 3
menu 3
Quãng 3
GSM 3
Barclays 3
Phạn 3
nhọ 3
Team 3
Lepage 3
Transformers 3
Collier 3
Bới 3
Paddy 3
Whitesides 3
GoGet 3
Rogers 3
Omar 3
Kênh 3
Mount 3
n&apos; 3
Ngu 3
n.&apos; 3
nghía 3
hn 3
Sergei 3
Lupashin 3
xỉa 3
Crunch 3
Corp 3
flupsy 3
Cave 3
Loạn 3
vo@@ 3
Dơi 3
Metcalfe 3
Netscape 3
2.0@@ 3
tin@@ 3
ủ@@ 3
ill@@ 3
Ngũ 3
Giê 3
Su 3
bị@@ 3
Lành 3
trám 3
Cel@@ 3
Nielsen 3
JFK 3
Lau@@ 3
Sanford 3
Bangoora 3
Madonna 3
Tấn 3
iger 3
Cr@@ 3
Ân 3
Wei 3
uyệt 3
Ada 3
khoắn 3
Đập 3
Don@@ 3
Kanji 3
định-- 3
vì@@ 3
ló 3
trời. 3
p- 3
56@@ 3
Maureen 3
Boothe 3
Haven 3
rình 3
găm 3
ẽ 3
Rain@@ 3
Sig@@ 3
Coleman 3
náy 3
dũa 3
Bass 3
ía 3
Selinger 3
Viktor 3
Agra 3
Spivak 3
carbohydrate 3
ep 3
nhiểm 3
vi-rut 3
rê 3
Lithuania 3
Porto 3
Highline 3
Shimon 3
luống 3
ft. 3
bùi 3
Rùa 3
lói 3
2027 3
ốc-- 3
trạnh 3
đáu 3
Cody 3
nêm 3
do-@@ 3
người-@@ 3
ữ@@ 3
sulfate 3
tấng 3
Oort 3
Vành 3
PT@@ 3
Nitơ 3
Pot@@ 3
Pallotta 3
581 3
108 3
dle 3
Bính 3
Sankofa 3
Arts 3
Adinkra 3
chết-- 3
Volkman 3
Declan 3
giếm 3
nhẹm 3
xém 3
UMBC 3
Dr.@@ 3
1863 3
Hughes 3
mi-ca 3
vôn 3
Sevitha 3
soft 3
Holladay 3
Sasha 3
Freeland 3
Reich 3
nhuệ 3
Tumblr 3
1,1 3
lệ@@ 3
Chevy 3
Ganesha 3
Kartikeya 3
Indus 3
Mysore 3
Mahabharata 3
Payne 3
Office 3
Tiêm 3
Udaipur 3
134 3
Cân 3
Ậ@@ 3
Hei@@ 3
Hijaz 3
Turkmenistan 3
Jr. 3
ãi 3
Balasubramaniam 3
Điêu 3
Dev@@ 3
pe 3
tantalum 3
Control-Z 3
08 3
Peterborough 3
Britney 3
14000 3
Frederic 3
Mur@@ 3
Adriatic 3
Ván 3
người-máy 3
Piff 3
Jean-Baptiste 3
Jay-Z 3
12.@@ 3
Baba 3
Shiv 3
V.O.I.C.E 3
hỏ@@ 3
Phelps 3
hất 3
Thạc 3
tùm 3
Gothic 3
xối 3
Bamiyan 3
CyArk 3
Pompeii 3
Tikal 3
Newfoundland 3
Cuddy 3
Tufts 3
Todorov 3
Smolin 3
Ontario 3
nhiên. 3
giã 3
Healy 3
ngà@@ 3
Cedars-Sinai 3
M.@@ 3
Sietas 3
my@@ 3
Cayman 3
mặ@@ 3
Olympus 3
Mons 3
4,6 3
cầu-- 3
From 3
Pan@@ 3
Aida 3
KI@@ 3
mô-tô 3
viên-@@ 3
Madhav 3
Pratham 3
Kun@@ 3
dổi 3
154 3
Charmian 3
Obiang 3
anda 3
Eni 3
Sarawak 3
HSBC 3
nhà. 3
Eno 3
electrons 3
Kri@@ 3
quằn 3
quại 3
Stage 3
nhíu 3
tric 3
Gavin 3
Pretor-Pinney 3
lởn 3
vởn 3
Terminator 3
Mai 3
Fi 3
Sứ 3
Colbert 3
laughing 3
loud 3
tếu 3
1871 3
Wire 3
McCallum 3
84k 3
Doolittle 3
na@@ 3
Michelangelo 3
Apple@@ 3
bằ@@ 3
Amstrong 3
Hieronymus 3
Vishnu 3
Shiva 3
Seng-ts 3
Sergio 3
8h 3
9h 3
Spider 3
ênh 3
Deskbar 3
Hai@@ 3
phộng 3
Bạ@@ 3
còm 3
da-- 3
Milgram 3
trạch 3
Xia 3
Yossi 3
Vardi 3
Ngẫu 3
Stevens 3
Rajiv 3
BB 3
Nell 3
Scha@@ 3
Estelle 3
Thiền 3
Vết 3
quẹo 3
Breazeal 3
MIDI 3
Floyd 3
Kwa@@ 3
Match.com 3
Faulkner 3
nựng 3
1913 3
Rafi 3
Superior 3
Arctic 3
200m 3
1m 3
taiga 3
Beaufort 3
Fre@@ 3
ật. 3
30cm 3
Botero 3
Lemon 3
Reg 3
Gucci 3
bảnh 3
Etheridge 3
rada 3
Paldin 3
Kalash 3
Takaungu 3
đơ 3
Tampa 3
A.J.@@ 3
Bavelier 3
ps 3
Jacek 3
Giêsu 3
Flintstone 3
tiều 3
Joseph@@ 3
Clive 3
16K 3
Sto@@ 3
Hare 3
pshoo-shoo 3
Carroll 3
mann 3
129 3
amine 3
Nat@@ 3
ngs 3
Dành 3
Dougherty 3
Bil@@ 3
Arduino 3
ác-@@ 3
Julius 3
CSP 3
sột 3
soạt 3
xoài 3
13,7 3
Peninsula 3
Lo 3
ẻ@@ 3
1,034 3
529 3
162 3
1824 3
bình. 3
Qui@@ 3
euros 3
đựoc 3
Thưc 3
if 3
Washburn 3
1829 3
Daw@@ 3
Papandreou 3
Br@@ 3
Inside 3
Out 3
Tinkering 3
Hiểm 3
Dao 3
Matas 3
Press 3
Melcher 3
Burstein 3
raku 3
Velázquez 3
nanomet 3
Dum 3
Tuyển 3
phạn 3
Sussman 3
rêu 3
Baobab 3
13.000 3
Christien 3
gelatin 3
mô-@@ 3
uy@@ 3
Eagles 3
Owen 3
Ramadan 3
Heffernan 3
sẵ@@ 3
Dạo 3
xẩm 3
đô@@ 3
Moai 3
chít 3
Adventists 3
oma 3
xi-măng 3
Marge 3
ania 3
Bitcoins 3
iển-- 3
Lắp 3
Hetain 3
pajama 3
Jacqueline 3
Lane 3
MacKinnon 3
Wikileaks 3
Rospil 3
thừ 3
Kallikuppam 3
Cloud 3
catch 3
Wolfe 3
Beloit 3
~ 3
Tammet 3
Sô 3
Pi 3
Ai@@ 3
chồm 3
la-se 3
AirPix 3
Prada 3
titanium 3
caí 3
Tước 3
Sandwich 3
sủi 3
Gil@@ 3
trang. 3
Dun@@ 3
Ấn-Âu 3
nhẽo 3
Bela 3
1936 3
0.7 3
rường 3
Hanczyc 3
hara 3
Vietnam 3
Cartaya 3
Franz 3
Lặn 3
khoáy 3
Dozo 3
phui 3
kèo 3
vạ 3
site 3
xen-lu-lô 3
ột 3
Restrepo 3
Steiner 3
Mountains 3
Fresh 3
Wolpert 3
Biggie 3
rapper 3
Markham 3
Managua 3
Krill 3
Đông-Tây 3
Thandie 3
Đón 3
rỗ 3
tis 3
G.M 3
Gero 3
Musallam 3
Sokoto 3
can@@ 3
thiêt 3
Origami 3
ợ@@ 3
Pau@@ 3
Hy-Wire 3
Mechai 3
Aziza 3
End 3
Hercles 3
Uzbekistan 3
JL 3
Amos 3
Jaipur 3
Ashok 3
Friend 3
Đua 3
Forte 3
Mmmm 3
Praagh 3
Homeopathy 3
Camp 3
mọn 3
1934 3
Major 3
Cervantes 3
Wade 3
ReMotion 3
Bụi 3
Torres 3
hã@@ 3
loảng 3
xoảng 3
nhuốm 3
Hawa 3
Eduardo 3
ních 3
Slavin 3
Carnival 3
Slutkin 3
WWF 3
Ha-woai 3
TED2006 3
Marcin 3
Harbisson 3
Okolloh 3
Gneezy 3
Rustichini 3
shekel 3
Head 3
Start 3
trính 3
neutrino 3
tau 3
Cantu 3
Moto 3
maki 3
nacho 3
Tavi 3
Gevinson 3
MS 3
Girls 3
1700 3
khước 3
Pollan 3
Laurence 3
Esta 3
Soler 3
X.Li 3
Freedom 3
ju 3
W. 3
EXL 3
EI 3
800@@ 3
tạ@@ 3
Ker@@ 3
Loftus 3
Stacy 3
marmite 3
B12 3
Scottish 3
Snoopy 3
Alisch 3
Hermes 3
Holy 3
wood 3
Skinner 3
vãng 3
zipcar 3
Mather 3
Caracas 3
sạm 3
Vời 3
block 3
Kenyon 3
Dionysus 3
1455 3
Eileen 3
EW 3
rơ 3
Sapling 3
Bir 3
Rotich 3
2,200 3
một-cỡ-cho-tất-cả 3
hoỉ 3
CityWalk 3
Kaminsky 3
Nicolaus 3
Dam@@ 3
yê@@ 3
Crockett 3
SPECT 3
FLS 3
Kuhl 3
Kibaki 3
lus 3
.com. 3
Chladni 3
Denisovans 3
Kh 3
ICU 3
Ngự 3
Jacobson 3
75-25 3
30s 3
MJ 3
Beckstrom 3
myBO.com 3
Shree 3
bi-na 3
Yang 3
Ntaiya 3
Maasais 3
Bharti 3
Chitra 3
Dassen 3
Greenspan 3
hoá-dẫn 3
bươm 3
81 3
Bees 3
Biology 3
s. 3
Mota 3
Loa 3
Khanfar 3
Salgado 3
Lélia 3
Mohr 3
F.@@ 3
Clayton 3
Tắt 3
Ursus 3
Wehrli 3
Magritte 3
Wax 3
Yitzhak 3
Ahmadinejad 3
Ritchie 3
Waal 3
tẩu 3
Giudice 3
risperidone 3
BRIC 3
Chinanet 3
nê 3
Stamets 3
oxalat 3
Ax@@ 3
Prototaxites 3
hydrocacbon 3
Sophal 3
Ear 3
Phnom 3
Penh 3
hĩnh 3
Capgras 3
Juilliard 3
Melville 3
Acorn 3
uổng 3
Waterhouse 3
wasichu 3
Custer 3
Robots 3
Meade 3
Rasselas 3
Benz 3
Xcot-len 3
Wonderbread 3
Carlton 3
Famillia 3
Michoacana 3
Templar 3
núc 3
au-Prince 3
genitalium 3
phage 3
methyl 3
Prometheus 3
Lehi 3
trủng 3
Tunguska 3
LZ 3
phấp 3
Streetview 3
Burntisland 3
Auenbrugger 3
Neuron 3
Firefox 3
160.000 3
ami-ăng 3
Longden 3
Sara 3
Wyatt 3
Gonz@@ 3
Mwenda 3
A.J. 3
McCune 3
Witness 3
Nicklen 3
Zodiac 3
đớp 3
sượt 3
Singer 3
Rét 3
tổ@@ 3
Củi 3
Eigen 3
Stratford 3
Heerden 3
Khatanga 3
L-DOPA 3
Boniface 3
Mwangi 3
Hèn 3
Stawi 3
Rô 3
Radjou 3
Megaffic 3
Manuel 3
Vos 3
con-@@ 3
Mundano 3
Dweck 3
Hellum 3
Alejandro 3
Aravena 3
40m2 3
Constitución 3
Fotokite 3
Swaniker 3
Laetitia 3
Kanwisher 3
Cukier 3
data 3
Reichental 3
Valencia 3
Uldus 3
Lowline 3
Banderas 3
Rcif 3
Plaza 3
Talithia 3
clathrin 3
Katy 3
Takei 3
Kad@@ 3
Túp 3
aw 3
440@@ 3
lo-gíc 3
Heritage 3
Telecomix 3
Finkle 3
Simone 3
Beauvoir 3
L.D. 3
Hobson 3
ESPN 3
tius 3
Patten 3
Neoprene 3
starshade 3
Spitzer 3
Soloveitchik 3
Emdin 3
Target 3
Bút 3
bitch 3
yadda 3
Ferren 3
Hadrian 3
Hadfield 3
bọng 3
Widow 3
Soyuz 3
Slaughter 3
Ajit 3
Cacilda 3
Teddy 3
McKenna 3
Easy-Bake 3
Agarwal 3
155.000 3
Morieux 3
Varty 3
Firestein 3
Ramirez 3
Inception 3
7.500 3
biogas 3
113 2
mê@@ 2
FA@@ 2
2G 2
deCharms 2
đớ@@ 2
giây. 2
Beeban 2
Kidron 2
Đìều 2
195@@ 2
Sica 2
Brit@@ 2
Persepolis 2
Hanks 2
ngton 2
ỵ@@ 2
Jorgensen 2
biohacker 2
TEDxRotterdam 2
Chatrou 2
Ele@@ 2
Fête 2
Belle 2
Louis@@ 2
Roberto 2
&apos;Angelo 2
gar 2
ỗng 2
omét 2
gian@@ 2
tiê@@ 2
việc.@@ 2
hơn- 2
Monochrom 2
Wars 2
tạo@@ 2
hẫng 2
Lounge 2
Tootsie 2
Scala 2
1776 2
Baker 2
tanager 2
Breel 2
Ronny 2
Edry 2
Đăng 2
Iran-@@ 2
Palesti@@ 2
Israel-@@ 2
Yêu-Iran 2
831 2
Munich 2
Gurion 2
Not 2
your 2
Vệt 2
Thải 2
lềnh 2
polyethylene 2
ua 2
Steel 2
Cheapside 2
Smithfield 2
1830 2
rống 2
Ambrogio 2
Lorenzetti 2
Kiteflyer 2
Boo 2
Deam 2
vinyl 2
uo 2
Ide@@ 2
Bambi 2
Krane 2
trẹo 2
ối-một 2
điều-chỉnh-@@ 2
triệu-@@ 2
Carlin 2
giớ@@ 2
i--và 2
Carli@@ 2
for@@ 2
Polio 2
Partnership 2
tri@@ 2
Rot@@ 2
ary 2
liệ@@ 2
út-- 2
Vắc 2
nhiều. 2
PostSecret.com 2
điếng 2
Lol@@ 2
huy@@ 2
hê-rô-in 2
balo 2
dâ@@ 2
điể@@ 2
thủa 2
đổi-- 2
Gettysburg 2
thành-- 2
dặm. 2
ân. 2
chề 2
dy 2
quyể@@ 2
ệ. 2
sưc 2
òn-- 2
trấu 2
tră@@ 2
Mahalakshmi 2
Fulbright 2
Đậu 2
Dixieland 2
noir 2
Ten@@ 2
Constanti@@ 2
Machado 2
Ferreira 2
Achor 2
TEDxBloomington 2
G.I.@@ 2
Advil 2
ƯỜ@@ 2
Waco 2
Bionicles 2
Sisyphic 2
í@@ 2
Lockwood 2
tiền. 2
Vicki 2
Nargis 2
đoạ 2
Pitt 2
PE@@ 2
ửu 2
lệu 2
nười 2
hể 2
chẳ@@ 2
tr6@@ 2
tuổii 2
nhắt 2
nhứ 2
dc 2
càc 2
nghuyên 2
bổi 2
158 2
KG 2
dra 2
Imja 2
Speedo 2
lã 2
1961 2
Goo@@ 2
Philippe 2
tháy 2
biế@@ 2
đấy.@@ 2
dge@@ 2
ợn 2
อร 2
่ 2
อย 2
toáng 2
load 2
Fellows 2
Mah@@ 2
Xướng 2
ÙM 2
Kemp 2
Ann@@ 2
abelle 2
Trice 2
mal@@ 2
Hayden 2
Uniview 2
CI@@ 2
L.@@ 2
Lhasa 2
ưởi 2
áu 2
rày 2
mính 2
kami 2
Monet 2
186 2
540 2
ti-vi 2
Sta@@ 2
Lopez 2
Springsteen 2
Earl 2
Hansmeyer 2
chuyện-- 2
nẩy 2
năng-- 2
ama 2
Harish 2
Manwani 2
kti 2
lman 2
Ồ-N 2
À-O-O 2
bải 2
nội-- 2
Wharton 2
Jol@@ 2
noel 2
Hew@@ 2
tác-- 2
Wozniak 2
Waldo 2
Emerson 2
tiển 2
twood 2
cafe@@ 2
Num 2
project 2
Hos@@ 2
ain 2
Rahman 2
Ali@@ 2
xô-@@ 2
OLPC 2
ĐI@@ 2
Val@@ 2
enti@@ 2
nes 2
Rican 2
Root 2
Wolpe 2
TEDxPeachtree 2
liger 2
hẳng 2
Snuppy 2
clone 2
thiến 2
sta 2
Janie 2
Dot@@ 2
ôma 2
guar 2
Defense 2
Sanjiv 2
SUNY 2
state 2
Northwestern 2
Vacanti 2
sachusetts 2
Péter 2
Fankhauser 2
Ball@@ 2
motor 2
lốt 2
Hummer 2
Namaste 2
chuôt 2
PO@@ 2
lỳ 2
Bha@@ 2
nhụi 2
dak 2
Super@@ 2
galactosyl 2
ili 2
ẳm 2
Dow@@ 2
Camp@@ 2
FAO 2
Marian 2
Hague 2
Qatari 2
1,0@@ 2
Surace 2
Cradle 2
Metz 2
Naga@@ 2
&apos;Aquila 2
Berlusconi 2
Dom@@ 2
Burgess 2
hippocampus 2
Roald 2
hl 2
trả@@ 2
giộp 2
Specter 2
uyễn 2
mỵ 2
Witten 2
torng 2
NSF 2
Tunes 2
Descartes 2
 2
zar 2
Iran-Iraq 2
sử. 2
ngoa 2
đày 2
Ezra 2
Xenophon 2
VI 2
1917 2
Magna 2
Carta 2
i.&apos; 2
Logan 2
ee 2
Hilary 2
anh. 2
Peanuts 2
Desmond 2
Tutu 2
Balagadde 2
115 2
đâ@@ 2
Norway 2
Srdja 2
Popovic 2
Gaddafi 2
Assad 2
Ali-@@ 2
Milosevic 2
phúng 2
Steph@@ 2
napalm 2
Birhan 2
Neda 2
Eglantyne 2
Jebb 2
mí@@ 2
text 2
nett 2
Lullin 2
chẩm 2
Weetjens 2
biệt-- 2
clicker 2
oẻ 2
ngưới 2
40-@@ 2
HIV-@@ 2
mm@@ 2
1,6@@ 2
Dar 2
lăp 2
mạ@@ 2
stick 2
nn 2
Gosh 2
ứu 2
Baptist 2
chựng 2
Singing 2
Hugh 2
fer 2
Mitt 2
Romney 2
Lyman 2
đủi 2
E-@@ 2
Bracy 2
9.3 2
9,300 2
173 2
Flan@@ 2
brigade.codeforamerica.org 2
Ananda 2
Shankar 2
stage 2
Mahishasu@@ 2
Simhanand@@ 2
lar@@ 2
d. 2
Holiday 2
Gilley 2
Arias 2
Xê 2
sinh. 2
Globe 2
chy@@ 2
UNAMA 2
Jude 2
Dari 2
Pashto 2
nistan 2
Spack 2
iế@@ 2
thì@@ 2
12-@@ 2
bì@@ 2
lands 2
chă@@ 2
DSM 2
TEDxChange 2
Thiện 2
Sprite 2
Give 2
give 2
take 2
now 2
around 2
Teach 2
JoAnn 2
Kuchera-Morin 2
oăm 2
Amundsen 2
Na-@@ 2
Golesworthy 2
i--@@ 2
Marfan 2
3.6 2
4.4 2
gá@@ 2
ủ-- 2
từ. 2
ực-- 2
X-Quang 2
Brompton 2
àng 2
Ậy 2
Bittman 2
cần-- 2
Dictionary 2
Clarence 2
Bir@@ 2
Aykroyd 2
Pop-@@ 2
Gold@@ 2
fish 2
Min@@ 2
ô-- 2
tự-@@ 2
ở-@@ 2
oid 2
óc. 2
U.C 2
Dream 2
Electric 2
Sheep 2
ườ@@ 2
gặng 2
the@@ 2
hẵn 2
thi@@ 2
Pul@@ 2
việ@@ 2
Westchester 2
dẫ@@ 2
million 2
Matthe@@ 2
tuếch 2
Ruth 2
Lovins 2
èm 2
Kary 2
TEDtalks 2
Gee@@ 2
ổi. 2
ưởng-@@ 2
nhều 2
Laskey 2
power 2
rah 2
Ơ@@ 2
Thấp 2
xỉnh 2
vật. 2
dolla 2
ậ 2
ẹ 2
múôn 2
hú@@ 2
Spencer 2
Katharine 2
bert 2
ộ@@ 2
Robert-Houdin 2
TED.com. 2
Marlene 2
photo 2
Burroughs 2
Typography 2
Ep@@ 2
Augu@@ 2
Huhh 2
Updike 2
Moussaoui 2
Orlando 2
ou 2
đổ@@ 2
gger 2
Taryn 2
enedy 2
Playboy 2
Flori@@ 2
Mehta 2
Alhurra 2
Polaroids 2
Boyden 2
pins 2
ơ-ron 2
Pavlovian 2
Hor@@ 2
màu. 2
Wingsuit 2
paragliding 2
freeflying 2
jump 2
Eiger 2
Matterhorn 2
Dolls 2
port 2
nghịu 2
torrent 2
XKeyscore 2
Dou@@ 2
Der 2
Spiegel 2
GCHQ 2
súa 2
Drop@@ 2
Kimberly 2
Dilma 2
Rousseff 2
Ran@@ 2
Meer 2
sụa 2
sợ. 2
Look 2
khaki 2
Edi 2
khêu 2
François 2
velt 2
Half 2
Mother 2
ader 2
kiết 2
Mazzucato 2
ậc 2
Kafkian 2
vối 2
SBIR 2
DT@@ 2
ro-lợi 2
Thuế 2
Trung-Mĩ 2
Wilkes 2
Booth 2
Roll 2
chược 2
1902 2
gelato 2
andra 2
Trung- 2
Jamaican 2
auri 2
Kung 2
Lost 2
Omaha 2
Buffet 2
tháng. 2
ese@@ 2
hep 2
45-@@ 2
C-@@ 2
dactyl 2
phi-từ 2
Oates 2
SO@@ 2
Belcher 2
hy@@ 2
br@@ 2
prôtêin 2
ri-@@ 2
cassette 2
Edo 2
Constable 2
cover 2
parabôn 2
Lich@@ 2
Track 2
Happiness 2
Beer 2
Murad 2
Hasidic 2
Slide 2
nam@@ 2
en-@@ 2
trãi 2
Fatah 2
Solidariot 2
Wallajeh 2
Ni 2
Silk 2
Sau@@ 2
Rohwedder 2
drate 2
phẩn 2
sandwhich 2
55,000 2
nghe@@ 2
Krispy 2
Kreme 2
chung. 2
112 2
ưg 2
Dutch 2
Os@@ 2
ap 2
ngoảnh 2
hỗng 2
35@@ 2
1897 2
tạo. 2
Lewes 2
Miliband 2
Leicestershire 2
Somer@@ 2
Stroud 2
fê 2
ơ-va 2
ST@@ 2
dâm. 2
đơi 2
Dunham-Jones 2
đâu. 2
Gran@@ 2
Orange 2
Hyatt@@ 2
Minneapolis 2
Spring 2
rởm 2
xăng-@@ 2
nữ. 2
Jenna 2
Crawford 2
ank 2
XY 2
audio 2
Ultra 2
Draper 2
aaah 2
mont 2
Eco 2
Porfirio 2
PR@@ 2
Galena 2
Masiosare 2
Glennie 2
Sadowsky 2
Rube 2
Goldberg 2
gu@@ 2
ồng. 2
Kin@@ 2
Curiosity 2
Cabinet 2
Fahrenheit 2
sulfuric 2
0.4 2
Connor 2
800,000 2
GRA@@ 2
Dust 2
Snyder 2
1833 2
sòm 2
trừ@@ 2
Harrison 2
Schacht 2
Gel@@ 2
ễn 2
Coppola 2
nhẹp 2
Suslick 2
va-ni 2
queo 2
lọn 2
Say@@ 2
lee 2
kich 2
diff 2
ink 2
Priyanka 2
Bloomingdale 2
trá@@ 2
Morandi 2
ord 2
Il 2
Jasper 2
Mei@@ 2
stan@@ 2
dụng-- 2
Burnham 2
elli 2
Basel 2
villa 2
xang 2
Hamp@@ 2
Kingdom 2
Concertgebouw 2
Alessi 2
ll 2
Danziger 2
nhiếc 2
Nate 2
Appalachians 2
Louisiana 2
lúc-- 2
thuân 2
Schau@@ 2
Hokusai 2
Astaire 2
bắ@@ 2
xa-van 2
đác 2
Chauvet 2
Acheulian 2
Acheu@@ 2
311 2
dướ@@ 2
khúm 2
132 2
rúng 2
452 2
Greenberg 2
ti-mét 2
rôn 2
na-@@ 2
ăng-xtr@@ 2
cô-@@ 2
bộ@@ 2
cựa 2
một-- 2
Fen@@ 2
spat 2
bazan 2
đoá 2
Widder 2
web@@ 2
Mahlasela 2
Afrika@@ 2
8.3 2
Scholars 2
Maira 2
Kalman 2
NYU 2
Gat@@ 2
Fat@@ 2
Rem@@ 2
E.B. 2
unk 2
August 2
Pavlov 2
Lenin 2
Moss 2
Gershwin 2
Barricini 2
Frances 2
Low 2
cia 2
Colombo 2
Art-o-mat 2
Medve@@ 2
máy. 2
Station 2
hực 2
càu 2
nhàu 2
Bellotto 2
Petrie 2
Dumais 2
Rensink 2
Asia 2
phí. 2
hỏi. 2
lượng. 2
Earth@@ 2
rỏi 2
Chase 2
Econ@@ 2
helios 2
cacbon-@@ 2
cacbon@@ 2
Humphrey 2
vy 2
Janna 2
Battlestar 2
Galactica 2
Goddard 2
ÃY 2
Ạ@@ 2
Puck 2
cõ 2
êng 2
Ishijima 2
Aqu@@ 2
inas 2
xe. 2
Friend@@ 2
ster 2
ster.com 2
Map@@ 2
ĩ-@@ 2
&apos;ve 2
dah 2
dat 2
Davenhall 2
a-y 2
lôn 2
clor@@ 2
benzen 2
Red@@ 2
ôzôn 2
nững 2
Wolf 2
bỉm 2
Fitbit 2
TEDPrize 2
giối 2
tranh@@ 2
28@@ 2
Ramallah 2
giấy. 2
sticker 2
Giacom@@ 2
Af@@ 2
poster@@ 2
chàm 2
SL 2
Jun@@ 2
Hori@@ 2
Uranus 2
STE@@ 2
Quixotic 2
Fusion 2
Andreas 2
Raptopoulos 2
Matternet 2
Saharan 2
Volkswagen 2
Bee@@ 2
tle 2
pha-ra-ông 2
phenethylamine 2
Yuri 2
ặc. 2
Fiorenzo 2
việ 2
bu-lông 2
Yorick 2
poly@@ 2
penixilin 2
Aamodt 2
Rudy 2
bel 2
Ottawa 2
kiếm. 2
Pariser 2
Thận 2
Ras@@ 2
sa-giông 2
370 2
vía 2
erg 2
lôgic 2
Al-@@ 2
SHeen 2
shalan 2
something 2
SH 2
CK 2
Biddle 2
ngh 2
lb 2
Lalitesh 2
Katragadda 2
Maker 2
20.@@ 2
Mapmaker 2
Ferran 2
Adria 2
Blu@@ 2
Pyrex 2
gắp 2
Whis@@ 2
ngòm 2
gọng 2
kềm 2
13.@@ 2
Music 2
thõng 2
nhạc. 2
Born 2
son@@ 2
Boghuma 2
Kabisen 2
Titanji 2
dằng 2
già. 2
khà 2
Jae 2
Rhim 2
etty 2
Pisa 2
Aus@@ 2
chiwitz 2
Guantanamo 2
ốt. 2
Richar@@ 2
thấ@@ 2
Pam 2
Albemarle 2
tróc 2
ọp 2
Lennon 2
Richmond 2
Jan 2
Polo 2
Banks 2
eline 2
plexi 2
Agnor-Hurt 2
gích 2
ấy. 2
Nic 2
Marks 2
2021 2
tếp 2
ipod 2
điệ@@ 2
R-I-A-A 2
tâp 2
vani 2
Gen@@ 2
diêu 2
AnnMarie 2
nhà-- 2
thí@@ 2
điện-- 2
làm-- 2
giản-- 2
Ki-@@ 2
dông 2
Belk 2
tites 2
chư 2
Gla@@ 2
Gorbachev 2
Dobrynin 2
roe 2
hữa 2
Wer@@ 2
Solzhenitsyn 2
oán 2
lĩ 2
Tedx@@ 2
Muslim 2
OE@@ 2
Haw@@ 2
Diva 2
Joy 2
mine 2
mình@@ 2
anna 2
vanEngelsdorp 2
he@@ 2
nột 2
Winconsin 2
athy 2
ta--@@ 2
Niese 2
loạ@@ 2
Panzi 2
Muk@@ 2
dước 2
Dorcas 2
Watts 2
Labrador 2
Franc 2
Judi 2
Trùng 2
ụng 2
Tipper 2
Delano 2
Trinity 2
Leib@@ 2
iniz 2
Oppenheimer 2
zi@@ 2
MANIAC 2
Marston 2
kilo@@ 2
Markoff 2
Acid 2
MIN@@ 2
brainstorming 2
đẹp-- 2
Ron@@ 2
GM 2
Organization 2
Cooperation 2
Tomorrow 2
Fle@@ 2
hích 2
1862 2
Clapton 2
Yeats 2
Murchison 2
Taz 2
Mom@@ 2
anian 2
xép 2
Eureka 2
ka-@@ 2
Philharmonic 2
ops 2
Paganini 2
Lomborg 2
ứng-@@ 2
Real 2
tiên. 2
Ì@@ 2
cỏn 2
Vacc@@ 2
quinin 2
ws 2
Work 2
Be 2
Suheir 2
Hammad 2
rền 2
Ố@@ 2
ão. 2
cheo 2
tubine 2
cock 2
Wilbur 2
Miles 2
terawatts 2
Gulfstream 2
Goose 2
15-@@ 2
Marlboro 2
mồng 2
Berg@@ 2
xúc. 2
tại. 2
Ekman 2
TEDxToronto 2
ta-@@ 2
Zen 2
Bound 2
giới.@@ 2
Ă@@ 2
Vọt 2
Mahar@@ 2
2048 2
Schoonover 2
Golgi 2
Santiago 2
Cajal 2
nơ-@@ 2
SR@@ 2
serontonin 2
Lian 2
nhâm 2
JA 2
báy 2
Massella 2
chẻ 2
khuây 2
tầng. 2
Siegfried 2
Woldhek 2
Verna 2
Mobisante 2
Redmond 2
thời-@@ 2
Ashley 2
ới-@@ 2
trong-@@ 2
Gamley 2
TEDxNASA 2
RoMeLa 2
Stri@@ 2
DER 2
độ. 2
RA@@ 2
HyDRAS 2
Xoắn 2
club 2
RoboCup 2
hý 2
hoáy 2
Pakistani 2
730 2
ver@@ 2
INTERPOL 2
din 2
SQ@@ 2
Clar@@ 2
Networks 2
O600KO78RUS 2
láy 2
Samara 2
PLC 2
Rogier 2
Heide 2
Notre 2
Renzo 2
Arup 2
Group 2
Mies 2
Rohe 2
os@@ 2
Hopper 2
1925 2
leton 2
Metropolitan 2
Bud@@ 2
ap@@ 2
land 2
Bassler 2
xoan 2
Es@@ 2
single 2
Champ@@ 2
mixing 2
Mixing 2
Merced 2
AMD 2
Burn 2
Coop 2
Cli@@ 2
khạc 2
Wren 2
McC@@ 2
Stefon 2
re 2
Sands 2
iti 2
khá@@ 2
koala 2
1788 2
Hobart 2
vấy 2
Hijri 2
nito 2
phospharyl 2
lipid 2
phosphate 2
Ury 2
Yugoslav 2
Appalachian 2
Mesopotamia 2
nết 2
ập. 2
Po 2
Slater 2
come 2
dọ 2
LGBTQ 2
Mes@@ 2
động. 2
niệu 2
bé. 2
quyêt 2
điện. 2
glucôzơ 2
BS 2
Halla 2
Tomasdottir 2
Audur 2
Capital 2
Reykjavik 2
Thoại 2
người-băng 2
Moo@@ 2
c-xơ 2
xê-ri 2
ây-- 2
Margonelli 2
van@@ 2
asphaltene 2
nhớp 2
Ug@@ 2
gh 2
1860 2
Ida 2
Tarbell 2
RONG 2
Ludwick 2
Marishane 2
62@@ 2
rand 2
HE 2
schizophonia 2
Eben 2
Bayer 2
gém 2
lium 2
kitin 2
Nirmalya 2
Kumar 2
Phanish 2
Viagras 2
Gurgaon 2
Schumpeter 2
bad 2
787 2
Dream@@ 2
105,000 2
33,000 2
trong@@ 2
Kumbaya 2
McGuire 2
F-@@ 2
START 2
U.N 2
Rangoon 2
00.000 2
700,000 2
Shinola 2
Philad@@ 2
enphia 2
la. 2
Menino 2
Ananthaswamy 2
cực. 2
ican 2
8.2 2
Bus 2
tấn. 2
dợ 2
Ladakh 2
Prestero 2
that 2
DVR 2
phê. 2
1838 2
Gruber 2
APL 2
Guier 2
bíppp 2
Doppler 2
Pattie 2
Maes 2
Harald 2
Tuỷ 2
xilanh 2
Pro@@ 2
bích 2
nein 2
Bye 2
Lublin 2
dục. 2
LMAO 2
cứu. 2
Stat@@ 2
nghuệch 2
Jimi 2
ợi. 2
ater 2
Kah@@ 2
Munger 2
Eurostar 2
tưở@@ 2
phí@@ 2
Fish@@ 2
ị-- 2
điề@@ 2
un 2
Elif 2
Shafak 2
Ankara 2
ghẹo 2
vision 2
pine 2
meddah 2
Nas@@ 2
Sufis 2
trịch 2
compa 2
com@@ 2
thỏm 2
Naturally 2
Take 2
Townsend 2
Ke@@ 2
Dang 2
Chaucer 2
Rabassa 2
sắ@@ 2
Rush 2
enberg 2
Hicks 2
yor 2
Ign@@ 2
ett 2
254 2
ot@@ 2
Mayassa 2
Kim@@ 2
Christie 2
ồi-@@ 2
Poole 2
chan@@ 2
forum 2
Channel 2
cườ@@ 2
i-b@@ 2
Astley 2
Scientology 2
Thờ 2
lean 2
sòng 2
XIV 2
498 2
Versailles 2
za 2
Tierra 2
Fuego 2
Read 2
Honor 2
Harger 2
1876 2
Arno 2
rợp 2
bizon 2
Shapiro 2
Fern@@ 2
Ryder 2
banteng 2
Fos@@ 2
sey 2
Tinker 2
headset 2
Ev@@ 2
Joanne 2
TL 2
avatar 2
Mich@@ 2
Indi@@ 2
183 2
tenstein 2
Tarja 2
EU 2
Giler 2
đề-@@ 2
WiTricity 2
suck 2
Soljacic 2
Award 2
Thẻ 2
rađi@@ 2
Magazine 2
khí-@@ 2
Ninos 2
là--@@ 2
ish 2
phâ@@ 2
198@@ 2
Pav@@ 2
raở 2
200-@@ 2
thuôc 2
t--@@ 2
1584 2
can-xi 2
zim 2
Underkoffler 2
2054 2
Beckett 2
đă 2
Janis 2
woohoo 2
massage 2
Đổ 2
Shand 2
Kanchi 2
TEDxPSU 2
lích 2
Ince 2
trọng. 2
Amber 2
Pop@@ 2
cassete 2
nào-@@ 2
ỉ. 2
tiếng. 2
phút. 2
nhiêt 2
dương. 2
ơi. 2
tôi@@ 2
thuyền. 2
epinephrine 2
Wikipeida 2
giêng 2
Liza 2
Donnelly 2
Ổ@@ 2
J.J. 2
Abra@@ 2
leywood 2
ener 2
yn 2
Rand 2
Micro@@ 2
Omidyar 2
Gardner 2
Society 2
Hale 2
leishmaniasis 2
Ball 2
Country 2
CL@@ 2
Guggenheim 2
Kite 2
Wernicke 2
Ferriss 2
từ- 2
99.99@@ 2
Animaris 2
tấc 2
JD 2
Schramm 2
Staten 2
Bellevue 2
Pankaj 2
Livingstone 2
3.0 2
tế- 2
Bran@@ 2
2.65 2
Benedic@@ 2
FDI 2
Stones 2
TEDxMidwest 2
thuẩn 2
lỹ 2
quỉ 2
Dianna 2
JW 2
nghèo. 2
TEDxSummit 2
alaikum 2
Sheraton 2
wuhahaha 2
hahaha 2
Fau@@ 2
Bam@@ 2
Katherine 2
kiệu 2
Zem 2
Brett 2
Cos@@ 2
điểm. 2
SmileyGirl1978 2
850 2
Seymour 2
Ahhhh 2
ali@@ 2
xet 2
gióng 2
chiế@@ 2
Massimo 2
T-shirt 2
zzy 2
róc 2
Sinai 2
Bedouin 2
She@@ 2
berry 2
Houris 2
mọng 2
gảy 2
Tse 2
Zim-ba-bu-ê 2
Innocent 2
Swaziland 2
sky 2
ĐỊnh 2
Kaf@@ 2
Hoen 2
Otwoma 2
UNITAID 2
thởi 2
tác. 2
Deutsch 2
húng 2
hêt 2
Schneider 2
Aydah 2
Jahan@@ 2
Nabati 2
Sahar 2
Kandahar 2
ro@@ 2
ình-- 2
date 2
Bastian 2
hèm 2
A380 2
plastic 2
polime 2
126 2
rai 2
íp-pi 2
wing 2
nt 2
chầu 2
Tròn 2
Dell 2
neocortex 2
bur 2
Will@@ 2
War@@ 2
IPO 2
Inge 2
Caritas 2
Series 2
Donovan 2
lunch 2
Monsanto 2
hormon 2
tỳ 2
ds 2
dogs 2
Danish 2
nuggets 2
ots 2
fructose 2
trans-fat 2
WISE 2
Smart 2
ìn 2
shopping 2
Oefner 2
whisky 2
6,000 2
Phantom 2
ky 2
1865 2
Raven 2
Đệ 2
Rudyard 2
test 2
1738 2
nhiều-- 2
nhiề@@ 2
u--@@ 2
pho@@ 2
ấn. 2
60K 2
50K 2
Godiva 2
Spam 2
ngậy 2
kiệ@@ 2
quan-- 2
trên-- 2
nay-- 2
Wilkinson 2
quôc 2
na-vi 2
tế-@@ 2
Andras 2
Forgacs 2
Greenwich 2
Foursquare 2
ập-@@ 2
Sameer 2
Khader 2
âý 2
kon 2
ban@@ 2
Dickinson 2
chiền 2
ag@@ 2
ủi. 2
véc 2
hăn 2
Adrienne 2
Bros 2
RKO 2
let 2
Ler@@ 2
Niels 2
Diffrient 2
lớ@@ 2
nhỏ-- 2
ghén 2
việc--@@ 2
cũ-- 2
lực-- 2
Chatfield 2
Entropia 2
cac 2
dop@@ 2
Mathe@@ 2
Childs 2
Mea@@ 2
Edge 2
Dorado 2
ey@@ 2
Kubla 2
Fallon 2
zzi 2
Borden 2
đô. 2
một@@ 2
1942 2
kipedia 2
nhặng 2
xị 2
xẻng 2
xavan 2
nhăng 2
Vicodin 2
thích. 2
Vaclav 2
Smil 2
chị@@ 2
liệt- 2
Gibraltar 2
ịch. 2
Vir@@ 2
ãng 2
voà 2
xừ 2
xồm 2
Shaheen 2
Anjali 2
rupees 2
rupee 2
A-C 2
Marin 2
Patk@@ 2
Yasheng 2
Dharavi 2
Singh 2
Khrushchev 2
Indira 2
Yoav 2
Medan 2
sonicate 2
sonication 2
bưởi 2
Citron 2
speras 2
HD 2
Keynes 2
iến 2
TJ 2
Bedi 2
ẹ. 2
mô@@ 2
Vé 2
Doing 2
Conneally 2
TEDxRC2 2
Xúc 2
pers 2
Open 2
TERA 2
dồ 2
24,000 2
niệm. 2
SG 2
dian 2
dà@@ 2
ừng. 2
Schwe@@ 2
erie 2
pháp-- 2
Sel@@ 2
vu@@ 2
Elton 2
Rumsfeld 2
Điểu 2
Maurice 2
alpha 2
Gamow 2
Nirenberg 2
Sz@@ 2
yer 2
Wigler 2
bi-@@ 2
Bradner 2
iệu 2
Ras 2
Jun 2
Brigham 2
Mmmmm 2
căng-@@ 2
vvv 2
Reverend 2
Blicket 2
ector 2
Demetrios 2
Fair 2
194@@ 2
many 2
trains 2
rode 2
rose 2
Rose@@ 2
bud 2
Buddy 2
saw 2
dềnh 2
Kymaerican 2
N. 2
aga 2
Colom@@ 2
Gretel 2
Dill-Bundi 2
BD 2
Lydia 2
ET@@ 2
SY 2
ND 2
ỘC 2
Ử 2
Ầ@@ 2
Ó 2
BE@@ 2
GE@@ 2
ÙNG 2
Ú@@ 2
THU@@ 2
EO 2
ỂN 2
ki-@@ 2
tuabin 2
Dirk 2
bing 2
TNC 2
của@@ 2
737 2
Zainab 2
Salbi 2
tranh-- 2
doa 2
nhăm 2
bả 2
MET 2
Wessling 2
nếu@@ 2
1,200 2
MSNBC 2
PD@@ 2
Southwest 2
Odin 2
vis 2
Shook 2
Stroop 2
Trắc 2
NASDAQ 2
Abani 2
chuyễn 2
Malibu 2
phụt 2
Biafran 2
Lisbon 2
pác-thai 2
Kessler 2
khom 2
trick 2
tòng 2
xúi 2
Lucille 2
ddit 2
ô-li-nê-@@ 2
Spla@@ 2
Boing 2
splashy 2
pants 2
học@@ 2
ngữa 2
hư@@ 2
80s 2
BlackBerry 2
Tunisian 2
mir 2
Aldous 2
Huxley 2
gì-- 2
Yo@@ 2
đồng-- 2
sau-- 2
bằng-- 2
Stairmaster 2
97@@ 2
pahir 2
ích-- 2
Omega-3 2
logy@@ 2
UCSF 2
ường-- 2
lakh 2
trằn 2
19,@@ 2
1,3@@ 2
Motor 2
duới 2
CS@@ 2
ngữ-động 2
trợ@@ 2
Sal 2
Immanuel 2
Fiske 2
p-nghiệp 2
Jodrell 2
ming 2
Shanda 2
00-@@ 2
Marble 2
Meattle 2
Areca 2
ă 2
Has@@ 2
Zara 2
Jamal 2
Stefana 2
Broadbent 2
Message 2
Roper 2
html 2
kel 2
Ellison 2
hé@@ 2
Urbana 2
LI@@ 2
Rainbow 2
user@@ 2
què 2
Burchfield 2
Cowley 2
đơ@@ 2
teri 2
Camille 2
Seaman 2
Robins 2
Macs 2
MapQuest 2
bon@@ 2
Mickey 2
Leica 2
Richter 2
Cari@@ 2
ôcôla 2
anh@@ 2
khẩm 2
ni-@@ 2
Tarawa 2
ote 2
lẩu 2
Ộng 2
Stor@@ 2
Melendez 2
Pie@@ 2
Wolmetz 2
Brakarz 2
Local 2
Projects 2
Battery 2
Giuliani 2
tor 2
Ramos 2
thơ@@ 2
Stacey 2
Kramer 2
Sangin 2
Haji 2
Malem 2
Mohsin 2
Kamen@@ 2
Mullah 2
Semple 2
Ei@@ 2
oux 2
Benghazi 2
Paraguay 2
Black@@ 2
khang 2
Saskatchewan 2
Pachycephalosaurs 2
Edmontosaurus 2
Rockies 2
Tyrannosaurus 2
Leah 2
UIUC 2
or 2
ngd 2
1450 2
Eskimos 2
Morley 2
tuc 2
Elah 2
André 2
Krause 2
anthrophony 2
ềng 2
Mono 2
great 2
beaver 2
dam 2
soundscapes 2
Robertson 2
br 2
Độ. 2
Ắn 2
Accra 2
Doren 2
Wikimedia 2
Bush-Kerry 2
ASDFASDF 2
Guide 2
ound 2
Xoá 2
bloggers 2
Eli@@ 2
Yogi 2
2D2 2
ngườ 2
Hayek 2
dis 2
tiếng@@ 2
boa 2
Hume 2
Hog@@ 2
stadter 2
viện. 2
õng 2
Sco@@ 2
ott 2
NPR 2
At@@ 2
Feu@@ 2
sa@@ 2
chus@@ 2
wana 2
wan@@ 2
PEPFAR 2
rẳng 2
vậ@@ 2
Gapminder@@ 2
òng. 2
óm 2
ỏm 2
Der@@ 2
oth 2
mmut 2
quặt 2
Oooh 2
hhh 2
toàn. 2
lar 2
phi@@ 2
Stickybot 2
Ạnh 2
model 2
ằm 2
shot 2
Thà 2
cả-- 2
Hayward 2
Icarus 2
real 2
ture 2
Christoph 2
Adami 2
tạo- 2
Rasmussen 2
carboxylic 2
glycine 2
alanine 2
bât 2
sựu 2
lên. 2
Gahr 2
Støre 2
1946 2
Skylife 2
Oblivion 2
Angel@@ 2
Astor 2
Piazzolla 2
ộng. 2
McEwen 2
đường. 2
cốc-tai 2
3.4 2
agora 2
Gutenberg 2
mon 2
xi-cô 2
arty 2
Aztec 2
àng-- 2
Shel@@ 2
Baer 2
Ê@@ 2
-ti-@@ 2
Geronimo 2
râ@@ 2
Jessa 2
Maajid 2
Nawaz 2
Bhu@@ 2
MENA 2
IPS 2
Plu@@ 2
ells 2
Sad@@ 2
lợp 2
CH4 2
Nehru 2
Andraka 2
proteins 2
nanocarbon 2
chếc 2
Abou 2
ef 2
Woman 2
Grosser 2
prôban 2
xì@@ 2
U-Carmen 2
Khayelitsha 2
Esterhazy 2
Courtney 2
Blogger 2
ita 2
Barnard 2
Baumgardner 2
Femin@@ 2
Gloria 2
Steinem 2
Guzman 2
Women 2
Network 2
rassa 2
Hazrat 2
Mess@@ 2
Granholm 2
Juarez 2
Nick@@ 2
wa 2
è@@ 2
éu 2
ẹn 2
Powerful 2
nic 2
vũ@@ 2
mai. 2
Hans@@ 2
Ames 2
Dante 2
diếm 2
trịnh 2
Dominique 2
Strau@@ 2
ọng. 2
vểnh 2
Downs 2
Runnion 2
thó 2
buffet 2
óp 2
Trói 2
Penelope 2
doughnut 2
baby 2
McKinsey 2
Sharpe 2
dộ 2
rượi 2
Russ 2
Falu@@ 2
Angelina 2
Jolie 2
Monbiot 2
rewilding 2
định. 2
Trafalgar 2
Và@@ 2
khò 2
Thurman 2
òn 2
Chiho 2
soprano 2
Rochester 2
gy 2
ess 2
Andrea 2
Ghez 2
Keck 2
xẹo 2
giập 2
R.C. 2
Sharman 2
Lucianne 2
Walkowicz 2
thoắt 2
Die@@ 2
be@@ 2
ere 2
Kéré 2
Christo 2
Jeanne-Claude 2
Posada 2
ời-- 2
vi-@@ 2
công. 2
vị@@ 2
ys 2
is@@ 2
ci@@ 2
ites 2
430 2
http 2
lõng 2
Krastev 2
tạnh 2
Goethe 2
Alanna 2
Shaikh 2
fellow 2
phủi 2
Duncker 2
Glucksberg 2
thưởng-phạt 2
Madurai 2
Trữ 2
LSE 2
ROWE 2
Tzemach 2
Lemmon 2
đận 2
cal 2
Kam@@ 2
2018 2
nữa- 2
Kiva.org 2
Gunung 2
Batur 2
Prospero 2
iếc 2
sùi 2
Fernando 2
Akyol 2
wick 2
bộ-- 2
Rinaudo 2
SI 2
medabad 2
ười 2
Rich@@ 2
wn 2
Lennox 2
Youssou 2
&apos;Dour 2
calories 2
Add@@ 2
ls 2
Newman 2
Judith 2
Althu@@ 2
́ 2
Anton 2
qúa 2
khều 2
140,000 2
ngoèo 2
Kurt 2
Gate 2
ness 2
LDL 2
Rule 2
lebrot 2
fractal 2
Aditi 2
Shankardass 2
Cooperman 2
Ty 2
TTN 2
Zaha 2
Hadid 2
biopolymer 2
zzz 2
xcova 2
Martin@@ 2
Rev@@ 2
Eetwidomayloh 2
Oka@@ 2
Cats 2
Yo-yo 2
aleuca 2
GC 2
O-H 2
sulphur 2
lovich 2
Lam@@ 2
Electr@@ 2
chắ@@ 2
cer 2
cumarin 2
bo@@ 2
Reno 2
Archive 2
John@@ 2
len@@ 2
Snoop 2
Dogg 2
suỵt 2
Severin 2
ofi 2
Rosetta 2
Herzing 2
thuyển 2
Mugsy 2
Del@@ 2
dolphins 2
Routemaster 2
pho-mát 2
xi@@ 2
ala 2
áp-phích 2
ước-- 2
Advisor 2
nà 2
Demon 2
Ố 2
Jove 2
Prit@@ 2
gẫn 2
Makau 2
mình--@@ 2
Gad@@ 2
McQueen 2
rằng--@@ 2
Cy@@ 2
polyurethane 2
biết-- 2
Paulette 2
Whitman 2
erge 2
Calvary 2
láo 2
Nebraska 2
Max@@ 2
Domin@@ 2
Young-Soon 2
ene 2
Digest 2
Current@@ 2
Kemp@@ 2
599 2
Điệp 2
Radiohead 2
ello 2
Doo@@ 2
Knoxville 2
vễ 2
ML@@ 2
Sadoway 2
mega 2
dua 2
Heroult 2
ang-ti-moan 2
tửu 2
aspartame 2
Nes@@ 2
ngải 2
tỏi 2
Cheese 2
Den 2
Gulden 2
Chez 2
Panisse 2
mo@@ 2
Sym@@ 2
Camfed 2
ép. 2
Trộm 2
Lydmar 2
funk 2
ry@@ 2
hội-- 2
Airplane 2
phim- 2
Kristen 2
Herbert 2
Kirsten 2
Acquisti 2
El-Khalil 2
26.2 2
512 2
WuDunn 2
abian 2
trố 2
Mahabuba 2
sẩn 2
Sum@@ 2
Heifer 2
Trợ 2
Hutch@@ 2
Berns 2
McRae 2
Robyn 2
Q-@@ 2
Hannity 2
SPCA 2
Ucraina 2
Kelley 2
Chavez 2
Hotz 2
các-bô-nic 2
ni-tơ 2
zôn 2
III 2
Dear@@ 2
mít 2
ốc@@ 2
giựt 2
tapioca 2
Guy-@@ 2
pse 2
CENTCOM 2
TEDxParis 2
1750 2
Vodacom 2
Merrifield 2
Simons 2
aba 2
Pretoria 2
3.1 2
MS@@ 2
Gooseberry 2
ổ@@ 2
chế@@ 2
ty. 2
CT@@ 2
74.125.226.212 2
Xerox 2
pper 2
Digital 2
OPA 2
CO@@ 2
ươn 2
chêm 2
Trương 2
Hemisphere 2
elip 2
eli@@ 2
Seal 2
ót 2
Ramachandran 2
Rizzolatti 2
táo. 2
liêt 2
Fahad 2
Al-Attiya 2
tn 2
Inconvenient 2
Truth 2
than@@ 2
Tanzani@@ 2
naỳ 2
Chade-Meng 2
đễn 2
Web@@ 2
Xbox 2
MR. 2
ten-@@ 2
ị. 2
rows 2
đênh 2
Mongolia 2
Charity 2
Tillemann-Dick 2
gis 2
đao 2
Flolan 2
phịch 2
lảo 2
dev 2
Mack 2
K2 2
VA 2
Wakulla 2
AUV 2
Thermal 2
Cen@@ 2
Zacaton 2
SL@@ 2
Bert 2
Rutan 2
Branson 2
trũ 2
lồ. 2
truyển 2
15,@@ 2
17,@@ 2
18,@@ 2
Roukaerts 2
ngiệm 2
Rab@@ 2
Gilding 2
Jorgen 2
Fischer 2
rey 2
ton. 2
Grégoire 2
Courtine 2
mớ@@ 2
robot@@ 2
rington 2
Edger@@ 2
kilo 2
nghiệp. 2
gì@@ 2
124 2
18,000 2
Madame 2
Control 2
những@@ 2
Keynote 2
Ngozi 2
Okonjo-Iweala 2
Alamieyeseigha 2
Ribad@@ 2
Alams 2
Washinton 2
4,500 2
Adenike 2
Ghosh 2
Queda 2
Boko 2
Haram 2
Shabaab 2
SEAL 2
Six 2
Kenichi 2
Ebina 2
hiphop 2
Villeneuve 2
Que@@ 2
ngữ. 2
2042 2
làm@@ 2
Eng@@ 2
nă@@ 2
ngmà 2
Vision 2
Glob@@ 2
bòn 2
Waring 2
Blender 2
stacking 2
0001 2
Saint-Exupery 2
Brancusi 2
Botsman 2
Bauer 2
chát 2
spam 2
nhiếu 2
Damian 2
kali 2
Dudley 2
Brunswick 2
Shinerama 2
Xơ 2
rảo 2
Marianne 2
Shane 2
Koyczan 2
Jaws 2
đẹp. 2
tráo 2
Ây 2
ario 2
Goetz 2
nướu 2
CRP 2
Quest 2
Orff 2
trươc 2
ệu 2
Epicurus 2
Ludwig 2
bằn 2
Beery 2
L-Dopa 2
334 2
Wall@@ 2
thuy@@ 2
Wesley 2
Mik@@ 2
McGon@@ 2
ial 2
7.68245837 2
FarmVille 2
With 2
Friends 2
Crohn 2
To@@ 2
àn-@@ 2
vi-ô-lông 2
Zalaznick 2
tóp 2
Nielson 2
Iran-Contra 2
Gunsmoke 2
Gomer 2
Family 2
Che@@ 2
ever 2
Leave 2
cor@@ 2
gá 2
Serfaas 2
megabyte 2
gộc 2
Scri@@ 2
Dall 2
&apos;Aglio 2
itis 2
Bjarke 2
Ingels 2
Venturi 2
chạ 2
Haibao 2
cữ 2
Weiwei 2
ku 2
Lekuton 2
hya 2
26,000 2
Diller 2
Koshalek 2
don@@ 2
Bun@@ 2
Huxtable 2
khoắng 2
hp 2
999 2
kyu 2
peso 2
ysia 2
Idealab 2
Popular 2
Lotus 2
lượ@@ 2
trời-- 2
o- 2
piston 2
thực-- 2
tal@@ 2
30-@@ 2
Pachter 2
bott 2
Shir@@ 2
er. 2
Dumas 2
Mr. 2
Marder 2
Onyx 2
beatjazz 2
BeatJazz 2
Fonda 2
Entropy 2
Gehrig 2
Frankl 2
Kartick 2
Satyanarayan 2
Kalandar 2
Karnataka 2
ander 2
Bit@@ 2
Đam 2
lớn- 2
TEDU 2
Viz 2
Echelman 2
đến. 2
pel 2
-lê 2
Jor@@ 2
ƯƠ@@ 2
CON 2
ỆN 2
ÊN 2
Safina 2
7.7 2
hạ@@ 2
NP 2
Indon@@ 2
exia 2
ww@@ 2
lich 2
khỏ 2
Alastair 2
Parvin 2
Wikihouse 2
tốp 2
WikiHouse 2
SketchUp 2
Coca-@@ 2
zip 2
khac 2
ươc 2
Calder@@ 2
Marty 2
Hoff@@ 2
ang@@ 2
tỏng 2
chât 2
đờn 2
đấy- 2
độc. 2
tuyện 2
am-@@ 2
Hurley 2
ơm 2
Seyi 2
Oyesola 2
tả@@ 2
Sage 2
Annalisa 2
23@@ 2
nhân. 2
194 2
gữa 2
guỹ 2
Smith-@@ 2
lota 2
Jamil 2
Abu-Wardeh 2
Saki 2
Mafundikwa 2
Bau@@ 2
Akan 2
Jok@@ 2
Yoruba 2
Ethi@@ 2
-mom 2
Cheikh 2
Anta 2
Diop 2
Garvey 2
Vulcan 2
tép 2
Duluth 2
NO@@ 2
ich 2
Ikaria 2
hiễu 2
Griscom 2
Ner@@ 2
Nerve 2
Mitch@@ 2
Roc@@ 2
Pad 2
Hrabowski 2
mingham 2
Toi 2
Meyerhoff 2
K-12 2
Hop@@ 2
Chemi@@ 2
stry 2
Tinto 2
Cilliers 2
Mi-@@ 2
Gardens 2
Rani 2
ngày- 2
Sophos 2
leded 2
Mob@@ 2
TEDAttendees 2
EA 2
Hil@@ 2
Surve@@ 2
Raul 2
Midon 2
236 2
alia 2
Mê-@@ 2
Chrystia 2
400@@ 2
Furstenberg 2
Kru@@ 2
Thuận 2
Mracek 2
Terrafugia 2
y--và 2
dõng 2
dạc 2
Macedon@@ 2
Bahubali 2
lẵng 2
Iliad 2
Holmes 2
Bharat 2
achi@@ 2
sống-@@ 2
thồ 2
ngư@@ 2
òi 2
Renata 2
Salecl 2
Fuku@@ 2
dửng 2
đI@@ 2
Larson 2
nhưng-- 2
alto 2
hosting 2
Argyll 2
Bute 2
Adobe 2
ctôi 2
ntn 2
tuỵêt 2
ẩy 2
Parag 2
Khanna 2
TEDistan 2
us@@ 2
Mine-golia 2
ec@@ 2
Pesh@@ 2
Caspian 2
Croatia 2
itan 2
uchistan 2
Lesser 2
ẫ 2
Adolf 2
ngĩa 2
đưng 2
ỹ 2
Alwar 2
Odonil 2
catalog 2
Bandi 2
Mbubi 2
Winona 2
Canal 2
xton 2
dr@@ 2
ê-ri 2
XDRTB.org 2
Eccles 2
1.0 2
AP 2
EPFL 2
Archivio 2
Stato 2
1323 2
Shyam 2
Sankar 2
Thoạt 2
Foldit 2
protease 2
xit 2
dist 2
richte 2
Goldin 2
rặt 2
Olafur 2
Modern 2
Ngh@@ 2
Ống 2
Ha-@@ 2
n--có 2
IIB 2
caffein 2
INCA 2
TEDxMidAtlantic 2
ICD 2
hàng-- 2
óc-- 2
GS 2
Sequo@@ 2
VC 2
Đành 2
thè 2
Luc 2
God@@ 2
ết. 2
Dora 2
Genji 2
lẩy 2
sé 2
gẳng 2
Miru 2
Hook 2
acre 2
Ikea 2
Croton 2
Riker 2
Kacyra 2
It@@ 2
Historic 2
Orwellian 2
ngiên 2
hoăc 2
kà 2
France 2
nj 2
Aristot@@ 2
theo@@ 2
Bairey 2
qua-- 2
acy 2
Bernad@@ 2
gr@@ 2
cat@@ 2
nữ@@ 2
Houdini 2
âu. 2
soát. 2
mét. 2
Valles 2
Marineris 2
Hellas 2
Spirit 2
Opportunity 2
rover 2
Space 2
Arthus-Bertrand 2
km2 2
Ranj@@ 2
06 2
Zander 2
Ban@@ 2
agon 2
chạn 2
gía 2
Nakuru 2
Sebasti@@ 2
Rocha 2
Taio 2
sterma 2
theo-@@ 2
có@@ 2
cap 2
gọ@@ 2
ké 2
Anders 2
Breivik 2
Ajax 2
4.0 2
Mobutu 2
Sese 2
Seko 2
Equatorial 2
Abacha 2
ạ-- 2
Boahen 2
BASIC 2
ALU 2
120,000 2
tí@@ 2
transitor 2
Võng 2
Nicklin 2
All@@ 2
Good@@ 2
Nichols 2
disco 2
Euan 2
Zakouma 2
chỏm 2
khịt 2
vec 2
Metrics 2
&apos;Brien 2
Marina 2
loá 2
nhản 2
salsa 2
320 2
rủ 2
ngài-biết-tuốt 2
es@@ 2
W-A-T-S-O-N 2
người-biết-tuốt 2
Simpsons 2
Imam 2
Faisal 2
Rauf 2
Ngu@@ 2
ith 2
umi 2
kh 2
angour 2
eneb 2
Sherry 2
Turkle 2
gái-- 2
McWhorter 2
Gibbon 2
developing 2
easy 2
Downton 2
Forrest 2
Queen 2
Monash 2
ery 2
Gerard 2
Gold 2
JAWS 2
Access 2
phom@@ 2
MRIs 2
lức 2
bee 2
Lynchburg 2
Fehr 2
Gachter 2
Burke 2
Mello 2
Suzana 2
illa 2
Blanton 2
Rottweiler 2
Russert 2
Béatrice 2
Coron 2
Silhouette 2
Etienne 2
Spelling 2
architecture 2
active 2
dấp 2
Scot@@ 2
tsdale 2
Califor@@ 2
Indian 2
Grants 2
Goog@@ 2
truân 2
Com@@ 2
Weller 2
sun 2
good 2
gen-- 2
oxide-- 2
nitrat 2
nitrit 2
nitrosothiols 2
Sham 2
ễ@@ 2
Trenton 2
Money@@ 2
ew 2
Stefano 2
Mancuso 2
Bolin 2
Paris@@ 2
phốt-pho 2
bìu 2
scrotal 2
scrotum 2
digital 2
PGA 2
Vikram 2
health 2
people 2
mental 2
just 2
care 2
Rahul 2
đâui 2
Hembrey 2
6.7 2
vạng 2
Thăm 2
Jao@@ 2
cụng 2
Hazel 2
Clausen 2
Uvulites 2
Irene 2
ngạnh 2
K.@@ 2
Maynard 2
Sipes 2
Jan@@ 2
Z.@@ 2
Swi@@ 2
Halifax 2
Yudhisthira 2
Hum@@ 2
giòi 2
Redwood 2
xiêu 2
Võ 2
Bohannon 2
vs. 2
nhớt 2
Nexi 2
MeBot 2
Autom 2
Cory 2
òng@@ 2
hiện. 2
Niparko 2
u.@@ 2
ben 2
Rachman@@ 2
nhạc-- 2
karaoke 2
Thép 2
anh-- 2
Beardyman 2
nin 2
thót 2
Carbon 2
LC 2
720 2
1896 2
VTA 2
Mamet 2
2200 2
TED2009 2
styro 2
cr@@ 2
Dewar 2
chíng 2
Johanson 2
Pablos 2
Annunziata 2
tuốc-bin 2
Davidson 2
Planet 2
Pavan 2
Sukhdev 2
Gobi 2
v.v-- 2
PUMA 2
hóng 2
Plus 2
Micronesia 2
TEDtalk 2
Garth 2
Lenz 2
Yukon 2
Tombstone 2
² 2
Sem@@ 2
862 2
main 2
Wilde 2
Thelma 2
tộ@@ 2
Leon 2
Golub 2
Colescott 2
Rom@@ 2
Somaly 2
Mam 2
trồ 2
progesterone 2
Andersen 2
Gaines 2
Shakespe@@ 2
Meisner 2
Humphreys 2
ạch. 2
nhiễn 2
Tamdin 2
Gy@@ 2
Yadira 2
Para@@ 2
Mengatoue 2
Doolikahn 2
Navajo 2
Ollantaytambo 2
Ira@@ 2
ão 2
Knols 2
Limburger 2
Elahi 2
Northwest 2
Warsaw 2
pa-@@ 2
kimchi 2
itlin 2
Peloponnesian 2
Key 2
Games 2
ầt 2
zombie 2
sodoku 2
xữ 2
hưỡng 2
Burt 2
Space@@ 2
Sirena 2
Stu 2
tuýt 2
quạc 2
www 2
Ủ@@ 2
Utko 2
Latvia 2
Jetsons 2
FU 2
AH 2
Belfast 2
ZX80 2
nhì@@ 2
275 2
Narnia 2
Pho@@ 2
vánh 2
BLIS 2
xentimét 2
Seckel 2
ếm 2
Holbein 2
lton 2
Herzog 2
Pixar 2
Kasungu 2
ra-đi-ô 2
Choi 2
Auden 2
itch 2
thinker 2
Dopamine 2
SRI 2
Rutgers 2
St@@ 2
tôi-một 2
bar@@ 2
Bimini 2
Scotia 2
Nathalie 2
Miebach 2
Milwaukee 2
nghe. 2
ngọ 2
MotorCity 2
Sashimi 2
iphone 2
Makerbot 2
Hot@@ 2
d-@@ 2
Pawlyn 2
TEDSalon 2
Wiles 2
Caesar 2
natri 2
Pasricha 2
Awesome 2
quặn 2
Thêu 2
thỏi 2
MacMaster 2
Cutts 2
Windsor 2
Match 2
Đống 2
lý. 2
xúât 2
Bing 2
Linz 2
U.N. 2
1369 2
3481 2
8649 2
987 2
457 2
205,849 2
321 2
103,041 2
722 2
39@@ 2
Yuck 2
57,000 2
tấ 2
Rain 2
38,760 2
171 2
38,931 2
oops 2
489 2
32@@ 2
đâ 2
garit 2
opady 2
nghiêp 2
Lon@@ 2
cầu- 2
cũ@@ 2
Iyengar 2
cư@@ 2
sava 2
nguow@@ 2
Sim@@ 2
fali 2
ngừời 2
san@@ 2
engar 2
Abigail 2
Vermont 2
Doc 2
Appalachia 2
Olivia 2
vào-@@ 2
ỏ@@ 2
Amish 2
Cardini 2
Laufenberg 2
Rusesabagina 2
Gartner 2
Ape@@ 2
phí-- 2
út-xen 2
Slim 2
Dig@@ 2
Scilla 2
tish 2
els 2
Shar@@ 2
Ghandi 2
Push 2
thẫm 2
Langerhans 2
oải 2
Chambers 2
Hall-Tipping 2
B15 2
Apocalypse 2
Plat@@ 2
Roach 2
Ultrasound 2
Theresa 2
toé 2
Armillaria 2
Fortingall 2
Creosote 2
Mojave 2
ai. 2
Pentagon 2
tw@@ 2
nhông 2
ston 2
chể 2
Meindertsma 2
05049 2
Leuna 2
757 2
Hermann 2
Fighter 2
Sarah-Jayne 2
Blakemore 2
tíc 2
Tale 2
Rothemund 2
Monika 2
Bulaj 2
ani@@ 2
cạp 2
COO 2
Tuệ 2
Roizen 2
Raghava 2
KK 2
Babri 2
Masjid 2
ur 2
Rags 2
Altiplano 2
sao-- 2
Chu@@ 2
Beam 2
Ellsworth 2
Wheram 2
Deton 2
Cadillac 2
eville 2
TED2007 2
Kemp-Robertson 2
mình- 2
Fu@@ 2
Vodafone 2
aspirin 2
Beiser 2
Morrison 2
chiều-- 2
Strat@@ 2
liệu-- 2
Yuyu 2
Arriba 2
Ándale 2
MI 2
Xứ 2
Leberecht 2
kiểm-@@ 2
chuyể@@ 2
Patag@@ 2
onia 2
Nextpedition 2
Frog 2
onzo 2
Novogratz 2
FARC 2
Pol 2
Pot 2
ũi 2
Sud@@ 2
Jawad 2
Coles 2
Bridges 2
Paralympic 2
ử@@ 2
lăn-- 2
ème 2
Rocky 2
ESPYs 2
ba-inch 2
Puli@@ 2
sạp 2
băm 2
Lieberman 2
Yandex 2
chẵng 2
meet 2
Kuppam 2
Gingerbread 2
phá-- 2
xơlen 2
Hung@@ 2
Kees 2
Moeliker 2
Vịt 2
NFB 2
quanh@@ 2
DriveGrip 2
SpeedStrip 2
Daytona 2
Quyen 2
Mass 2
Blow 2
Bow@@ 2
chôm 2
Veronica 2
Jong 2
Revolution 2
Fredrick 2
nhy@@ 2
gang 2
Veblen 2
Pernod 2
Benscoter 2
Jonestown 2
Ramona 2
TEDxDU 2
Asher 2
Shalom 2
Sat 2
Jee@@ 2
Magyar 2
tạp-- 2
xyanua 2
tain 2
Mountain 2
Op@@ 2
Blue@@ 2
munkank 2
keves 2
doodle 2
ầm. 2
Mayflower 2
Mauritius 2
Jarreth 2
ôkê 2
gải 2
Bafana 2
FO@@ 2
FEMA 2
kinesin 2
Schwartzberg 2
tine 2
Elk 2
McGregor 2
Cobley 2
Sala@@ 2
Toasted 2
bệt 2
thết 2
kông 2
Chappatte 2
ức. 2
Abidjan 2
Telegraph 2
Toto 2
Grimm 2
ch. 2
Acaroglu 2
-bon 2
phẩ@@ 2
chứ-- 2
Frac@@ 2
đa@@ 2
1.33 2
Field 2
Baroque 2
Junger 2
Korengal 2
nhỏm 2
ểm 2
Prince 2
L1 2
Housman 2
lý-- 2
enet 2
Canning 2
Bretton 2
Gaulle 2
Tod 2
Machover 2
Ell@@ 2
Nash 2
Mind 2
eet 2
Pep@@ 2
Vanilla 2
Let 2
Bowie 2
cóp 2
blue 2
Miley 2
Nolan 2
864 2
nhâ@@ 2
Cornwall 2
Chimamanda 2
Adichie 2
Chinua 2
Achebe 2
nkali 2
beck 2
Okol@@ 2
élies 2
Xảo 2
Metropolis 2
Brencher 2
Imogen 2
Heap 2
Hadyn 2
Parry 2
ỏi. 2
Aedes 2
Madeira 2
DE@@ 2
sẽ@@ 2
Miesenboeck 2
Đẻ 2
dấm 2
CCTV 2
ửi 2
Magnus 2
Mauritania 2
Djibouti 2
chắn. 2
UCL 2
Harmon 2
Helena 2
1872 2
1921 2
cky 2
kiệm. 2
mât 2
Blackmore 2
lụât 2
quẫn 2
bẽo 2
người-thay-đổi-hệ-thống 2
graviton 2
một. 2
Esquire 2
ơ-đốc 2
xăng-đan 2
ắng. 2
oẹ 2
Hammond 2
packing 2
Misha 2
Glenny 2
Mafia 2
Autonomy 2
Sequel 2
hemoglobin 2
nm 2
Viravaidya 2
&apos;Arche 2
Luskin 2
Fran@@ 2
thài 2
đủ. 2
là-@@ 2
ckey 2
Sight 2
Nine 2
Inch 2
Nails 2
Gun 2
serif 2
Jaime 2
Lerner 2
Ac@@ 2
Tajikistan 2
I.M.@@ 2
cứu-người 2
nhiêm 2
guan 2
cla-ri-nét 2
lowler 2
trồng-- 2
học--@@ 2
7,100 2
mẫu-- 2
Continuum 2
23andMe 2
xá@@ 2
Manen 2
Calm 2
tel 2
Koska 2
quẹt 2
mồn 2
nào-- 2
kếp 2
miện 2
McCartney 2
Pablo 2
eny 2
Wooden 2
end 2
Walton 2
Thua 2
ngái 2
Stikine 2
gâ@@ 2
niu 2
Tahitan 2
Puddicombe 2
Donaldson 2
Area 2
sari 2
Prin@@ 2
ima 2
Marisa 2
Fick-Jordan 2
Durban 2
Pacific 2
K-E-U 2
Âu-Ấn 2
P-A-E-N 2
hưũ 2
Roselinde 2
riết 2
magma 2
shhh 2
Mead 2
Hobsbawm 2
Gusty 2
Xưởng 2
bặt 2
dọng 2
sờn 2
quăn 2
âm-@@ 2
Rolls-Royce 2
lụng 2
bôn 2
Paes 2
ire 2
BRT 2
Trading 2
Stop 2
Knife 2
ffle 2
Frank@@ 2
Carrier 2
JP 2
Rangaswami 2
Trollback 2
đất- 2
Tua 2
nge 2
Lindsey 2
ơí 2
Seaver 2
Flipper 2
oz 2
Juanito 2
babushkas 2
Jakubowski 2
Eco@@ 2
SA 2
Bjork 2
Kidman 2
Have 2
Thặng 2
vỉn 2
Whitesville 2
vẻn 2
nhặn 2
V.@@ 2
ATLAS 2
cỡ@@ 2
xentimet 2
te@@ 2
Ws 2
13.7 2
Saturn 2
Harouni 2
Technologies 2
barbecue 2
woman 2
HBO 2
ks 2
Lindsay 2
Stevie 2
Nicks 2
Reid 2
ACTA 2
MacDonald 2
Modini 2
ACR 2
sha 2
Hello 2
Yao 2
Nathalia 2
Crane 2
Sheepshead 2
Alma-Tadema 2
1888 2
Đem 2
U.S. 2
Burtynsky 2
xúm 2
Markram 2
380 2
Anton@@ 2
axon 2
chằm-@@ 2
Lean 2
fuke 2
fuchu 2
fuju 2
Hod 2
Lipson 2
Fernandina 2
chụt 2
Far 2
Rockaway 2
hè-- 2
Jackley 2
Profounder 2
xuống. 2
Kyrgy@@ 2
Uzbeks 2
fur 2
Serb 2
Meslin 2
Tali 2
Sharot 2
đìều 2
Janette 2
Sadik-Khan 2
Bikes 2
phuy 2
280 2
Bowden 2
Capp@@ 2
adoccia 2
ogami 2
Bahia 2
Shehab 2
Hemmert 2
TEDxBerlin 2
ngưu 2
How 2
his 2
talk 2
footage 2
some 2
tiề@@ 2
CE@@ 2
PS 2
phim-điêu-@@ 2
Chordata 2
Just 2
ương-@@ 2
Josette 2
Sheeran 2
Marissa 2
Vả 2
Healey 2
Connolly 2
Hidalgo 2
Yutaka 2
Fermat 2
J. 2
Name 2
Green@@ 2
prom 2
Rusty 2
Sunshine 2
Shilale 2
Bagh@@ 2
Choice 2
Dietz 2
Jensen 2
Kelli 2
Swazey 2
Sulawesi 2
tongkonan 2
Puya 2
RFID 2
cambridge 2
WhipCar 2
cra@@ 2
paris 2
1298 2
Mok@@ 2
1-800-@@ 2
ối-@@ 2
www.chong@@ 2
Iwan 2
Baan 2
phảng 2
Cob@@ 2
Zahab 2
Inlet 2
calory 2
Lavelle 2
Adora 2
Svitak 2
ti. 2
1820 2
gổ 2
gen@@ 2
renalin 2
hydrogen 2
quết 2
úa. 2
Tulles 2
gauge 2
mận 2
Escher 2
Carr-Chellman 2
Title 2
bạnh 2
HK 2
Future 2
hyt 2
Buffalo 2
Merkley 2
HTML 2
Ragav 2
patin 2
Ushhidi 2
iHub 2
thú@@ 2
module 2
có-thì-tốt 2
môđun 2
Conley 2
Joie 2
Vivre 2
joie 2
vivre 2
Abe 2
Trà 2
use 2
Adolfo 2
Salvador 2
Nic@@ 2
Dimitar 2
Sasselov 2
cavat 2
Hirshberg 2
Forrester 2
Admiral 2
Century 2
Core 2
Sarnoff 2
quiz 2
Machine 2
Ally 2
mặt. 2
YemenTimes.com 2
puchu 2
ShaketheDust@@ 2
Sanjay 2
Warinner 2
Chocolate 2
tậ@@ 2
Schwa@@ 2
Schwaitzberg 2
Okrainec 2
Đô-la 2
Koro 2
Kroll 2
arap 2
Bushmaster 2
bani 2
ul@@ 2
Bird 2
oxyhemoglobin 2
Spittin 2
Monte 2
Afra 2
Ballah 2
Piarco 2
tin. 2
Alaveteli@@ 2
Annette 2
Heuser 2
Moody 2
Fitch 2
cảm. 2
đa-@@ 2
M. 2
Philly 2
sons 2
Madd 2
Chadd 2
Smooth 2
krump 2
abo 2
gradien 2
Denisova 2
Melanesia 2
Shlomo 2
Benartzi 2
ngĩ 2
Paola 2
Antonelli 2
Wattenberg 2
thức-- 2
Alexey 2
MetroCard 2
Sims 2
line. 2
Reykjavík 2
trứơc 2
thống. 2
Berkenstock 2
Loc@@ 2
duy@@ 2
wo@@ 2
Mack@@ 2
xelulo 2
kí@@ 2
Fanton 2
ữu 2
FISA 2
uyền 2
heterocyclic 2
PhIP 2
Cisplatin 2
ju@@ 2
xteoit 2
X-cốt-len 2
Dor@@ 2
ini 2
phẫm 2
Maisonnier 2
tớ@@ 2
Chemical 2
Things 2
Kakenya 2
lịm 2
muồn 2
Ravin 2
Agrawal 2
Ganesh 2
amar 2
chitra 2
kathas 2
Ji@@ 2
Bom@@ 2
Kol@@ 2
Raqs 2
Subodh 2
Dyan 2
deNapoli 2
Silvia 2
Gaus 2
Sea 2
Zak 2
oxy@@ 2
Yum 2
Videp 2
Sung 2
bery 2
Barrow 2
chuy@@ 2
&apos;Toole 2
Ow 2
`@@ 2
Strudwick 2
Letters 2
tự-mình-làm 2
Marcel@@ 2
giởi 2
mara 2
Sebastião 2
Institu@@ 2
anh-@@ 2
{ 2
rạ 2
swing 2
ột-hai-ba 2
DW 2
Grou 2
ặ@@ 2
Erica 2
Frenkel 2
auy 2
chúi 2
Veasey 2
1,250 2
Miro 2
Laut 2
Kunstprüfer 2
Albrecht 2
wird 2
Àh 2
Rene 2
Ác 2
zz@@ 2
zz 2
Reisel 2
Trita 2
Parsi 2
Ben-@@ 2
Indyk 2
Garret 2
N95 2
statin 2
Lipitor 2
memex 2
Andreessen 2
another 2
Brosnan 2
Piccard 2
tra-- 2
MR@@ 2
nưã 2
đất-- 2
McKeith 2
này.@@ 2
Anti 2
SICK 2
Tusinia 2
Sina 2
oxalic 2
eber 2
Hersman 2
tinh. 2
Pursat 2
Nuremberg 2
morphine 2
gum 2
tươm 2
Losee 2
trẻo 2
Aurumque 2
yers 2
Awtin 2
1819 2
species 2
Eyre 2
fears 2
Petsko 2
sữa. 2
bury 2
đững 2
Huey 2
1851 2
1868 2
Horn 2
1877 2
1887 2
Hotchkiss 2
Tabick 2
Leviticus 2
ấu-- 2
Humanity 2
Cousins 2
PR2 2
Healthcare 2
Willow 2
Garage 2
Alexa 2
vẫ 2
TEDxAmsterdam 2
Nijmegen 2
Muteferrika 2
Ot@@ 2
taman 2
Connery 2
Cour@@ 2
Fresco 2
lum 2
Legend 2
Colors 2
Herold 2
mèm 2
Canales 2
Knights 2
Cartel 2
Zeta 2
piroxicam 2
đểm 2
Iain 2
nes-Lee 2
mash-up 2
Krens 2
Kyu 2
Alvaro 2
Norton 2
Malaga 2
Morina 2
ngườii 2
cher 2
live 2
life 2
they 2
cannot 2
Nov@@ 2
Synthetic 2
Genomics 2
Poynter 2
Eritrea 2
Plait 2
Peak 2
Meeker 2
megaton 2
rrr 2
B612 2
Enterprise 2
Granderson 2
Broderick 2
Torch 2
YoungmeNowme 2
Walk 2
hộ@@ 2
Angrigami 2
ngoạm 2
Sonaar 2
Luthra 2
Verghese 2
Sherlock 2
Inverleith 2
Fife 2
Corvisart 2
Laennec 2
iPatient 2
Lafitte 2
Rodenstock 2
Bordeaux 2
Bipin 2
Desai 2
tế-- 2
Gateshead 2
SOLEs 2
Kovacs 2
xấu-- 2
nhiệp 2
Britta 2
D-I-Y 2
Norvig 2
một-kèm-một 2
Darby 2
h-@@ 2
Ji-Hae 2
RASA 2
Nora 2
Noreena 2
ngèo 2
DN 2
trg 2
CN@@ 2
zynski 2
Cho@@ 2
Reinhart 2
Gottfried 2
stones 2
CAT 2
Schumann 2
Bustin 2
Huckleberry 2
232 2
Aguera 2
Arcas 2
Place 2
PG 2
Brandi 2
Carlile 2
Drake 2
Passage 2
try 2
Tania 2
Luna 2
nẫng 2
Scarlett 2
Schuler 2
DNA@@ 2
Downey 2
Yvonne 2
PalmPilot 2
Tilonia 2
erre 2
iển. 2
Cler@@ 2
Yue 2
Bresler 2
ales 2
Corps 2
manioc 2
ngói 2
Hung 2
Passacaglia 2
viola 2
Berrow 2
ga-lông 2
Waterford 2
Keem 2
Liabhan 2
Tory 2
Donegal 2
Les 2
Ngram 2
Aiden 2
Orwant 2
four-gram 2
Viewer 2
arghs 2
Uce 2
137 2
Lynne 2
Vernacchio 2
Auret 2
Reinhold 2
Kras@@ 2
Orde-Lees 2
Whitson 2
ESP 2
Brugger 2
Softy 2
Muthomi 2
Brahui 2
Vermeulen 2
HI-SEAS 2
Seeker 2
MA 2
Shinozuka 2
Dettmer 2
Rapha@@ 2
Tariq 2
Change.org 2
Bergbreiter 2
môtơ 2
pixel 2
Navi 2
C.T. 2
debit 2
Fredy 2
Peccerelli 2
533 2
Asha 2
green 2
editor 2
Crump 2
Listening 2
NRK2 2
Kimmel 2
Anastasia 2
Taylor-Lind 2
Yanukovych 2
Sokoloff 2
331 2
Rosie 2
rúc 2
Landolina 2
Bon 2
Iver 2
once 2
bridos 2
Imazon 2
Ramanan 2
Laxminarayan 2
Florey 2
carbapenem 2
beo 2
artemisinin 2
Jeroen 2
Dre 2
Urhahn 2
zerio 2
Elias 2
Marta 2
3S 2
ợi 2
Iquique 2
Kare 2
Wally 2
Lanting 2
Bl@@ 2
Barss 2
Bodnar 2
Fabien 2
Cou@@ 2
PAM 2
Melissa 2
Ashraf 2
myloid-beta 2
Dilip 2
Ratha 2
Mancini 2
Frideric 2
Colantuono 2
Eman 2
Hull 2
G.E. 2
Venn 2
Sognefjord 2
Bakhtiozina 2
Barasch 2
Shubhendu 2
Sharma 2
Shargaa 2
awe 2
Giza 2
D-Day 2
Woodstock 2
Kardashian 2
Goslinga 2
Ziyah 2
fić 2
Jeannie 2
êu-@@ 2
Pacholke 2
Xquang 2
Megan 2
t-t-t 2
Meg 2
Iwasa 2
Chieh 2
Kwong 2
Tangram 2
ĐỌC 2
-N 2
rộp 2
không-ngoại 2
Hazlitt 2
insky 2
weeeaawww 2
ẠC 2
Smule 2
Oreskes 2
gle 2
Cadell 2
Wellington 2
Feyerabend 2
Musk 2
1234@@ 2
470 2
Basic@@ 2
AA@@ 2
horse 2
battery 2
staple 2
Ế@@ 2
Curzan 2
hangry 2
adorkable 2
kệch 2
multi-slacking 2
invite 2
impact 2
peruse 2
Books 2
AJ 2
ụ-cụ-cụ-cụ-c@@ 2
Alon 2
Keren 2
Elazari 2
kiềng 2
Kitra 2
Cahana 2
rếu 2
Thida 2
niết 2
Next 2
Jump 2
Crochet 2
Groening 2
Hallmark 2
Ronnie 2
Measure 2
Brontë 2
Tristram 2
Butenandt 2
exabytes 2
Abracadabra 2
Bastawrous 2
Peek 2
Epstein 2
Vách 2
Vitruvian 2
Kafka 2
Kasdin 2
shape 2
occulter 2
Muppets 2
ôcrat 2
Peggy 2
Newtown 2
Burden 2
Niemöller 2
Concord 2
riam 2
Golbeck 2
Share 2
Zanzibar 2
inda 2
99.999 2
Yong 2
Artemia 2
Bran 2
Pantheons 2
lù 2
Carin 2
Bondar 2
hectocotylus 2
mơn 2
Anne-Marie 2
Narayanan 2
Pavna 2
Lin 2
Bunnell 2
RP 2
McKnett 2
Pentair 2
Hesta 2
CalPERS 2
ETH 2
Caltrans 2
ER-1 2
tách-hợp 2
Anant 2
MOOC 2
Aakash 2
Luxo 2
Wheaties 2
Talhouk 2
Gibran 2
toqborni 2
Fairuz 2
Taj 2
Mahal 2
BV 2
Dambisa 2
Moyo 2
Dawesar 2
Curie 2
acetate 2
nghìm 2
Healthabitat 2
tick 2
ño 1
zeta-illion 1
UPHORE 1
BA@@ 1
44@@ 1
Vittorio 1
tier 1
efenstahl 1
Tennyson 1
Lov@@ 1
Kí@@ 1
Harri@@ 1
Pier@@ 1
onora 1
nhoff 1
dolph 1
oc 1
judokas 1
hah 1
Westerman 1
trou 1
öbius 1
õ@@ 1
Wooo 1
Orch@@ 1
atra 1
lad 1
savannahs 1
tananger 1
Iran-Loves-Israel 1
ne-@@ 1
likes 1
ready 1
galita 1
terephthalate 1
polypropylene 1
ure 1
ysan 1
rillo 1
Schwarz@@ 1
enegger 1
Kail@@ 1
Night@@ 1
Grosso 1
hec@@ 1
Ur 1
thage 1
Thames 1
Bread 1
illingsgate 1
Western 1
benezer 1
sitos 1
topos 1
zero-sum 1
permaculture 1
werdine 1
atone 1
osaki 1
Packard 1
ACE 1
allodynia 1
chỉnh-@@ 1
Kos@@ 1
Secret 1
lapalooza 1
Foun@@ 1
dYourCamera 1
Tammie 1
ẩng 1
li-@@ 1
anti@@ 1
Shanti 1
Tenzing 1
imbatore 1
IMs 1
puja 1
mà@@ 1
100-@@ 1
ae 1
TI 1
Bryan 1
rence 1
yock 1
vafy 1
Cleopatra 1
onies 1
aly 1
mojitos 1
Vive 1
Make 1
Energy 1
veston 1
Swiss 1
Taste 1
gre@@ 1
Themes 1
thuselah 1
Mouse 1
telomerase 1
tap 1
Daddy 1
mbu 1
Glacier 1
pas 1
LAX 1
henge 1
iPhone@@ 1
iPhone. 1
Buch@@ 1
wart 1
Buchwald 1
Breakdown 1
shkin 1
Ing@@ 1
awale 1
Roosev@@ 1
xembourg 1
CFO 1
joli 1
alik 1
ễnh 1
Water 1
Ful@@ 1
lerton 1
sander 1
April 1
aya 1
koping 1
one@@ 1
Mercury 1
Aqua 1
anges 1
Valentine 1
fford 1
Creek 1
Scru@@ 1
Timelapse 1
wangju 1
ennale 1
ABS 1
Vasco 1
Vint 1
ert 1
ARPA 1
PT 1
inse 1
norr 1
eah 1
Parks 1
ambi@@ 1
vert 1
eisel 1
Wozni@@ 1
lett-Packard 1
Budd@@ 1
Muham@@ 1
mad@@ 1
xun@@ 1
undera 1
imonides 1
Yoda 1
use@@ 1
khuỷ@@ 1
Swar@@ 1
ovski 1
ph 1
ndt 1
cama 1
zorse 1
Chin@@ 1
ook 1
Prome@@ 1
aflinger 1
thrombin 1
Genetics 1
track@@ 1
Agency 1
Down@@ 1
Mus@@ 1
sa-Ivaldi 1
chshund 1
ballbot 1
TH-Zurich 1
bots 1
Hr@@ 1
uska 1
omen 1
diology 1
desktop 1
bha 1
pipe 1
Turek 1
Canadian 1
nhill 1
kg. 1
surimi 1
Canary 1
eeters 1
Wageningen 1
boom-and-bust 1
PC@@ 1
boom-and-@@ 1
burst 1
Serious 1
Materials 1
Asahi 1
Domingo 1
agawa 1
yagi 1
vanilla 1
Provi@@ 1
dence 1
aconess 1
allor 1
This 1
MacGregor 1
kkadian 1
Belsha@@ 1
aaleh 1
arius 1
hlavi 1
dakani 1
Caledonian 1
endai 1
Skinnerian 1
Fis@@ 1
cher-@@ 1
ring 1
nachos 1
Zaffron 1
DMV 1
kit 1
helicodiceros 1
Aru@@ 1
maculatum 1
helianthemum 1
orslett 1
TEDxKrakow 1
talkshow 1
eh 1
Rat@@ 1
ladic 1
t-shirt 1
Walesa 1
bodan 1
kashenko 1
Krakow 1
Coptic 1
Said 1
Tuni@@ 1
Westminster 1
Whitehall 1
Wilberforce 1
strada 1
coup 1
mosthenes 1
palinopsia 1
fu@@ 1
sig@@ 1
Mozambi@@ 1
Lakes 1
tering 1
alin 1
micro-@@ 1
Twi@@ 1
ier 1
e-books 1
p.m. 1
P-A-@@ 1
S-O-@@ 1
eppasod 1
alTimeWWII 1
Teju 1
Band 1
Vie 1
Pia@@ 1
hackers 1
Hacking 1
esty 1
mash@@ 1
cancer 1
Cancer 1
dhini 1
shakti 1
saki 1
Salim 1
awzi 1
Law 1
tima 1
Arena 1
occhio 1
16-@@ 1
Fan@@ 1
freedom 1
fire 1
reason 1
higher 1
champions 1
define 1
make 1
feel 1
proud 1
streets 1
heads 1
lifted 1
As 1
lose 1
inhibition 1
Celebration 1
Every 1
nation 1
&apos;d 1
Wavin 1
Flag 1
harkhand 1
Allo@@ 1
rödinger 1
Baumgar@@ 1
tner 1
Wilfred 1
Thesiger 1
ời. 1
hiaddin 1
Thornton 1
beta-carotene 1
Whoppers 1
kittles 1
Feds 1
Chee@@ 1
Whi@@ 1
isbury 1
spinach 1
ute 1
nickers 1
Nuggets 1
Hot 1
Poc@@ 1
kets 1
microwave 1
organi@@ 1
vore 1
ster@@ 1
rubber 1
Next@@ 1
droids 1
derunner 1
PG@@ 1
ws-Nielsen 1
eridan 1
McDonough 1
Emer@@ 1
Enri@@ 1
alosa 1
plaza 1
gata 1
Ciao 1
bellos 1
epitope 1
alpha-gal 1
IK@@ 1
Smi@@ 1
Yates 1
Oxygen 1
fkin 1
leece 1
Myth 1
Infrastructure 1
300-@@ 1
ức-- 1
Pack@@ 1
iRobot 1
UGs 1
ethon 1
quaternions 1
eri@@ 1
Kno@@ 1
Som@@ 1
mese 1
apidograph 1
Cri@@ 1
MCA 1
ii@@ 1
daris 1
Augusten 1
Dry 1
stu@@ 1
Tezuka 1
eBooks 1
plug-in 1
omame 1
Zacarias 1
Moussa@@ 1
Tree@@ 1
tinger 1
glin 1
Gala@@ 1
Vihar 1
nake 1
yes 1
Youngblood 1
isseroth 1
channelr@@ 1
dos@@ 1
orella 1
halorhodopsins 1
archaerhodopsins 1
kinson 1
channelrhodopsins 1
sager 1
Neuroscience 1
Parag@@ 1
liding 1
skysurfing 1
surfing 1
Face 1
Jung@@ 1
frau 1
resden 1
Auck@@ 1
couchsurfing 1
tortilla 1
cabaret 1
tallica 1
dow@@ 1
Theft 1
Orchestra 1
starter 1
Cyber@@ 1
trans 1
bleArrow 1
writer 1
iCloud 1
drive 1
oon 1
ghostbusters 1
Upright 1
Citizens 1
gade 1
polo 1
3rd 1
ghostbuster 1
mộ@@ 1
tax 1
lande 1
dwood 1
Morning 1
If 1
Had 1
iếp 1
Woo-hoo 1
cinich 1
tify 1
U.S 1
vstar 1
arma 1
Pfizer 1
V.C. 1
phew 1
SBI@@ 1
Yenching 1
Palace 1
Walgreen 1
Wok 1
miso 1
kyo-do 1
tter 1
ominqimiao 1
tsap 1
sui 1
ompers 1
Â 1
Chinatown 1
Aless@@ 1
pizz@@ 1
Peru@@ 1
fajitas 1
risotto 1
Rest@@ 1
less 1
gô 1
jun 1
Schul@@ 1
roc 1
Lexicography 1
compile 1
granite 1
D-I-@@ 1
S-@@ 1
higgledy-piggledy 1
Aww 1
un-dictionaried 1
ingBoing 1
eBird 1
HO 1
synecdochically 1
bô-@@ 1
SI@@ 1
Tak 1
Yamaha 1
Syn@@ 1
chronicity 1
genz 1
light 1
cadia 1
Yoko 1
hunsho 1
mandala 1
Turrell 1
Jour@@ 1
leecker 1
Arch@@ 1
tenberg 1
trackyourhappiness.org 1
ựu 1
Hatz@@ 1
lah 1
ambucycles 1
EMT 1
falafel 1
chutzpah 1
pajamas 1
Now@@ 1
207,000 1
Fallu@@ 1
alle@@ 1
jeh 1
Jar@@ 1
10s 1
Even@@ 1
eron 1
ilane 1
otaku 1
ramen 1
yoyo 1
keynote 1
hotornot.com 1
zzie 1
borne 1
SA@@ 1
yanair 1
asyjet 1
Tesco 1
deners 1
Association 1
str@@ 1
went 1
Forest 1
Sus@@ 1
mmm 1
Lion 1
ashpee 1
orail 1
sville 1
kewood 1
Fl@@ 1
int 1
agwanath 1
virapine 1
chuyệ@@ 1
230,000 1
MB 1
2,0@@ 1
arena 1
Bet@@ 1
Sw@@ 1
Witherspoon 1
eHarmony 1
Mae@@ 1
VRAM 1
CD-@@ 1
row 1
aww 1
Tap 1
Write 1
alloon 1
ota 1
segawa 1
hh 1
Power@@ 1
minoso 1
Migu@@ 1
Gortari 1
je 1
Juli@@ 1
anes 1
festivals 1
tequila 1
mariachis 1
posadas 1
venal 1
Say 1
Glen@@ 1
ie 1
Goes 1
Again 1
àn. 1
Depot 1
ight 1
Curi@@ 1
osities 1
Waltz 1
Midwestern 1
Venera 1
Tyndall 1
50s 1
Celsius 1
phie 1
Pes@@ 1
400-@@ 1
estley 1
quis 1
Jacqu@@ 1
act 1
kisui 1
visit 1
HS@@ 1
kow 1
emSensing 1
gre 1
WTO 1
àu 1
Hershey 1
bikini 1
tori@@ 1
ulate 1
Lak@@ 1
Woshurettos 1
icky 1
sake 1
Archit@@ 1
ectural 1
tello 1
ladio 1
AT 1
Rau@@ 1
schenberg 1
Tigerman 1
blas 1
hio 1
derson 1
Stonehenge 1
dessari 1
heim 1
alais 1
Sports 1
tons 1
Rh@@ 1
Grim@@ 1
shaw 1
Pavilion 1
MOCA 1
prin 1
kidmore 1
wings 1
Merri@@ 1
anni@@ 1
Clin@@ 1
zarks 1
ansing 1
mburg 1
lioz 1
Wizard 1
enkavalier 1
duvai 1
igh@@ 1
0,00@@ 1
ử. 1
Lesters 1
gojevich 1
banes 1
xen-@@ 1
mi-@@ 1
rô-@@ 1
nhỏ@@ 1
oli@@ 1
haina 1
epi@@ 1
Sur 1
Army 1
eakala 1
knot 1
Road 1
Tibor 1
Woodham 1
toia 1
xistan 1
are@@ 1
tushis 1
Taxistan 1
ashtoonks 1
oxia 1
ashi@@ 1
mina 1
lin@@ 1
tune@@ 1
heimer 1
Zheimers 1
Sit@@ 1
hly 1
slinky 1
sheviks 1
Slu@@ 1
sle 1
geoise 1
Sweet 1
habe 1
genug 1
Gabe 1
dik 1
Ồ@@ 1
cia-Colombo 1
zick 1
Philosophical 1
planations 1
Consciousness 1
plained 1
olina 1
Necker 1
annys 1
bbn.com 1
symbolics.com. 1
think.com 1
VPNs 1
denial-of-@@ 1
servi@@ 1
wireless 1
blouse 1
Teisberg 1
tini-Klinik 1
radi@@ 1
Gene@@ 1
kilometers 1
rise 1
ometrics 1
Chand@@ 1
rasekhar 1
ylons 1
dios 1
ow 1
ịt 1
Roslings 1
iChat 1
childhood.com 1
Grand@@ 1
ma.com 1
hotdiggitydog.com. 1
Christmas 1
pop@@ 1
ooh-eee 1
ông-@@ 1
Scr@@ 1
anton 1
bbertown 1
milligram 1
expo 1
rue 1
quet 1
trich 1
itt 1
anistan 1
kombucha 1
ombucha 1
acetic 1
Xen@@ 1
loza 1
vet 1
Eyes 1
Solar 1
zons 1
TI@@ 1
oy@@ 1
ager 1
Capricorn 1
ẽ@@ 1
epri 1
Tutankhamun 1
Astrochimp 1
.22 1
Omenetto 1
Omen@@ 1
too 1
xe@@ 1
Yoni 1
dhoff 1
reactionware 1
Egypt 1
midt 1
Waiting 1
homon 1
Rus@@ 1
Lindber@@ 1
adylak 1
-tốt 1
Teruo 1
Ok@@ 1
acey 1
lach 1
hoá@@ 1
jebra 1
al-jebr 1
jebr 1
SH@@ 1
al-shalan 1
50,000-@@ 1
nando 1
dget 1
alua 1
eston 1
menthal 1
ourier 1
thbusters 1
alm 1
Pan 1
dadaratatatah 1
dada 1
dadadadah 1
chiakovsky 1
440 1
kulos 1
atus 1
nobis 1
DaVinci 1
bitter 1
blow 1
wicked 1
cruel 1
fate 1
baleful 1
stars 1
avaricious 1
heaven 1
uso 1
seri@@ 1
Keeping 1
Score 1
gar@@ 1
Bis@@ 1
phenol 1
fo@@ 1
Images 1
Stir@@ 1
Eu@@ 1
lington 1
foot@@ 1
oran 1
Farina 1
cell 1
Venable 1
cun@@ 1
evolution 1
quarterly 1
€ 1
SE 1
resight 1
sadegh 1
hrnush 1
sipur 1
read 1
TEDley 1
Js 1
Desperate 1
Hou@@ 1
wis@@ 1
hey 1
Discover 1
coff 1
Csiksz@@ 1
mihalyi 1
Csikszentmihalyi 1
uardi 1
bbie 1
Rey@@ 1
nolds 1
Laur@@ 1
vamme 1
Hit@@ 1
microchip 1
salms 1
dstone 1
racle 1
plutonium 1
able 1
Ec@@ 1
clesiastes 1
cellor 1
denauer 1
FL 1
Rid@@ 1
geway 1
nsey 1
ken 1
Jas@@ 1
ngebob 1
ackenberg 1
Gro@@ 1
veland 1
aria 1
ppen 1
küssen 1
heiss 1
Giu@@ 1
ditta 1
hár 1
genor 1
cazar 1
wege 1
vita 1
utterfly 1
areyio 1
0400 1
Ulam 1
dson 1
qubit 1
NIAC 1
Zworykin 1
genstern 1
tran@@ 1
V-40 1
raph 1
g-Beam 1
Turn 1
On 1
MP 1
2,600 1
V. 1
Barricel@@ 1
Window 1
entry 1
Tho@@ 1
projector 1
ffo 1
Ầ 1
aguar 1
nefeldt 1
ress 1
Economic 1
Development 1
rained 1
yesterday 1
raining 1
going 1
Morg@@ 1
regnet 1
mish 1
ên. 1
Zagat 1
KIP@@ 1
Gon@@ 1
devils 1
basa 1
ester 1
Tas@@ 1
Nanny 1
bican 1
mì@@ 1
pod 1
2,400 1
livian 1
merich 1
TE 1
ặn 1
Mak@@ 1
hydro@@ 1
foil 1
greaves 1
Loy@@ 1
kilowatts 1
essna 1
killowatts 1
ruce 1
steur 1
mala@@ 1
yas 1
eudaimonia 1
tags 1
C.N. 1
theta 1
lifeedited.org 1
topo 1
voto.com. 1
lo-@@ 1
ashtra 1
Himalayan 1
Vitruvi@@ 1
anos 1
Musician 1
Verrocchio 1
musician 1
Samaritan 1
Worlds 1
ckermann 1
UR 1
UPenn 1
Fire@@ 1
wire 1
Austria 1
Vuitton 1
anoke 1
bison 1
neo@@ 1
3,4 1
boot 1
sector 1
bottabad 1
zam 1
lama 1
qbal 1
Centi@@ 1
pede 1
centipede 1
.exe 1
angstaBucks.com. 1
jan 1
keyloggers 1
loggers 1
Shai@@ 1
leshkumar 1
back-end 1
ified 1
XOR 1
unionseek.com 1
ioo.exe 1
rus 1
Russia 1
cedes-Benz 1
V12 1
78RUS 1
champ 1
alatrava 1
focal 1
glow 1
ambient 1
luminescence 1
bri@@ 1
ants 1
gwig 1
Sea@@ 1
hal@@ 1
phos@@ 1
adao 1
spa 1
Vals 1
Zumthor 1
mack 1
Cast@@ 1
esquicentennial 1
Stal@@ 1
onosov 1
zo 1
c-môn 1
peranto 1
agne 1
Illin@@ 1
ise 1
600@@ 1
ripping 1
Instru@@ 1
ments 1
WB 1
lett 1
mathML 1
PL 1
Crea@@ 1
tivecommons.org. 1
re-sampling 1
burning 1
Grac@@ 1
eland 1
Solitude 1
cave 1
ullough 1
niss 1
Travis 1
Boom 1
chytrid 1
ch.@@ 1
sleigh 1
Madagas@@ 1
chihuahua 1
Beau@@ 1
maris 1
õm 1
Tasmani@@ 1
ask 1
Getting 1
Bush@@ 1
Urfa 1
Ale@@ 1
ppo 1
Cincin@@ 1
mat@@ 1
YouPorn 1
drag 1
queen 1
tomboy 1
Lozano 1
oamerica 1
Ton@@ 1
idegger 1
Ey@@ 1
jafjallajokull 1
ristin 1
Vigdis 1
nbogadottir 1
chic@@ 1
ô-lông 1
CB@@ 1
rudhoe 1
benzene 1
mayonnaise 1
stige 1
ũ 1
Beyond 1
leum 1
illbillies 1
WR 1
Amer@@ 1
ica.net. 1
pumalanga 1
etema 1
brahma 1
afer 1
GN@@ 1
thotripsy 1
styrene 1
ce@@ 1
Googles 1
straZeneca 1
Hyder@@ 1
Puranam 1
XCL 1
liner 1
Đo@@ 1
bomb 1
badi 1
goberta 1
resge 1
Bern@@ 1
Shino@@ 1
strong 1
ầng 1
Very 1
C-17 1
Fal@@ 1
fe 1
Matters 1
erunner 1
garth 1
ăn-@@ 1
UNIVAC 1
lure 1
face 1
terabytes 1
FD@@ 1
-Fi 1
tuchus 1
acr@@ 1
jec 1
Glas@@ 1
ăng-teo 1
pogo 1
MU 1
Some@@ 1
thing.org 1
ẵ 1
Hendrix 1
182,000 1
TEDxAthens 1
nico@@ 1
neman 1
bach 1
praxeology 1
xeology 1
Physi@@ 1
ocrats 1
djinni 1
asbourg 1
mascara 1
reddin 1
dja 1
Tabriz 1
Topkapi 1
jinn 1
djinn 1
dre 1
Lor@@ 1
Fly 1
boogie 1
Hun@@ 1
tsville 1
WBA 1
estplatte 1
cía 1
Daisy 1
ited 1
gro 1
Tonight 1
exington 1
ald-Leader 1
Monday 1
ono 1
Ả-@@ 1
Wilk 1
theby 1
bles 1
Mahi@@ 1
eddine 1
Picas@@ 1
sos 1
gers 1
zannes 1
kran 1
utaba 1
ickroll 1
rick@@ 1
mARBLECAKE 1
THE 1
marble 1
cake 1
space 1
thread 1
kadoon 1
inrich 1
coni 1
mdel 1
14.7 1
Cincinnati 1
aurochs 1
Phel@@ 1
Regenesis 1
emmana 1
ández-Arias 1
elia 1
bucardos 1
Advanced 1
Cell 1
Technology 1
880 1
mam@@ 1
anapolis 1
ane 1
kpatrick 1
doleezza 1
onen 1
ellowship 1
Genius 1
auru 1
ỳnh 1
RI@@ 1
LL 1
1,300 1
Champion 1
clavus 1
Easter 1
Laure@@ 1
Urbina 1
Veron 1
UI 1
g-speak 1
GI 1
Urp 1
moto 1
eckel 1
Boo@@ 1
Ob@@ 1
ati 1
Vaseline 1
ợm 1
vas@@ 1
Kurds 1
Lt. 1
Gen. 1
Boy@@ 1
nư@@ 1
Weinberg 1
Found 1
Athle@@ 1
tepath 1
ilypath 1
yhound 1
Robo@@ 1
wall 1
tab 1
Stream 1
Xanax 1
benadryl 1
Ụ 1
Ữ 1
Move 1
Cotton 1
MF@@ 1
Visceral 1
Murder 1
Particip@@ 1
ate.net. 1
NR@@ 1
Theron 1
Bender 1
Rober@@ 1
Democratic 1
Convention 1
Wit@@ 1
Hanlon 1
Bingo 1
Curren@@ 1
Ventosa 1
cipiere 1
TEDActive 1
revor 1
âng 1
techno-trances 1
techno 1
anovic 1
000-@@ 1
ra-ông 1
nghè@@ 1
Asa@@ 1
moah 1
sus 1
ẫng 1
isinart 1
q@@ 1
ề@@ 1
Bé@@ 1
ẽn 1
Come@@ 1
Wuhahaha 1
Tutti 1
Fru@@ 1
tti 1
stus 1
tridge 1
haa 1
haaa 1
unch 1
bara 1
mana 1
golon 1
onette 1
amako 1
purgo 1
Thys 1
dgwick 1
wishdoc57 1
Thevenin 1
titan 1
Count 1
Tamburini 1
folding 1
oss 1
ợc 1
eeping 1
lyle 1
a-Sunni 1
Yahweh 1
tihah 1
ouros 1
rew 1
DRC 1
Kand@@ 1
Gorgens 1
dens 1
Hut@@ 1
CO 1
Kids 1
Injury 1
alas 1
ARVs 1
lead 1
Britain 1
Got 1
Talent 1
hnani 1
Candi@@ 1
Silva 1
kerman 1
đế@@ 1
Front 1
ateway 1
homo 1
pier@@ 1
pont 1
yton 1
TiV@@ 1
Medi@@ 1
diale 1
zara 1
wa@@ 1
wife 1
Spring@@ 1
buzzwords 1
Aval@@ 1
íochán 1
Train 1
Trail 1
Tears 1
Mexican 1
Workers 1
renegade 1
lady 1
Unified 1
Pon@@ 1
Cauca@@ 1
sians 1
Hispanics 1
Donal@@ 1
gulp 1
double 1
Extre@@ 1
ritos 1
pockets 1
grilled 1
cheese 1
pink 1
cupcakes 1
Tyson 1
Ham@@ 1
Enlighten@@ 1
ware 1
Teens 1
Inspire 1
Eating 1
arts 1
Ven@@ 1
rofluid 1
14-@@ 1
Alb@@ 1
any 1
risburg 1
Irishman 1
Wechsler 1
Lus@@ 1
itania 1
-chia 1
Ring 1
gn@@ 1
toi@@ 1
let@@ 1
sợ@@ 1
ga-@@ 1
po 1
can-@@ 1
fil@@ 1
oscope 1
17,000 1
1,700 1
Simul@@ 1
cast 1
ifidie.net 1
90,000 1
i.am 1
hand 1
tup.com 1
zzam 1
Tzvika 1
Tahir 1
feller 1
si-@@ 1
McE@@ 1
SV@@ 1
20,@@ 1
Tail 1
Ballet 1
Exchange 1
estivals 1
nerstone 1
Theater 1
Rho@@ 1
dessa 1
Charitable 1
fuselage 1
empanage 1
nessal 1
Universe 1
VE 1
Farmville 1
orc 1
ecraft 1
Tuolumne 1
dows 1
Naked 1
Route 1
rat 1
Kahn 1
Nee@@ 1
dles 1
evils 1
cou@@ 1
Israel@@ 1
Lizzie 1
positron 1
RT@@ 1
num 1
410,000 1
nickel 1
kly 1
viru@@ 1
songs 1
th- 1
fond 1
Ventner 1
Gandhis 1
Med@@ 1
mohan 1
tầ@@ 1
ghtec 1
mitzvah 1
ksell 1
Charlot@@ 1
tesville 1
PJ 1
A.P. 1
row-in-Furness 1
mbria 1
aturejobs.uk. 1
latte 1
Vipassana 1
anBedi.com 1
Crisis 1
Voilà 1
leg@@ 1
agan 1
Tatler 1
ppes 1
Jeffer@@ 1
fridges 1
Ulrika 1
Jon@@ 1
sson 1
Taschen 1
Nichol@@ 1
đề@@ 1
Dono@@ 1
hue 1
Teller 1
ylalanine 1
Cold 1
ilard 1
mbleGen 1
Aff@@ 1
ymetrix 1
polar 1
multimedia 1
thalidomide 1
Farber 1
bro@@ 1
ình 1
Tensha 1
apacholi 1
gu-ru 1
bird 1
Det@@ 1
Tumar 1
shner 1
Leg@@ 1
double-@@ 1
Vanity 1
lies 1
Rwandan 1
angel 1
eye 1
wl 1
wed 1
Also 1
Dogs 1
Dane 1
tly 1
also 1
Y-I-N-D-I-A-N-A 1
womeus 1
Tahatchabe 1
Nob@@ 1
Tumor 1
Treating 1
Fields 1
Yoram 1
atti 1
Technion 1
Palti 1
U. 1
VES 1
Ệ@@ 1
Ỵ 1
Ĩ 1
BR@@ 1
itling 1
Claude 1
Trichet 1
Tronchetti 1
Provera 1
Telecom 1
eeda 1
hia 1
Violet 1
nada 1
13th 1
probiotic 1
Pico 1
22,000 1
Airlines 1
Sen@@ 1
eca 1
Movable 1
thergate 1
Rs 1
plast 1
YMCA 1
Weblog 1
wr@@ 1
Snow@@ 1
deal.org 1
WELL 1
abowski 1
entina 1
TypePad 1
sley 1
gito 1
agitate 1
wasabi 1
hong 1
meo 1
hobo 1
steak 1
lifton 1
Ohanian 1
Redd@@ 1
side@@ 1
immortal 1
Carlock 1
TEDxCairo 1
eed 1
Swami 1
chidananda 1
kiể@@ 1
bypass 1
à-- 1
amphetamines 1
fen-phen 1
io@@ 1
đầ@@ 1
ane-Kettering 1
Sanskrit 1
ounds 1
Tatas 1
SC 1
zuki 1
rish 1
Wagh 1
Volkswagon 1
Jai@@ 1
put 1
Í 1
courriel 1
toile 1
araignee 1
mondiale 1
ngữ-@@ 1
Kantian 1
clunkers 1
nghiê@@ 1
Demo@@ 1
Dob@@ 1
sonian 1
Falls 1
formaldehydes 1
Woohoo 1
osro 1
abbar 1
IRS 1
Woooo 1
Beep 1
Ps@@ 1
frrmrmm 1
bé@@ 1
low 1
Instant 1
DVDs 1
Winfrey 1
ereProc 1
tech 1
teram 1
Telebubble 1
RE 1
Youngman 1
dioPoet 1
dington 1
anium 1
necock 1
thampton 1
high-five 1
ăt 1
buck 1
rer 1
Equi@@ 1
valents 1
eglitz 1
hiberti 1
Valentina 1
Valicia 1
Jac@@ 1
ynthe 1
mosaic 1
antone 1
Spir@@ 1
Smith@@ 1
maldi 1
Keys 1
gos 1
moa 1
dives 1
bur@@ 1
Roos@@ 1
yCorps 1
wry 1
Thinc 1
Brooklyn-@@ 1
Thorp 1
hemangioblastoma 1
Tali@@ 1
hazni 1
dir 1
Fitz@@ 1
herbert 1
mand 1
horesh 1
Wilder 1
buzaid 1
spen 1
Gui@@ 1
Westerwelle 1
Tudman 1
RS 1
ạy 1
pool 1
Schools 1
rut 1
Yorkshire 1
Tyrannosaur 1
pacrosaurus 1
cannella 1
ex@@ 1
Shadow 1
sazi 1
Wat 1
Tonga 1
Tikopea 1
hair 1
Sheph@@ 1
ước. 1
Gô-li-@@ 1
Wadlow 1
geophony 1
soundtrack 1
horned 1
owl 1
wardens 1
dynamite 1
biophonies 1
ophonies 1
geophonies 1
enveloping 1
oxconn 1
ckhaus 1
Multi@@ 1
Herring 1
Twisted 1
sues 1
Film 1
Threat 1
Under@@ 1
Films 1
Must 1
ayle 1
Zip 1
sdair 1
tyre 1
abs 1
Volvos 1
Veggie 1
oty 1
tude 1
alis 1
isinet 1
Mel@@ 1
tzoff 1
Hofstadter 1
lene 1
ợp 1
Tigers 1
ticus 1
erstein 1
setts 1
Polar@@ 1
tec 1
y--@@ 1
tran 1
navich 1
alafel 1
Eh 1
mozzarella 1
ãnh 1
ẵng 1
martini 1
estler 1
assie 1
Waals 1
earing 1
Cut@@ 1
kosky 1
Autumn 1
Verinsky 1
ibert 1
Uniroo 1
Dyna@@ 1
mics 1
shot@@ 1
Rap@@ 1
aluminum 1
L. 1
ffria 1
Avi@@ 1
Avidians 1
IC@@ 1
sters 1
Wom@@ 1
Balakrishnan 1
ber 1
aci 1
corp 1
angora 1
hooc@@ 1
Penn@@ 1
Indians 1
1600s 1
Austr@@ 1
alopithecus 1
eidi@@ 1
pp@@ 1
dies 1
Trason 1
Nik@@ 1
mball 1
drock 1
Apache 1
agen-Dazs 1
sap 1
al-Awlaki 1
ựt 1
azir 1
tto 1
al-Zawahiri 1
zl 1
inder 1
Yamanaka 1
duced 1
potent 1
Stem 1
USFDA 1
xalite 1
gopal 1
TIFR 1
Telco 1
chin 1
Tendulkar 1
zapalu 1
mesothelin 1
pshhh 1
ïba 1
try@@ 1
Weh@@ 1
tawa 1
ami 1
Cros@@ 1
cy@@ 1
psi 1
showbiz 1
nut 1
post-bureaucratic 1
Accoun@@ 1
tability 1
eKhayelitsha 1
Xhosa 1
e-Khayelitsha 1
Paraorchestra 1
kolaus 1
Mani@@ 1
festa 1
ễu 1
isting@@ 1
isting 1
Berken@@ 1
stocks 1
hita 1
khopadhyay 1
erez 1
Vanessa 1
banked 1
icela 1
Service 1
nel 1
Tal@@ 1
sh@@ 1
nikov 1
Zenola 1
Sadi@@ 1
UAW 1
xtr@@ 1
olux 1
elback 1
Trump 1
world@@ 1
changing.com 1
cir@@ 1
b-note 1
ỳ@@ 1
oons 1
ddington 1
Donough 1
esa 1
Copy@@ 1
left 1
Telecentro 1
kenya 1
screenshot 1
feStraw 1
word@@ 1
changing 1
Round@@ 1
about 1
drich 1
berlander 1
winsky 1
ss-Kahn 1
sumoto 1
Yup 1
thaca 1
boomer 1
fit 1
Hersh@@ 1
Alli@@ 1
anz 1
HR 1
85,000 1
omega 1
Gaia 1
Lovelock 1
wilding 1
elephas 1
antiquus 1
engeti 1
Vimalakirti 1
ais@@ 1
rapali 1
kei 1
gain 1
Leilei 1
Nirvana 1
McFad@@ 1
berian 1
mê-@@ 1
nis 1
Libi 1
Sene@@ 1
galese 1
Diébédo 1
vkins 1
Dre@@ 1
xler 1
tic@@ 1
fast@@ 1
food 1
ted.com 1
Survey 1
Sunday 1
dger 1
ackers 1
indy 1
allop 1
amago 1
Sor@@ 1
Days 1
Results 1
Only 1
Environment 1
Encarta 1
zier 1
Thrilla 1
Land 1
Finan@@ 1
ila 1
Narci@@ 1
avazovic 1
evo 1
ald 1
Tudor 1
gue 1
gamelan 1
huhuhuhuhuhuhahahahaha 1
prô-@@ 1
fasa 1
Trinculo 1
Prosper@@ 1
shoot 1
sypin 1
Ez@@ 1
ralow 1
Rol@@ 1
sar@@ 1
gypsy 1
Arredondo 1
Pepper@@ 1
dine 1
tawaf 1
Armenian 1
hijab 1
Hour@@ 1
Arabic 1
Thought 1
Liberal 1
Age 1
boogyman 1
omba 1
Romotive 1
iOS 1
ckly 1
ups 1
cati 1
ZZ143 1
sar 1
sleeping 1
eating 1
want 1
horsing 1
letta 1
wison 1
aus 1
apa@@ 1
Zackie 1
chmat 1
soaledi 1
dibe 1
ennium 1
headphones 1
Flute 1
tega 1
asset 1
tagu 1
Chernoby@@ 1
Bru@@ 1
Republic 1
sserian 1
tian 1
ulph 1
ennes 1
Amund@@ 1
bard 1
lwitzer 1
planetwalker 1
eyes 1
Inver@@ 1
Sound 1
soula 1
Guard 1
Leibniz 1
gina 1
enigar 1
high-tech 1
prairie 1
Ta-da 1
Amory 1
yus 1
apoor 1
magi@@ 1
hai@@ 1
larney 1
silica 1
oso 1
ventry 1
tleys 1
carbon-nylon 1
composite 1
Not@@ 1
ting 1
Hock@@ 1
snet 1
carbon@@ 1
Giles 1
moges 1
X-light 1
Tuareg 1
fwebe 1
baobab 1
vango 1
Initiative 1
450,000 1
walk 1
BL@@ 1
Yo-Yo 1
Est@@ 1
ée 1
hex@@ 1
anol 1
violet 1
Enzy@@ 1
Hex@@ 1
ane@@ 1
thiol 1
ganz 1
widerlich 1
uch 1
leish@@ 1
tonkene 1
Against 1
Fall 1
Stars 1
ink@@ 1
ens 1
cap@@ 1
Christians 1
chri@@ 1
sti@@ 1
Embassy 1
wards.com 1
Damn 1
liberal 1
ched 1
stoned 1
founders 1
paleontological 1
shvisle 1
reCAPTCH 1
oling 1
could 1
Thad 1
designed 1
specifically 1
empower 1
addington 1
tp 1
Turf 1
mpur 1
Yelp 1
Travel 1
face.com 1
pheus 1
Atal@@ 1
anta 1
omenes 1
Hab@@ 1
sker 1
TEDxKibera 1
ickson 1
angaroo 1
Chee 1
Pearlman 1
remaster 1
cle 1
opa@@ 1
dic 1
Shy@@ 1
rượ@@ 1
11-@@ 1
Tuff 1
deman 1
aley 1
City@@ 1
elen 1
TheSheepMarket.com 1
đượ@@ 1
ns 1
rat@@ 1
Takashi 1
washima 1
TenThousandsCents.com 1
assey 1
oplin 1
rowieki 1
Bicy@@ 1
cleBuiltforTwoThousand.com 1
Ain 1
Grave 1
Mr@@ 1
nyCashProject.com 1
pan@@ 1
-nô 1
HT@@ 1
st@@ 1
mitri 1
endeleyev 1
dwell 1
sachu@@ 1
shotglass 1
ti-@@ 1
moan 1
puck 1
saucer 1
LM@@ 1
BC 1
mega-@@ 1
caf@@ 1
Yiddish 1
Vlasic 1
sonville 1
1980s 1
busto 1
Hear@@ 1
Old 1
Traditional 1
tra-Chunky 1
nard 1
ounces 1
Nescafe 1
Selanikio 1
leni@@ 1
kio 1
Bots@@ 1
wane 1
Vengeance 1
Galaxy 1
ây. 1
bian 1
14,000 1
thm 1
event 1
outsource 1
offline 1
Paradise 1
vage 1
clicks 1
Making 1
peace 1
luc@@ 1
obstetric 1
fistula 1
baba 1
mers 1
trive 1
ira 1
antic 1
Easter@@ 1
sette 1
inson-Gilford 1
progerin 1
ZT 1
bale 1
tips 1
Winograd 1
Tompkins 1
trix 1
stafarians 1
aufman 1
eiman 1
drift 1
stang 1
Firest@@ 1
6.8 1
dar 1
34@@ 1
Oc@@ 1
topus 1
bor 1
born 1
prolexic 1
spirito 1
twright 1
Vau@@ 1
remlin 1
Chil@@ 1
dolos@@ 1
see 1
engela 1
bars 1
saloon 1
iCow 1
Kamkw@@ 1
goli 1
Child@@ 1
tality.org 1
Nile 1
Dam 1
fark.com 1
k.com 1
TechCrunch 1
Goose@@ 1
ber@@ 1
Gos@@ 1
Nah 1
DA 1
Mom 1
ữ 1
trum 1
Micky 1
venting 1
Threats 1
Google@@ 1
Valen@@ 1
Copyright 1
elton 1
mixtape 1
fanzine 1
Bakery 1
CA 1
dinal 1
Wolsey 1
các-@@ 1
bon-@@ 1
Northern 1
Villette 1
Vilayanur 1
amar@@ 1
Snow 1
yadh 1
atar 1
megawatts 1
Maga@@ 1
ziner 1
ai@@ 1
caloric 1
yonza 1
roder 1
sevi@@ 1
325 1
sco@@ 1
Googlers 1
Í@@ 1
URLs 1
gigabits 1
3-D 1
ID@@ 1
astro@@ 1
cyte 1
glia 1
náp 1
atlas 1
microarray 1
Wellbutrin 1
prote@@ 1
DI@@ 1
icks 1
xstowe 1
Mol@@ 1
el-Mandeb 1
pera 1
Gir@@ 1
sildenafil 1
ẽo 1
Verne 1
autla 1
siphon 1
IMAX 1
reatic 1
Explorer 1
TNT 1
halide 1
lementine 1
tez 1
Scotty 1
cocet 1
arigato 1
gozaimashita 1
petri 1
bie 1
att@@ 1
Wimbledon 1
ethernet 1
wh@@ 1
oooooo@@ 1
Rand@@ 1
esto 1
ep@@ 1
ff@@ 1
23,000 1
har@@ 1
hemi@@ 1
section 1
ẻn 1
syna@@ 1
axonal 1
projections 1
M.D. 1
Emi@@ 1
vary 1
arsenic 1
Soph@@ 1
ocles 1
Shift 1
form 1
Tab 1
pop-up 1
Connec@@ 1
Command 1
blackout 1
whiteout 1
preye 1
hu 1
basanjo 1
MT@@ 1
Chartered 1
gunlesi 1
kuba 1
ost 1
Hindus 1
Mujahi@@ 1
ide@@ 1
Islamic 1
ghreb 1
Yen@@ 1
sab 1
al-Zarqawi 1
break@@ 1
bec@@ 1
ugène 1
Spa@@ 1
Langu@@ 1
irand 1
aliber@@ 1
Sole@@ 1
Schu@@ 1
iten 1
bec 1
Trea@@ 1
ge@@ 1
gates 1
nay@@ 1
drian 1
Swap@@ 1
tress 1
seda 1
ịm 1
thy 1
Zopa 1
Ponzi 1
Twittering 1
doron 1
cantron 1
pinatas 1
ackville 1
person 1
Ẻ@@ 1
Dro@@ 1
boomerang 1
pin@@ 1
per 1
show-and-tell 1
Raffaello 1
Raffa@@ 1
Quads 1
Feder@@ 1
ico 1
gliaro 1
scianini 1
Rit@@ 1
vidol 1
Woloshin 1
Tufte 1
DL 1
agnostics 1
Lab@@ 1
Govern@@ 1
ors 1
yridge 1
evas 1
Wittgenstein 1
TEDxBoston 1
log 1
dot-com 1
VPR1 1
tegna 1
mart 1
Tsukimi 1
Phi-@@ 1
Giê-@@ 1
veh 1
SuperBetter 1
Words 1
yash 1
vielle 1
roue 1
zanfona 1
ghironda 1
drone 1
anza 1
yle 1
gh-In 1
breakout 1
mothers 1
Son 1
sitcom 1
sier 1
Cle@@ 1
dlay 1
ree 1
Pl@@ 1
acebo 1
Tiamu 1
Cross 1
kar 1
Tri@@ 1
Justi@@ 1
fy 1
bber 1
Lot@@ 1
Rein@@ 1
artiste 1
one-itis 1
One-@@ 1
đi-@@ 1
Shanghai 1
Industry 1
Week 1
Wen 1
ẫ@@ 1
Emperor 1
Clo@@ 1
thes 1
Match@@ 1
Girl 1
Mermaid 1
ardo 1
Dic@@ 1
rio 1
cle@@ 1
Alps 1
Zira 1
mấ@@ 1
shaft 1
im@@ 1
auk 1
Spee@@ 1
dos 1
Sac@@ 1
esta 1
bano 1
eehto 1
okuniya 1
1,9@@ 1
sha@@ 1
sec@@ 1
Fros@@ 1
t-Nixon 1
Abbott 1
Stap@@ 1
Aw 1
êc 1
Mille 1
memento 1
mori 1
Hea@@ 1
ilke 1
mund 1
looping 1
yi 1
neonicontinoids 1
neonics 1
varroa 1
stric@@ 1
hoa@@ 1
Sib@@ 1
bet 1
dorsal 1
stream 1
ceptive 1
Pix@@ 1
Mahab@@ 1
alipuram 1
ual 1
la-Morales 1
Hep@@ 1
sq@@ 1
Tel@@ 1
ê. 1
ệp 1
U-@@ 1
bbutz 1
yahu 1
dan@@ 1
dun@@ 1
Ộ@@ 1
Audu@@ 1
ddy 1
Turnstones 1
derlings 1
Fishing 1
Fool 1
teagall 1
Salon 1
Pari@@ 1
bas 1
Uyghurs 1
Tibetans 1
ug@@ 1
ovo 1
đú@@ 1
Ys 1
TR@@ 1
Zheng 1
ZhuZhou 1
ward 1
ADD 1
ue 1
ob@@ 1
wirth 1
ittown 1
uh-uh 1
sulfates 1
atubo 1
bomb-like 1
o-engineering 1
un-PC 1
tzen 1
nag@@ 1
Strangelove 1
photophoretic 1
cut 1
minem 1
nibal 1
Lec@@ 1
Verse 1
Hah 1
Gee 1
À-@@ 1
Tinbergen 1
ginald 1
Zeal@@ 1
Clev@@ 1
sil@@ 1
Sustainable 1
Solutions 1
sac 1
Zeolite 1
mark 1
omac 1
SOB 1
AIDS@@ 1
Rides 1
Smith-Pallotta 1
Tour 1
soon 1
Wonho 1
mr 1
assar 1
Festival 1
eikh 1
zubare 1
Institute 1
Vigital 1
haus 1
sibidi 1
jagham 1
Cote 1
voire 1
ngo 1
turi 1
debele 1
haric 1
Ibra@@ 1
joya 1
mum 1
Ethiopic 1
glash 1
nell 1
Thebes 1
Wadi 1
el-Hol 1
ālep 1
bêt 1
iah 1
chuguilla 1
® 1
ũa 1
inson 1
ble.com 1
ve.com 1
jholabhari 1
ket@@ 1
vericks.com 1
Works 1
NAS@@ 1
nick@@ 1
Birth@@ 1
skin 1
va-@@ 1
lesey 1
Anthropo@@ 1
cene 1
xion 1
Recycling 1
WEEE 1
DD@@ 1
Exp@@ 1
loit 1
funnycats.exe 1
www.incrediblyhacked.com. 1
proxy 1
Drive 1
ttyFlyForAWifi 1
Visitors 1
SAN@@ 1
ganwifi 1
tonLondon 1
illanceVan 1
XYZ 1
Olm@@ 1
sted 1
Memorial 1
mellotron 1
violins 1
Ramble 1
Reser@@ 1
voir 1
Highway 1
Tan@@ 1
tanagra 1
Waldorf-Astoria 1
acole 1
Touati 1
movich 1
eger 1
G.M. 1
Tra@@ 1
sition 1
FAA 1
Devdutt 1
Pattanaik 1
omat@@ 1
eshvara 1
Theseus 1
Minotaur 1
Sty@@ 1
Champs-Élysées 1
ghupati 1
vinda 1
Rama@@ 1
Vaitar@@ 1
pudi 1
Bhar@@ 1
atanatyam 1
shore 1
yani 1
zaar 1
shan 1
eschylus 1
Groucho 1
øren 1
erkegaard 1
court 1
shima 1
sser 1
esn 1
guru 1
mobs 1
xuố@@ 1
bway 1
Vélib 1
European 1
verSeconds 1
tebbe 1
Wikileaked 1
legate 1
vegeek 1
ates 1
vac@@ 1
xin-@@ 1
Deworm 1
ngla@@ 1
Eurasia 1
chev 1
long@@ 1
Genghis 1
Asian 1
Community 1
dir@@ 1
dish 1
merga 1
Medina 1
stans 1
ku-Tbilisi-Ceyhan 1
Turkmen- 1
an-Pakistan-@@ 1
khstan 1
ans@@ 1
Sartre 1
tein 1
bí@@ 1
inheads 1
ein 1
ampf 1
We 1
Persian 1
utu 1
sara 1
apum 1
Đi@@ 1
ayam 1
Wino 1
Kool@@ 1
baru 1
lava 1
WorldWind 1
graph 1
www.@@ 1
Council 1
cari 1
nople 1
Garry 1
Intelligence 1
augmentation 1
on-Pfizer 1
yPal 1
jar 1
Yahya 1
al-Libi 1
jiha@@ 1
U.C. 1
kie 1
Resour@@ 1
Generation 1
Jean-Bap@@ 1
tise 1
kambar 1
Penti@@ 1
ums 1
XM 1
Girl@@ 1
Jam@@ 1
mer-@@ 1
Poetry 1
viera 1
delaire 1
Hell 1
parnasse 1
indberg 1
Mayan 1
Cop@@ 1
Cyber 1
apa 1
slyn 1
Chap@@ 1
shmore 1
subi 1
Tombs 1
chard 1
ham@@ 1
anier 1
Cul@@ 1
lins 1
Amb@@ 1
ady 1
sica 1
Peri@@ 1
meter 1
Waterloo 1
quan@@ 1
tim@@ 1
IV@@ 1
da-@@ 1
phim@@ 1
Blaine 1
hypoxic 1
Dep@@ 1
lot 1
perflubron 1
mpic 1
Tierney 1
bíp-bíp-@@ 1
bíp-@@ 1
Abrahamic 1
ô-la 1
Nations 1
Population 1
Division 1
iner 1
Odyssey 1
thfinder 1
lander 1
Aerial 1
Regi@@ 1
onal-scale 1
Environmental 1
landers 1
gradient 1
aeroshell 1
tiles 1
Tilamook 1
Jet 1
Propulsion 1
Laboratory 1
Flight 1
tyhawk 1
projects 1
Above 1
billion 1
Others 1
Sas@@ 1
Shenzhen 1
ison 1
NGOs 1
Vivaldi 1
desh 1
phelia 1
Troubles 1
aggio 1
bera 1
Az@@ 1
angiri 1
zonte 1
Venezu@@ 1
Nairo@@ 1
GCSEs 1
Bismar@@ 1
Sk@@ 1
olan 1
Queensland 1
aringan 1
ggio 1
Emili@@ 1
min 1
anternet 1
hen@@ 1
acs 1
Panel 1
elcase 1
Targa 1
aparmurat 1
yazov 1
Teodor@@ 1
rent 1
DiCaprio 1
quadrillion 1
res 1
nhữ@@ 1
Transi@@ 1
stor 1
Zaghloul 1
bilet 1
stof 1
diksen 1
Debevec 1
Law@@ 1
under 1
horizon 1
stophanes 1
cirrus 1
mholtz 1
biết-tuốt 1
Captain 1
gam@@ 1
how 1
quares 1
Armed 1
Forces 1
Trivia 1
suit 1
Tilly 1
huket 1
earney 1
Box@@ 1
Matrix 1
thư@@ 1
mala 1
saww@@ 1
au@@ 1
dsi 1
Ry@@ 1
hin@@ 1
satchidananda 1
locus 1
enas 1
gmail 1
Then 1
says 1
know 1
Slash 1
haha 1
yet 1
Story 1
orrow 1
kilobytes 1
enter 1
Speech 1
RM 1
Consortium 1
W3C 1
Lee@@ 1
uwenhoek 1
Joh@@ 1
Nos@@ 1
ek 1
www.YourMorals.org. 1
Ernst 1
Tenochtitlan 1
Vieira 1
Hercul@@ 1
Houzel 1
Herculano-Houzel 1
soup 1
chel 1
illian 1
Tyvek 1
silhouette 1
spelling 1
goCen@@ 1
lone 1
bibli@@ 1
risania 1
Prai@@ 1
ries 1
pro 1
TEC 1
A-ha 1
page 1
lette 1
lettes 1
Toolbar 1
Answers 1
Fro@@ 1
ogle 1
Sense 1
vey 1
Could 1
heart 1
rugby 1
Fur@@ 1
chgott 1
Ig@@ 1
narro 1
xide 1
xem@@ 1
moneyball 1
moneyballing 1
studiosus 1
iadendron 1
Dion@@ 1
aea 1
.D. 1
oker 1
charf 1
ghese 1
medium 1
571,230,000 1
tấ@@ 1
58@@ 1
1,230,000 1
laus 1
Mental 1
involving 1
Nearly 1
affected 1
illness 1
worldwide 1
wealthy 1
nations 1
half 1
receive 1
appropriate 1
countries 1
close 1
percent 1
untreated 1
because 1
psychiatrists 1
such 1
short 1
supply 1
outlines 1
highly 1
promising 1
approach 1
training 1
members 1
communities 1
interventions 1
empowering 1
ordinary 1
others 1
LY 1
Dis@@ 1
ability-Adjusted 1
Year 1
tif 1
SUNDAR 1
DAR 1
Alma-@@ 1
mel 1
Over@@ 1
Weinmueller 1
vega 1
Aber@@ 1
nathy 1
Holland 1
Birdsong 1
yo@@ 1
effer 1
Yoon 1
ig 1
een 1
Lithu@@ 1
Jur@@ 1
trauskas 1
nger 1
hire 1
Willoughsby 1
Zhou 1
Sokolo@@ 1
fton 1
cily 1
atma 1
Bang@@ 1
Tibetan 1
mikot 1
Avalokiteshvara 1
Avalokit@@ 1
vara 1
anga 1
tablet 1
Scientific 1
Wegener 1
ĩa 1
powerpoint 1
hannon 1
abel 1
Movement 1
Od@@ 1
35,000 1
teno 1
Northeastern 1
algeirsson 1
Jim@@ 1
iny 1
Play@@ 1
Computing 1
CB 1
inoff 1
Ush@@ 1
yugo 1
Two-@@ 1
Two-by-@@ 1
fours 1
24-@@ 1
24-dot 1
stave 1
Cron@@ 1
Mill@@ 1
er-Urey 1
Chan 1
awiil 1
ult 1
sô-c@@ 1
stry.com 1
Alcorn 1
tus 1
nitrogen 1
má@@ 1
fs 1
NM 1
city 1
Iron 1
julina 1
Mato 1
Tun@@ 1
TRUCOST 1
WAVES 1
PU@@ 1
Zeitz 1
ED@@ 1
mp@@ 1
Bami@@ 1
TEDxVictoria 1
Tar 1
itoba 1
áp-@@ 1
Wildlife 1
Refuge 1
7.6@@ 1
P.R. 1
64@@ 1
20th 1
ppewa 1
cun 1
Peace@@ 1
Keystone 1
sô-@@ 1
une 1
bussy 1
quiat 1
Lig@@ 1
Bear@@ 1
estyle 1
Frequ@@ 1
ency 1
slogan 1
andon 1
March 1
off 1
Aph@@ 1
rodite 1
Venus 1
vaca@@ 1
Tsiaras 1
terbur 1
iders 1
Adi@@ 1
das 1
irs 1
uyorican 1
son-@@ 1
VIM 1
islavski 1
renshaw 1
weto 1
TomTom 1
Lang@@ 1
Wave 1
Bubble 1
LO@@ 1
igme 1
Chang 1
enzin 1
atso 1
phi-@@ 1
auca 1
quat 1
Round 1
Tora 1
Dan@@ 1
Kath@@ 1
mandu 1
TEDxMaastricht 1
limburger 1
Lim@@ 1
weed 1
Zweep 1
Maastricht 1
ượm 1
Dal@@ 1
reana 1
moryville 1
Vallejo 1
tac@@ 1
Phone 1
kowhegan 1
poke 1
silia 1
Thucydides 1
Lar@@ 1
ROVs 1
openROV.com 1
TechShop 1
Camer@@ 1
PlayStation 1
Acti@@ 1
Call 1
Of 1
ưỡng 1
choo 1
pOne 1
Wheeeeeee 1
Yar 1
Yee 1
haw 1
Ooooo@@ 1
nier 1
Shaka 1
Senghor 1
crates 1
Apo@@ 1
logy 1
kou 1
chigan 1
ốt-@@ 1
ằ@@ 1
Sleepy 1
ZX81 1
Assembly 1
Timex 1
Death 1
1K 1
ddin 1
Teenage 1
Mut@@ 1
Hero 1
Turtles 1
Tortugas 1
26,@@ 1
Entertainment 1
unior 1
Wopp 1
Psychop@@ 1
ath 1
Test 1
Apprentice 1
Scientist 1
ckwell 1
insaw 1
ved 1
ớm 1
illis 1
alphaproteobacteria 1
bioinformed 1
design 1
ewy 1
psh@@ 1
bloop-bloop 1
atosthenes 1
Kuriyama 1
uri@@ 1
yama 1
Veldt 1
Feyn@@ 1
bbons 1
bam 1
geo 1
Know@@ 1
ortz 1
derquist 1
ui 1
antidepressant 1
Yuan 1
Polynesian 1
intolerable 1
neural 1
vasopressin 1
dep@@ 1
hakapi@@ 1
Tsukiji 1
jack 1
att 1
rex 1
Antarctic 1
Auckland 1
lymouth 1
Fior@@ 1
dland 1
sea 1
pen 1
nudibrank 1
leatherjacket 1
Trio 1
pzig 1
Davey 1
MAKE 1
Ardu@@ 1
inos 1
ffin 1
ly-Bob 1
Taber@@ 1
nale 1
Tabernacle 1
Kid@@ 1
wheels 1
nơ@@ 1
Home@@ 1
brew 1
Mobi@@ 1
lit@@ 1
toine 1
ritsar 1
Cat 1
awesomething@@ 1
s.com 1
blogs 1
verman 1
Webby 1
ré 1
hotdogs 1
Thanksgiving 1
lasagna 1
buffets 1
highway 1
market 1
Viol@@ 1
purlock 1
Pill@@ 1
Pilloton 1
Ral@@ 1
eigh 1
due 1
becue 1
leston 1
jangles 1
Ath@@ 1
Bei@@ 1
nhocker 1
Spi@@ 1
gazillion 1
lep@@ 1
Cuban 1
casino 1
Vignelli 1
mboTrons 1
ba-@@ 1
Bosnian 1
Gell@@ 1
horn 1
Dama@@ 1
mas@@ 1
cus 1
Tut@@ 1
Ivory 1
RP@@ 1
3,2@@ 1
26.@@ 1
197@@ 1
44875 1
875 1
Audience 1
1900s 1
1800s 1
2000s 1
nart 1
77,862 1
77,@@ 1
gee 1
rucci 1
clo@@ 1
TurboTax 1
tuit 1
ẳ 1
olm 1
Japan@@ 1
sumi 1
zegorz 1
Vac@@ 1
hdan 1
Vá@@ 1
Tomasz 1
stian 1
dion 1
dsky 1
ỹ@@ 1
Tennes@@ 1
winkies 1
kins 1
arrell 1
iles 1
dredge 1
gomery 1
ché 1
gstaff 1
tings 1
VCR 1
xes 1
cocktails 1
hybrid 1
Kaza@@ 1
15.@@ 1
Idiots 1
Idiot 1
idio 1
GP 1
Standing 1
Abo@@ 1
Elworthy 1
worth 1
jaf 1
Hugh@@ 1
Cz@@ 1
echoslovakia 1
ví@@ 1
nano@@ 1
resby 1
PV 1
baneswar 1
Ramayana 1
Pulitzer 1
elsea 1
Woolworth 1
eBox 1
licon@@ 1
Willard 1
mos 1
endt 1
Bibli@@ 1
oTech 1
Norse 1
Head@@ 1
hunters 1
Watermelon 1
parap@@ 1
gias 1
quadrap@@ 1
legias 1
absur@@ 1
lareta 1
omon 1
Yakushima 1
rhizocarpon 1
geographicum 1
aking 1
Gran 1
Pic@@ 1
ea 1
poli@@ 1
thờ@@ 1
gole 1
Baobabs 1
Welwitschia 1
stenbosch 1
dator 1
Reaper 1
orgon 1
Arg@@ 1
Sentinel 1
King@@ 1
sub-Saharan 1
Bosni@@ 1
Any 1
Questions 1
Chongqing 1
kilô@@ 1
mousse 1
tiramisu 1
út-@@ 1
fibrin 1
hê-@@ 1
gl@@ 1
kit@@ 1
nola 1
Gay 1
nanometer 1
Afg@@ 1
Wakhan 1
ridor 1
Sufi@@ 1
Hidden 1
tar 1
qa 1
PA 1
tôi-@@ 1
biriani 1
Israel-Palestine 1
Kne@@ 1
gy@@ 1
resveratrol 1
albums 1
dặ@@ 1
oro 1
not@@ 1
musica 1
Omega-@@ 1
polyphen@@ 1
nonau 1
Sardin@@ 1
kigai 1
Seventh-Day 1
Metho@@ 1
xa-@@ 1
awlings 1
Cities 1
ino 1
ramingham 1
Gell- 1
ry-@@ 1
Sweat 1
Points 1
oshi 1
kamoto 1
anksy 1
ckchain 1
Wordpress 1
elman 1
Proc@@ 1
elBand 1
pesos 1
akka 1
flor@@ 1
Shil@@ 1
etude 1
sry 1
suite 1
Johan@@ 1
Kibbutz 1
multi-tracking 1
Cad@@ 1
mbin 1
asys 1
Cyborg 1
osyntec 1
ự-@@ 1
kurta 1
Spider-Man 1
Franc@@ 1
Retriever 1
bows 1
Anth@@ 1
Hul@@ 1
flora 1
illie 1
Washinawatok 1
enominee 1
Khmer 1
raj 1
hakar 1
thare 1
slam 1
Tasneem 1
addiqui 1
aruhanga 1
graphite 1
Flo@@ 1
Special 1
bilateral 1
grap@@ 1
x-Foot 1
nemouth 1
Tussauds 1
she 1
Spectrum 1
Auditions 1
boxing 1
Zyprexa 1
ỉm 1
ạm 1
osh 1
Faceboo@@ 1
kistan 1
Ama@@ 1
mou 1
adh 1
ted@@ 1
prize@@ 1
nữa@@ 1
athi 1
Neur@@ 1
Negropon@@ 1
gles 1
Ể 1
SOL@@ 1
Ớ@@ 1
Clouds 1
Andrews 1
papillomavirus 1
4,800 1
gin@@ 1
platyrhynchos 1
ởm 1
kong 1
Urban 1
Challe@@ 1
Speed@@ 1
lex 1
Fe@@ 1
deri@@ 1
stas 1
cobono 1
enciaga 1
Vivienne 1
Westwood 1
U.S.@@ 1
Weitzman 1
den-wedge 1
lianos 1
E.R. 1
Rea@@ 1
dyToShare@@ 1
auriqui 1
ginal 1
wen 1
carbo@@ 1
sche 1
jugo 1
naranja 1
gab 1
für 1
isen 1
kerism 1
nish 1
Unicum 1
xa@@ 1
oy 1
Ret@@ 1
sina 1
gilvy 1
esterton 1
gíc 1
polyester 1
kal 1
her 1
Iri@@ 1
git 1
Kailash 1
Zamin 1
yber 1
Pap@@ 1
usay 1
dạ@@ 1
Urdu 1
laps 1
los 1
off@@ 1
Austro-@@ 1
Danube 1
elberg 1
tanburg 1
double-knit 1
zler 1
Seventh 1
Antoni@@ 1
val@@ 1
Rusti@@ 1
cana 1
beard 1
Concerto 1
concerto 1
adagio 1
religioso 1
zilla 1
Ez 1
Yankee 1
Singap@@ 1
pellagra 1
ebola 1
andun@@ 1
demos 1
Nit@@ 1
endo 1
Electronic 1
Other 1
Urruela 1
VETSports 1
Tammy 1
ckworth 1
duc 1
montmorillon@@ 1
Bam 1
zen@@ 1
Missi@@ 1
Mee@@ 1
tUp 1
-xin 1
comp@@ 1
Tembisa 1
Zolli 1
loxi 1
hound 1
ebkeman 1
UP 1
mc 1
Visions 1
docino 1
Vutter 1
Sequ@@ 1
idell 1
sten 1
vall 1
Institutional 1
Venture 1
Football 1
Nakilia 1
kilia 1
Reu@@ 1
Fr@@ 1
appuccino 1
Aar@@ 1
hus 1
Alave@@ 1
teli 1
gitta 1
ónsdóttir 1
Investi@@ 1
gative 1
ashboard 1
WikiLea@@ 1
ém 1
roBot 1
Deci@@ 1
đổi-@@ 1
tal 1
dor@@ 1
aston 1
therington 1
troclus 1
bicon 1
Paki@@ 1
Thai-Burma 1
Tuscaloosa 1
sy@@ 1
dney 1
quo@@ 1
antas 1
Tintin 1
99.@@ 1
Maurit@@ 1
yed 1
ìều 1
ropshire 1
Hous@@ 1
Zedong 1
Ã@@ 1
inter@@ 1
Washin@@ 1
1970s 1
baum 1
mixer 1
ballads 1
Beautiful 1
unky 1
Rising 1
Bou@@ 1
tique 1
astie 1
gt. 1
heri 1
Cock@@ 1
Mrs. 1
Pat@@ 1
Downtown 1
band 1
Wild 1
Comes 1
stepper 1
Wanna 1
ggy 1
ggystyle 1
Notorious 1
pnotize 1
Back 1
gospel 1
soul 1
temblor 1
3,500 1
Avenue 1
nison 1
160,000 1
Pads 1
AID@@ 1
adalajara 1
Mê-hi-@@ 1
rid 1
ghouti 1
Stein@@ 1
itskill 1
karay 1
jo 1
ollywood 1
afina 1
Méli@@ 1
ambattista 1
della 1
apolitan 1
Jurassic 1
KH@@ 1
Saf@@ 1
aja 1
Méliès 1
buque 1
50-100 1
aegypti 1
no. 1
yard 1
aegyp@@ 1
itec 1
tron@@ 1
Plexiglas 1
hi-tech 1
Caps 1
malou 1
hel 1
dan-Kara 1
tafoni 1
Yoshizawa 1
ẵn 1
TreeMaker 1
origami-@@ 1
Kor@@ 1
ura 1
yeglass 1
Zhong 1
dd-Frank 1
Les@@ 1
bos 1
Dol@@ 1
lars 1
skar 1
abi 1
Yau 1
Zwyiec 1
O. 1
poly-cotton 1
olo 1
node 1
fit@@ 1
Nou@@ 1
ngườ@@ 1
oin 1
tenegro 1
marijuana 1
B.C. 1
tera 1
narco@@ 1
ecstasy 1
lista 1
ve-@@ 1
inbox 1
Arte@@ 1
sunate 1
ermo 1
ork 1
vette 1
Dir@@ 1
Devil 1
Autom@@ 1
sell 1
pps 1
dynein 1
birth 1
condom 1
UD 1
vasectomy 1
35-@@ 1
hm 1
cappuccino 1
Tippett 1
UN 1
ppet 1
yvesi 1
tikkun 1
olam 1
mc2 1
tsboro 1
Assi@@ 1
ins@@ 1
ther 1
beson 1
Photography 1
inting 1
2nd 1
Eri@@ 1
Probes 1
ngko 1
icksilver 1
Ferry 1
ngbat 1
san-serif 1
cordion 1
iền 1
axaca 1
ô-viết 1
pie 1
cor 1
Carry 1
lower 1
nacle 1
Industries 1
Hob@@ 1
bs 1
adt 1
Wojcicki 1
Las@@ 1
bướ@@ 1
mes@@ 1
Bs 1
Calms 1
mary 1
Talons 1
Aga@@ 1
memnon 1
Avo@@ 1
gadro 1
Tahoe 1
www.randi.org. 1
ong@@ 1
micro@@ 1
Gag@@ 1
agagagaga 1
wada 1
wader 1
bat 1
Fleis@@ 1
chman 1
bule 1
Welles 1
Swe@@ 1
kane 1
on-Yi 1
Vin@@ 1
Moriarty 1
Mori@@ 1
tosh 1
cindor 1
Sacred 1
Headwaters 1
keena 1
patsizi 1
shaman 1
Gitxsan 1
Wy-ghet 1
Git@@ 1
Todagin 1
tals 1
Ì 1
ku@@ 1
parado@@ 1
heed 1
ổm 1
phil-anthropy 1
hnian 1
Václav 1
Shelley 1
patior 1
payen 1
out@@ 1
fwoosh 1
Waikiki 1
ss@@ 1
ĩu 1
wi 1
deep-@@ 1
six 1
Hobsba@@ 1
ệnh 1
dalene 1
assis 1
Tyne 1
Yoooooooo 1
lor 1
danha 1
Madureira 1
Madu@@ 1
Naj@@ 1
dar@@ 1
Flash 1
ex 1
Cine@@ 1
match 1
Dinosaur 1
Gravity 1
pagogix 1
algorithms 1
furt 1
erokee 1
Spread 1
Najjar 1
dang@@ 1
Shuffler 1
XSWi 1
book 1
Tolga 1
Grateful 1
Dead 1
Rainforest 1
ly-@@ 1
nê-@@ 1
awal 1
ailug 1
palu 1
nesia 1
Micron@@ 1
esian 1
oz@@ 1
Giant 1
Tabasco 1
Barber 1
Waters 1
gundy 1
vers 1
Molotov 1
comer 1
hijo 1
seed 1
loha 1
onichiwa 1
Ah-@@ 1
ikum 1
Zavorotnya 1
apavati 1
lodomor 1
ush@@ 1
kis 1
ource 1
Artist 1
arch@@ 1
romat@@ 1
opsia 1
Montan@@ 1
ese 1
tias 1
zana 1
inov 1
Pun@@ 1
dit 1
we@@ 1
loh 1
Usha@@ 1
Palm@@ 1
s-@@ 1
pkis 1
July 1
ThePromisedLand@@ 1
Leadership 1
Hope 1
ryant 1
Hid@@ 1
tery 1
therford 1
Within 1
kiế@@ 1
Rep@@ 1
Cars 1
Ray@@ 1
Enter 1
crème 1
fraiche 1
wich 1
hiba 1
gly@@ 1
miraculin 1
TEDxTeen 1
Style 1
Roo@@ 1
kiemag.com. 1
Paint 1
super@@ 1
desmaids 1
ena 1
y- 1
Frea@@ 1
So-@@ 1
Called 1
Weir 1
season 1
Ocean 1
Westin 1
270,000 1
ach 1
Gustafson 1
Feeding 1
windows 1
McNuggets 1
wish 1
The@@ 1
Projec@@ 1
t.org 1
phthalic 1
Challenge 1
ryl 1
setti 1
mmings 1
Tractarian 1
dengrove 1
O.J. 1
synapse 1
afito 1
hello 1
doni 1
dbetter 1
WowCharts 1
lewelyn-Bowen 1
ten@@ 1
tral 1
ApproTEC 1
keyuan 1
900,000 1
kuyama 1
Dee 1
Boersma 1
spinosa 1
pic 1
up 1
romwell 1
ôla 1
nandez 1
ếng 1
Pastor 1
dleback 1
ilà 1
y-b@@ 1
nhala 1
zstan 1
zegovina 1
isley 1
ceh 1
Palestinian 1
tifada 1
iller 1
tlett 1
khuy@@ 1
rigan 1
Low@@ 1
enstein 1
yota 1
Kan@@ 1
zzzzzt 1
d-Stuy 1
UMBO 1
Pros@@ 1
pect 1
First 1
Gre@@ 1
tchen 1
newsfeed 1
dina 1
faat 1
uda 1
luk 1
soleum 1
Shuk@@ 1
named 1
shamed 1
jailed 1
Journalist 1
has 1
broken 1
dozens 1
stories 1
corruption 1
organized 1
crime 1
without 1
revealing 1
identity 1
grisly 1
from 1
investigations 1
demonstrates 1
importance 1
facing 1
injustice 1
Metro 1
Tema 1
sawan 1
Anim@@ 1
mali 1
Blend 1
sed 1
Malthusian 1
laug 1
martya 1
WFP 1
tany 1
sloppy 1
jo@@ 1
fizzy 1
chiller 1
tartan 1
verpool 1
chie 1
Taniyama-Shimura 1
Shimura 1
Southern 1
Comfort 1
tos 1
mascot 1
Voe 1
Hammer 1
Misery 1
X-Men 1
Ail@@ 1
sch 1
gato 1
ead 1
Elephant 1
ypus 1
Croa@@ 1
ked 1
eads 1
Oak@@ 1
berton 1
wi@@ 1
GE 1
Quarterly 1
ực. 1
makala 1
ộm 1
sunga 1
Gansky 1
robin 1
chase 1
car 1
sharing 1
sedan 1
Rela@@ 1
yRides 1
eet@@ 1
doTruck 1
Los@@ 1
igslist 1
tunes 1
fty 1
Velib 1
screw-ups 1
Fund 1
sha-Yug 1
ống-@@ 1
hoi@@ 1
GP@@ 1
XXI 1
digarh 1
olympic 1
uron 1
Urban@@ 1
Think 1
gym 1
goon 1
lé 1
dey@@ 1
attam 1
yaodongs 1
od@@ 1
Zita 1
refast 1
ou@@ 1
dation 1
Vallely 1
replay 1
decademy 1
derDojo 1
scratch.mit.edu 1
acoma 1
yoohoo 1
huly 1
dely 1
pluribus 1
unum 1
E.O. 1
Il@@ 1
lã@@ 1
Test@@ 1
oster@@ 1
kena@@ 1
landing 1
peroxide 1
eefe 1
ritt 1
wiser 1
age 1
brrrr 1
gestalt 1
dumafla@@ 1
Woohooo 1
hè@@ 1
bandana 1
Enigma 1
Wobegon 1
Pet@@ 1
Vashaw 1
bot 1
robotinthewild 1
ch-@@ 1
Ns 1
ir@@ 1
-com 1
Ẻ 1
Snowball 1
penis 1
zos 1
prebiotic 1
oman@@ 1
speaker 1
Karol@@ 1
Jose@@ 1
fine 1
Jos@@ 1
ideshow 1
Samar@@ 1
Moz@@ 1
pop-ups 1
agar@@ 1
batt@@ 1
tul 1
wal 1
pro@@ 1
agaland 1
hunjhunu 1
kkim 1
shnagiri 1
Gandhi@@ 1
sigma 1
Shan@@ 1
Wo@@ 1
Rabbi 1
chtel 1
ringdale 1
Trilling 1
onius 1
ertes 1
ahh 1
ramax 1
moudjahid 1
rancy 1
Waterman 1
Guin@@ 1
ea-Bissau 1
ica 1
aragua 1
hn-Bendit 1
rombork 1
ordano 1
Coperni@@ 1
cious 1
ostak 1
Hirsh@@ 1
Wan@@ 1
ticorp 1
Computer 1
Bolster 1
SAG@@ 1
Extreme 1
holland 1
enega 1
Land@@ 1
SD 1
Architecture 1
Colosseum 1
Technorati 1
2,700 1
nChannel.com 1
cative 1
Color 1
break 1
Shake 1
Coun@@ 1
tway 1
twell 1
ag 1
itlyn 1
các@@ 1
uro 1
Yarkoni 1
drack 1
tiz@@ 1
SAGES 1
Vol@@ 1
panorama 1
atambe 1
Kum@@ 1
bira 1
Taipei 1
magnetoencephalography 1
xylophone 1
Limb@@ 1
pkins 1
deoxyhemoglobin 1
ets 1
bassists 1
to-@@ 1
Broca 1
sym@@ 1
chemic 1
ted 1
thump 1
Thump 1
head 1
spittin 1
toe 1
apocalyptical 1
siCo 1
bella 1
Piar@@ 1
Trini@@ 1
Zu@@ 1
cotti 1
Ẩ@@ 1
Occupy 1
jcc.org.tt 1
raRaymond.com 1
idABribe@@ 1
IPaidABribe@@ 1
Alg@@ 1
BB@@ 1
telsmann 1
ggan 1
inkjet 1
Step 1
Streets 1
moonwalk 1
Asta@@ 1
ires 1
ellys 1
anesia 1
sfeld 1
Tenori-On 1
Toshio 1
wai 1
Worthington 1
var 1
Wind 1
Viégas 1
ứơc 1
Sorry 1
bovitz 1
laubert 1
jitnov 1
mody 1
alloway 1
ill 1
Scre@@ 1
Tamagotchi 1
amari 1
Vib-Ribbon 1
warf 1
tres 1
rette 1
TA 1
Animal 1
Crossing 1
mú@@ 1
ường. 1
athleen 1
delia 1
sandra 1
limt 1
Cic@@ 1
ely 1
beSats 1
Radio@@ 1
kheed 1
Sky 1
petab@@ 1
yte 1
alog 1
enewistan 1
Toshiba 1
perion 1
Scale 1
Wilcox 1
ori 1
73,000 1
xenlu@@ 1
Chris@@ 1
unnel 1
Myhr@@ 1
vol@@ 1
oooh 1
65-@@ 1
XTs 1
inot 1
tur@@ 1
US@@ 1
ính 1
Buff@@ 1
Vampire 1
Slayer 1
Hodge 1
phenomethylimidazopyridine 1
oni@@ 1
17-@@ 1
aki 1
UNT 1
kinase 1
mei 1
a.com 1
Tencent 1
18-@@ 1
debaran 1
TEDxConcorde 1
ｃ 1
12.5 1
Gener@@ 1
ator 1
Zappa 1
TEDs 1
Learned 1
Randol@@ 1
ph-Macon 1
Wal-Marts 1
allat 1
N.@@ 1
hruvi 1
charya 1
Raq@@ 1
ib 1
ka@@ 1
Kash@@ 1
Kashmir@@ 1
Collective 1
ttar 1
xơ@@ 1
astela 1
ẹm 1
Đ 1
aguire 1
toxin 1
Twee@@ 1
Fol@@ 1
som 1
Ishi@@ 1
Nir@@ 1
meon 1
otak 1
Ah@@ 1
kivgaq 1
muktuk 1
chula 1
ck@@ 1
awton 1
Toole 1
duuuuuhhh 1
Hem@@ 1
dit@@ 1
cence 1
Let@@ 1
ter@@ 1
Scho@@ 1
cken 1
Ứ 1
Bee 1
Catarina 1
sty 1
-of-@@ 1
Parts 1
ner-Wilson 1
mp3 1
elho 1
Zine 1
al-Abidine 1
abhay 1
jazeera.net 1
Genesis 1
Wanick 1
Braz@@ 1
Lé@@ 1
Terra 1
embodied 1
energy 1
Mega@@ 1
tro-@@ 1
.C. 1
groove 1
Crescent 1
một-hai-ba-@@ 1
Wow@@ 1
crrcckkk 1
yes@@ 1
eclipse 1
414 1
om@@ 1
enton 1
öntgen 1
lily 1
amaryllis 1
sigonis 1
Classic 1
echler 1
ötz 1
lenhusen 1
Verfahrensweise 1
rechtlich 1
geschützt 1
welche 1
durch 1
spezifisch 1
aufgeräumte 1
gelmässigkeiten 1
allgemeinen 1
menschatzes 1
neue 1
Wirkungen 1
zu 1
erzielen 1
möglich 1
alle 1
din@@ 1
Oppenhe@@ 1
urat 1
Bruegel 1
motrigine 1
traline 1
boxetine 1
kaesque 1
Blan@@ 1
chett 1
igor 1
Veruca 1
thà@@ 1
Tourette 1
kitty 1
meow 1
glucocorticoids 1
atollah 1
omeini 1
Net@@ 1
anyahu 1
Nev@@ 1
ille 1
mberlain 1
Cheng@@ 1
ofi-Aventis 1
mann-La 1
sterol 1
streptococcus 1
Monthly 1
LS 1
WL 1
CM 1
hml 1
Dec@@ 1
Records 1
dall 1
wling 1
Earthly 1
Delights 1
wolf 1
Yer@@ 1
keys 1
lotnik 1
Lawr@@ 1
ceville 1
Yerkes 1
Vicky 1
kil@@ 1
Yeager 1
schberg 1
Sol@@ 1
arImpulse.com 1
neutrons 1
x10 1
chỉ@@ 1
Cedars-@@ 1
sin@@ 1
wash 1
orus 1
dars 1
agen 1
hươ@@ 1
hormon@@ 1
Communication 1
dime 1
cy 1
Cochlear 1
Goldacre 1
etti 1
Mirror 1
gs 1
reboxetine 1
Baidu 1
Ren@@ 1
Youku 1
Tudou 1
meme 1
Twitter@@ 1
Uh-Oh 1
bul@@ 1
mycophobia 1
opisthokonta 1
ickey 1
420 1
yce 1
telle 1
lingham 1
per@@ 1
ases 1
cac@@ 1
omitopsis 1
officinalis 1
oscorides 1
eld 1
OD 1
ribavirin 1
metarhizium 1
rin 1
Tarter 1
Search 1
Prizes 1
sashimi 1
apeake 1
orange 1
roughy 1
gasso 1
onian 1
ats 1
Tiev 1
Ve@@ 1
meer 1
Spe@@ 1
org@@ 1
esendruck 1
Olmstead 1
Weingar@@ 1
Wegner 1
peche 1
Ky@@ 1
quiem 1
angelina 1
lody 1
vestri 1
Geor@@ 1
lipop 1
membrance 1
Past 1
Bront@@ 1
ĂŤ 1
Phil@@ 1
brick 1
quesas 1
Avian 1
Dawson 1
ts-@@ 1
square 1
meters 1
hydr@@ 1
ket 1
broccoli 1
Sain@@ 1
eltier 1
glala 1
washi@@ 1
Cl@@ 1
ỗn 1
domino 1
rachaman 1
matzah 1
ỉu 1
telepresence 1
entec 1
aijen 1
siao 1
culus 1
Fighting 1
Walrus 1
itable 1
Vand 1
đấ@@ 1
ghals 1
Ottom@@ 1
ssinia 1
esterners 1
Trabants 1
Mile 1
Taqi 1
al-Din 1
PI@@ 1
carbohydr@@ 1
Ổ 1
hamburgers 1
Education 1
Gros@@ 1
rugged 1
YPO 1
nacles 1
rum 1
coke 1
Craigslist 1
jiji 1
ksdale 1
Apatzingán 1
Naz@@ 1
eno 1
Apat@@ 1
zig@@ 1
Dia@@ 1
ghts 1
Michoac@@ 1
ázaro 1
árdenas 1
wshank 1
Redemption 1
delmeier 1
roxicam 1
becca 1
riapi 1
Jeremiah 1
ami@@ 1
zetta 1
bros@@ 1
Nigerian 1
auchelle 1
Syl@@ 1
vie 1
Testelin 1
mash-ups 1
Zanesville 1
data.gov 1
data.gov.uk. 1
Terrace 1
TO 1
Eye 1
armin 1
bang@@ 1
Medicaid 1
hut 1
skine 1
Morin 1
kker 1
kko 1
ượ@@ 1
Challenger 1
fe@@ 1
ghrelin 1
relin 1
emophilus 1
influenzae 1
lyde 1
artigue 1
NS@@ 1
nuclease 1
ấ 1
capricol@@ 1
type 1
ague 1
err 1
fall 1
triumph 1
recreate 1
things 1
might 1
build 1
understand 1
artis 1
vaccines 1
rhinovirus 1
myra 1
Xenu 1
Laman@@ 1
Gali@@ 1
Micros@@ 1
Mun@@ 1
World@@ 1
wide@@ 1
teles@@ 1
cope.org 1
phere 1
un-@@ 1
uhh 1
TEDxBoulder 1
zumel 1
Winslow 1
Ghos@@ 1
busters 1
Impact 1
ickart 1
Walnut 1
Off 1
Ferr@@ 1
Americans 1
Disabilities 1
Childhood 1
They 1
used 1
morbidly 1
artist 1
Songs 1
Already 1
Know 1
Equ@@ 1
als 1
breathe 1
Inven@@ 1
tum 1
Laen@@ 1
jama 1
opi 1
wak 1
âteau 1
Yard 1
ffer@@ 1
Wagyu 1
ogo 1
hatt@@ 1
ignore 1
Zimb@@ 1
abu@@ 1
mando 1
pheno@@ 1
lic 1
luwak 1
Neo@@ 1
rest 1
ernet 1
Yquem 1
Disne@@ 1
y.com 1
Telugu 1
ooley 1
olumbo 1
Pythagoras 1
Pit@@ 1
cạc-@@ 1
một-kèm-@@ 1
Academy 1
zur 1
sera 1
Udacity 1
Heffer@@ 1
Bene@@ 1
fi@@ 1
aret 1
pat@@ 1
học-@@ 1
melo 1
Woof 1
Run 1
voice 1
an-gap-seum-ni-da 1
Recei@@ 1
Appreciate 1
hmmm 1
marize 1
Ask 1
Tarshis 1
tra@@ 1
etz 1
alez 1
TripAdvisor 1
ommends 1
hyperpyrexia 1
Schmidt 1
otonou 1
ct@@ 1
2.6 1
Wembley 1
a-ak 1
Zywiec 1
Olive 1
Kac@@ 1
́ 1
lesterol 1
gula 1
itos 1
biga 1
mise 1
place 1
glutenin 1
gliadin 1
rielle 1
koe 1
Zubin 1
stavo 1
damel 1
orazine 1
soloist 1
Nath@@ 1
eni@@ 1
Symphony 1
Bernardino 1
tuxedo 1
sm 1
lý@@ 1
christ 1
eiber 1
Touch 1
Program 1
opiate 1
Navi@@ 1
geni@@ 1
bride 1
Nort@@ 1
Belgium 1
orsChoose.org 1
SP@@ 1
photosyn@@ 1
WITNESS 1
bok 1
Evel@@ 1
Morales 1
affin 1
Ever 1
mode 1
hlme 1
Q. 1
gokgokgokgok 1
zaitis 1
ovetter 1
mica 1
Tor@@ 1
Gob@@ 1
Scar@@ 1
gien@@ 1
monolith 1
megabit 1
ũ@@ 1
ame 1
Wat@@ 1
en-Noir 1
ật-- 1
isco 1
whoo 1
heem 1
Zone 1
stoor 1
mph 1
lit 1
Ladak@@ 1
USTAH 1
Fili@@ 1
trault 1
8.8 1
7.0 1
KP@@ 1
Xantus 1
Toten 1
cạ@@ 1
Pachy@@ 1
soma 1
Gutman 1
Kryp@@ 1
Uppsala 1
mont-Ferrand 1
laume 1
chenne 1
endorphin 1
6.9 1
Crou@@ 1
Weiger 1
Wan 1
veWell 1
thelifeyoucansave.com 1
Cro@@ 1
ét. 1
biosis 1
Surpri@@ 1
Species 1
Different 1
often 1
depend 1
describes 1
remarkable 1
relationship 1
nut@@ 1
acker 1
white@@ 1
bark 1
illustrate 1
interdependency 1
known 1
symbiosis 1
kokonte 1
yucca 1
stron 1
eley 1
ty-@@ 1
AS 1
italization 1
stent 1
ortense 1
vorsen 1
tradivarius 1
ddagh 1
Conne@@ 1
inmhide 1
seolta 1
op 1
lapa 1
mor 1
chor 1
greine 1
muldoons 1
Ini@@ 1
showen 1
cle-@@ 1
tit 1
elzel 1
mẫ@@ 1
wth 1
mett 1
rush 1
sket 1
Wexford 1
viewer 1
berman 1
XKCD 1
v.@@ 1
ckman 1
Gra@@ 1
best 1
beft 1
argh 1
Vogons 1
aaaaaaa@@ 1
buru 1
Villa 1
sig 1
Wannsee 1
Weizsäcker 1
Wolfensohn 1
Wain 1
ahari 1
doy 1
alikpapan 1
bson 1
ford-on-Avon 1
nitterfield 1
qua@@ 1
cl@@ 1
acket 1
ja@@ 1
xu@@ 1
Schwartz@@ 1
pepperoni 1
jin 1
Dha@@ 1
Pen 1
dow 1
naya 1
Zemlya 1
paparazzi 1
Airways 1
noyarsk 1
K-@@ 1
ridium 1
mund@@ 1
Kamkwam@@ 1
azungu 1
nsima 1
Skep@@ 1
Quad@@ 1
X-Files 1
Via 1
Uno 1
drus 1
Illu@@ 1
minati 1
derbergers 1
singer 1
WA254 1
WA 1
dan 1
Verde 1
kiva.org 1
dh 1
oogle 1
Ỉ@@ 1
Nom@@ 1
ads 1
Hub 1
Trip 1
bli@@ 1
jana 1
Rodri@@ 1
ez-Beltran 1
XCode 1
X-Acto 1
drawtoast.com 1
Bassam 1
These 1
Hon@@ 1
bla@@ 1
Gbla 1
Run@@ 1
loitte 1
vocate 1
Tic 1
Tac 1
Asimov 1
jugaad 1
sukh 1
japati 1
gThrive 1
e-Bound 1
Cow 1
Utrecht 1
ares 1
mancio 1
Villatoro 1
ises 1
Zoilo 1
OM@@ 1
tina 1
jas 1
íos 1
Gle@@ 1
ason 1
kumquat 1
caramel 1
heartbroken 1
bookworm 1
sandcastle 1
duckface 1
brunch 1
breakfast 1
hotel 1
motel 1
Edu@@ 1
tainment 1
education 1
enter@@ 1
ment 1
electrocute 1
electric 1
execute 1
friend 1
Commer@@ 1
cial 1
edit 1
Bull@@ 1
dozers 1
bulldoze 1
butlers 1
butle 1
burglers 1
burgle 1
Aer@@ 1
onautics 1
Administration 1
squatulate 1
Mug@@ 1
wump 1
Wordnik 1
adore 1
impx 1
Small@@ 1
timore 1
oles 1
Under 1
Arm@@ 1
TEDxRio 1
our@@ 1
acabe 1
ngRay 1
zbert 1
zarro 1
gastøl 1
jølfjell 1
rdal 1
kenes 1
Tromsø 1
d-Norge 1
Troll@@ 1
Telemark 1
Comedy 1
rushevsky 1
Vasiliy 1
skaya 1
ustin 1
Mindless 1
Accept 1
Syndrome 1
tentative 1
accept 1
maybe 1
Christo@@ 1
bric 1
gothèque 1
zzly 1
gur 1
martre 1
Yeasayer 1
Shows 1
Plan@@ 1
ètes 1
tecno 1
marantos 1
Zé 1
bir 1
Tbilisi 1
Shoes 1
khaBrakha 1
Tomi 1
brero 1
band@@ 1
coc@@ 1
tail 1
irinha 1
pisco 1
Chech@@ 1
Bey@@ 1
cine-trance 1
jathilan 1
Umbanda 1
ayahuasca 1
pibo 1
Híbridos 1
scilla 1
Telmon 1
Muito 1
obrigado 1
ecife 1
jungle 1
Income 1
29-@@ 1
Domestic 1
Product 1
Kuz@@ 1
d- 1
acinetobacter 1
inetobacter 1
linezo@@ 1
daptomycin 1
bacteriophages 1
probiotics 1
quorum 1
sensing 1
synbiotics 1
XDR 1
Mauri@@ 1
miraal 1
binho 1
Vitor 1
ural 1
Are@@ 1
vena 1
eves 1
wikwasut 1
inuxw 1
phinx 1
Pyramids 1
quadrocopter 1
onsky 1
anne 1
ssan 1
Elena 1
gman 1
Ket@@ 1
terle 1
teau 1
Leviathan 1
FI@@ 1
tronic 1
Wifi 1
krumah 1
Ny@@ 1
erere 1
agame 1
jaonary 1
Ivy 1
Sudan@@ 1
nucleotide 1
II@@ 1
amy@@ 1
dhekela 1
balpur 1
ez 1
Parti@@ 1
Party 1
keyboard 1
Stockh@@ 1
ausen 1
uy-@@ 1
tis@@ 1
sapiens 1
Bogot@@ 1
Smoke 1
v.v@@ 1
mbo 1
opi@@ 1
moon 1
kso 1
Bion@@ 1
ics 1
Planetary 1
snacks 1
Bloom@@ 1
sday 1
Ulysses 1
pastel 1
Angels 1
opic 1
moth 1
barian 1
ỉa 1
adenfreude 1
Twitters 1
edu@@ 1
visa 1
elites 1
kita 1
Hulk 1
hulk 1
Ignorance 1
diksvall 1
Tidy 1
Boots 1
xious 1
Clock 1
polysty@@ 1
Jama@@ 1
kira 1
yawaki 1
Production 1
junka 1
eiderman 1
jubilaci@@ 1
tor@@ 1
thank 1
znos 1
aguerre 1
mandy 1
Hendri@@ 1
sp@@ 1
angled 1
banner 1
lyKohnSucks 1
c- 1
enta 1
winyi 1
dawar 1
Gafic 1
rebrenica 1
Kentu@@ 1
Chaouni 1
oni 1
Takako 1
Tajima 1
plexiglass 1
EKG 1
Tomas 1
chhausen 1
thrin 1
Molecular 1
lipbook 1
check-in 1
Shih 1
hoo@@ 1
bun@@ 1
quixotry 1
lem 1
rupt 1
Out@@ 1
fielder 1
Ỗ@@ 1
L-@@ 1
Truman 1
Tessie 1
sk@@ 1
Wynn 1
Bog@@ 1
Webley 1
luciferase 1
luciferin 1
cà-@@ 1
iể@@ 1
hail 1
honesty 1
authenticity 1
integrity 1
ahhhhh 1
brrrrrrrrrr 1
Rrrrrrr 1
Ở@@ 1
lap 1
while 1
math@@ 1
random@@ 1
amplifier 1
metrak 1
ocarina 1
C2 1
deerstalker 1
w0rd 1
Lorrie 1
Faith 1
Cranor 1
NI@@ 1
ST 1
Amazon@@ 1
hash 1
hashing 1
correct 1
Correc@@ 1
there 1
three 1
plan 1
builds 1
sure 1
determines 1
red 1
drug 1
fri@@ 1
vadasabi 1
Tepper 1
nical 1
justin 1
princess 1
loveyou 1
É@@ 1
YOLO 1
only 1
hashtag 1
chad 1
WMD 1
recombobulation 1
area 1
toed 1
desirability 1
colonize 1
balcony 1
bal-COE-nee 1
incentivize 1
skim 1
decimate 1
notice 1
wyneth 1
trow 1
ụ-c@@ 1
Sunstein 1
alFamilyReunion.org 1
scoop 1
TransCanada 1
ostoevsky 1
jackpotting 1
ngeons 1
Dra@@ 1
gons 1
Hackers 1
copy-@@ 1
paste 1
malware 1
Love@@ 1
outer 1
Zucker@@ 1
beg 1
Morse 1
Met 1
Down 1
ẻm 1
Pha@@ 1
Smol@@ 1
enskaya 1
api@@ 1
Air@@ 1
ry-Wehmiller 1
Flint@@ 1
Typhoid 1
grats 1
pudding 1
Encounters 1
Watchmen 1
Wilma 1
playlist 1
H.G. 1
Metamorphosis 1
caster 1
mie 1
Guys 1
Tango 1
Flu@@ 1
shing 1
refresh 1
Sla@@ 1
Z9A24 1
eromone 1
androstenol 1
androstenone 1
androsten@@ 1
edi@@ 1
oist 1
hi-@@ 1
dro 1
ol@@ 1
dgett 1
Stand@@ 1
éc 1
Čapek 1
robota 1
Asi@@ 1
mow 1
xonMobil 1
Skipper 1
sprinter 1
Tucker 1
Body 1
Types 1
Player 1
cham 1
rouj 1
thimerosal 1
valproic 1
neys 1
vat@@ 1
ophilia 1
Ishii 1
Hamish 1
W.A. 1
ksilver 1
S.@@ 1
ézanne 1
Unknown 1
sterpiece 1
Honor@@ 1
zac 1
Trial 1
Elli@@ 1
yner-Kersee 1
tauri 1
shade 1
throp 1
rumman 1
star@@ 1
íp-@@ 1
py 1
gic 1
ebuhr 1
Gif@@ 1
deavour 1
Navy 1
thesda 1
tuỵ@@ 1
Sengeh 1
Seng@@ 1
TED2014 1
tip 1
gran@@ 1
point 1
Yards 1
dock 1
Walkers 1
Thunderclap 1
cino 1
dison 1
vitam@@ 1
po-Provera 1
visceral 1
ebe 1
ởn 1
zie 1
ffodil 1
Breaking 1
Bad 1
ram 1
Zimmer 1
fferty 1
Takuya 1
Amp@@ 1
ulex 1
pressa 1
nor@@ 1
Liber@@ 1
sat 1
Toxoplasma 1
Rae 1
ortlandt 1
pian 1
HO@@ 1
Ted@@ 1
icy 1
Medicare 1
drin 1
xenon 1
oxygen 1
brown 1
recluse 1
iển 1
tocotylus 1
illigan 1
pad 1
pana 1
orangutan 1
wil@@ 1
openhauer 1
Spit@@ 1
fires 1
Long@@ 1
VocaliD 1
vocal 1
ọ@@ 1
aaaaah 1
VocaliD.org 1
Improvement 1
evich 1
merunners 1
Tiju@@ 1
Tijuana-San 1
Mex@@ 1
cio 1
muda 1
confi@@ 1
cker 1
chstein 1
alahari 1
hardt 1
Oven 1
Change@@ 1
Liquidsore29 1
qi@@ 1
sore29 1
White@@ 1
boy 1
tierrez 1
massive 1
open 1
course@@ 1
Whoop-de-do 1
wolowo 1
Oba@@ 1
femi 1
crate 1
ik 1
khart 1
tschinger 1
aspberry 1
KPIs 1
Vig 1
nudstorp 1
Robotic 1
marimba 1
apper 1
Sang@@ 1
Imagine 1
wooo 1
toll 1
dolozi 1
hlongo 1
Welcome 1
diba 1
IN@@ 1
gadishu 1
Abha 1
macarons 1
ýp 1
bria 1
Am 1
happy 1
hour 1
zero 1
heptyl 1
hexyl 1
Total 1
Eternal 1
potless 1
kin@@ 1
sulin 1
cos@@ 1
homeostasis 1
nee@@ 1
ow@@ 1
glu@@ 1
zơ 1
uwankara 1
palyanku 1
kanyintjaku 1
đẹ@@ 1
Strait 1
shnu 1
Apar@@ 1
theid 1
