, 156165
. 132514
the 103064
to 65635
of 60273
and 56347
a 54170
that 46612
I 43615
in 38606
is 33488
you 33031
it 30667
&apos;s 29554
we 28450
And 23335
this 21399
&quot; 18909
was 15982
for 15410
are 14457
have 14205
they 13834
on 13281
with 13278
-- 12581
can 12286
? 11882
So 11722
&apos;t 11692
what 11481
about 11110
be 10398
at 9578
as 9511
not 9424
all 9359
do 9107
my 8764
&apos;re 8653
there 8636
people 8555
It 8397
like 8213
from 8203
one 8090
so 7743
an 7382
but 7319
: 7189
our 7061
just 6902
The 6667
We 6642
But 6585
or 6584
these 6485
me 6460
if 6430
very 6311
out 6176
them 6138
by 5951
when 5876
more 5864
going 5788
up 5765
know 5703
because 5633
had 5446
he 5442
your 5379
their 5294
how 5292
who 5288
think 5253
were 5227
see 5218
which 5154
would 5085
really 5081
get 4904
us 4751
&apos;ve 4639
&apos;m 4604
world 4467
here 4415
You 4409
then 4364
This 4358
time 4344
has 4245
actually 4204
some 4202
way 4184
into 4150
don 4054
years 3990
Now 3895
things 3874
will 3867
now 3837
other 3799
want 3716
They 3703
where 3647
could 3637
make 3609
go 3547
been 3477
said 3356
something 3200
than 3177
much 3120
no 3117
two 3047
first 3025
those 2983
also 2953
right 2920
thing 2863
life 2781
look 2772
little 2768
she 2764
In 2755
back 2750
say 2750
got 2725
his 2724
That 2709
work 2690
need 2655
only 2635
over 2601
What 2594
most 2566
even 2532
many 2478
; 2445
take 2445
new 2401
did 2390
lot 2358
around 2333
good 2293
different 2279
her 2258
There 2253
kind 2248
through 2160
&apos;ll 2075
down 2072
same 2023
every 2016
Well 2006
being 2005
use 1991
He 1982
come 1956
If 1941
day 1922
doing 1905
put 1800
any 1796
called 1768
percent 1763
talk 1759
&apos;d 1753
why 1750
three 1744
made 1719
tell 1656
own 1609
change 1604
find 1604
fact 1601
year 1600
well 1588
today 1583
didn 1569
idea 1541
brain 1540
started 1501
human 1496
Thank 1494
should 1490
great 1480
its 1475
went 1466
big 1453
after 1452
last 1445
before 1432
thought 1431
important 1429
might 1416
able 1413
let 1404
problem 1397
course 1390
give 1385
better 1377
story 1369
never 1359
still 1359
part 1340
show 1329
came 1313
off 1302
When 1302
&apos; 1297
together 1289
next 1287
each 1279
another 1276
start 1268
system 1267
A 1257
between 1254
ago 1240
few 1237
him 1235
does 1226
How 1211
love 1202
again 1198
used 1198
bit 1195
question 1194
place 1189
data 1176
found 1165
too 1165
mean 1164
women 1163
example 1149
end 1138
done 1122
Because 1120
understand 1114
live 1103
doesn 1100
wanted 1096
technology 1090
looking 1086
always 1069
believe 1069
long 1067
call 1065
school 1061
water 1061
real 1055
children 1054
money 1051
point 1045
person 1030
ever 1026
working 1022
away 1016
sort 1010
may 1010
whole 1008
help 1000
information 997
four 994
feel 993
trying 989
kids 987
10 984
create 984
try 982
country 974
using 956
means 955
My 944
million 927
become 927
food 923
maybe 920
power 918
home 913
took 907
thinking 905
less 900
everything 899
One 890
future 883
says 883
quite 883
! 877
space 875
five 868
old 866
enough 862
best 862
number 862
lives 853
comes 852
small 851
light 851
second 850
making 847
getting 845
Why 844
social 843
She 842
These 835
energy 835
body 834
design 822
ask 820
times 815
sense 809
happened 808
left 806
man 806
countries 804
probably 802
makes 796
without 795
talking 792
am 787
dollars 783
Let 782
told 775
experience 774
pretty 766
learn 765
moment 757
across 754
science 752
such 752
happen 752
interesting 752
simple 749
cells 745
For 743
ways 742
saw 734
case 733
build 732
room 731
living 730
asked 729
Here 725
stuff 720
building 718
family 717
anything 715
else 714
inside 713
hard 713
men 710
happens 709
goes 705
coming 704
&#91; 704
&#93; 704
process 701
while 698
later 696
reason 696
No 686
yet 683
problems 683
As 680
side 679
music 674
days 671
wrong 670
half 668
having 668
health 666
single 666
seen 663
business 663
care 662
someone 659
myself 658
book 657
bad 655
mind 654
words 653
young 653
high 652
saying 650
often 648
play 648
project 646
move 645
within 643
hand 640
ideas 640
looked 639
20 638
All 637
whether 636
possible 635
far 635
billion 633
picture 633
city 628
nothing 622
language 622
once 622
New 621
answer 621
community 619
true 618
computer 617
both 616
global 616
Africa 616
matter 615
video 615
control 613
set 613
keep 608
almost 605
child 603
top 601
age 601
form 599
hope 599
public 593
basically 592
heard 591
imagine 588
looks 583
already 580
decided 580
works 580
history 579
face 578
job 578
guy 576
read 576
remember 573
sure 573
built 573
research 572
Earth 572
bring 571
&amp; 570
amazing 570
group 566
stories 566
United 565
six 563
Okay 562
car 560
piece 560
couple 560
beautiful 559
wasn 558
months 557
education 554
minutes 549
became 547
open 547
word 547
taking 546
order 546
government 545
until 545
share 543
friends 541
under 541
society 540
though 540
universe 540
everybody 538
woman 538
run 535
learned 535
themselves 533
art 529
heart 528
exactly 528
created 528
States 526
30 525
gets 525
TED 524
Internet 523
turn 523
night 523
huge 522
China 519
completely 518
— 517
study 515
happening 515
cancer 513
knew 512
planet 509
questions 508
hours 506
somebody 505
hear 503
places 501
nature 500
isn 500
kinds 500
itself 499
environment 498
shows 497
model 496
ourselves 494
against 493
... 493
difference 491
everyone 490
head 489
stop 488
ones 487
Then 484
others 483
since 482
game 482
past 480
students 479
name 478
gave 477
worked 476
sometimes 475
level 474
50 474
sound 471
company 471
line 470
entire 469
rather 469
must 468
state 467
won 467
couldn 464
Oh 464
India 464
thousands 463
news 462
mother 461
particular 461
large 459
American 458
America 457
disease 457
front 457
outside 453
changed 452
learning 451
war 451
happy 451
takes 449
powerful 449
house 447
figure 447
God 446
systems 443
population 443
early 440
100 439
turns 438
instead 437
during 435
guys 434
least 434
species 433
lots 431
machine 430
spend 430
U.S. 429
Or 427
animals 427
culture 426
realized 425
yourself 424
cell 423
third 423
along 422
easy 422
At 422
given 422
per 421
team 419
behind 416
needed 415
oil 414
difficult 413
simply 413
natural 412
needs 411
image 409
free 406
finally 406
century 404
father 404
grow 404
companies 404
leave 403
economic 403
felt 399
eyes 399
paper 398
air 396
close 395
media 394
area 394
turned 394
political 393
certain 392
full 389
value 389
black 389
People 388
taken 388
walk 388
seeing 387
spent 387
perhaps 387
moving 386
cannot 386
middle 382
local 381
parts 381
size 380
hands 379
view 378
Do 377
seven 376
longer 374
quickly 374
began 373
wonderful 373
amount 372
beginning 372
eat 370
growth 368
parents 367
terms 367
speak 366
behavior 365
York 364
15 364
lost 362
death 362
cities 359
week 358
To 358
write 355
based 355
complex 354
images 353
rest 353
Is 352
tried 352
Our 350
common 350
Some 350
Yes 350
deal 347
friend 347
morning 347
test 346
step 346
eight 345
cost 343
weeks 342
born 342
average 342
attention 342
sitting 341
ability 341
feeling 339
reality 339
wouldn 338
pay 337
either 337
whatever 337
Yeah 337
knowledge 336
personal 336
DNA 336
books 336
interested 334
economy 334
changes 334
growing 334
brought 333
opportunity 333
buy 333
fear 332
giving 332
developed 331
Just 330
girl 330
green 330
On 329
physical 328
English 327
land 327
tools 326
gone 326
seems 326
die 326
voice 325
animal 325
field 324
watch 324
known 324
lab 324
stage 324
scale 321
realize 321
ground 321
poor 321
individual 320
/ 319
issue 319
film 318
structure 318
numbers 317
wrote 316
short 316
challenge 315
developing 315
key 314
scientists 314
running 314
material 314
red 314
creating 313
incredible 313
understanding 312
access 312
playing 312
Can 311
starting 311
humans 310
climate 309
audience 309
save 309
girls 309
writing 307
Chinese 307
fun 306
millions 306
Right 306
met 305
focus 305
market 304
solution 304
knows 303
literally 302
alone 301
anyone 299
areas 298
telling 298
seem 298
blue 297
gives 297
40 296
innovation 296
online 296
ice 296
hold 296
rate 296
asking 295
baby 294
solve 294
product 293
program 292
network 292
hundreds 291
patients 291
stand 291
thank 291
experiment 291
By 289
result 289
risk 289
discovered 288
showed 288
clear 288
teach 288
nice 287
cool 287
theory 287
patient 286
Not 285
generation 284
OK 284
box 284
type 284
modern 284
changing 284
bottom 283
dead 283
phone 283
forward 283
force 282
feet 282
produce 281
normal 281
especially 281
aren 281
pictures 281
center 279
incredibly 278
surface 278
success 278
blood 277
teachers 277
movement 277
talked 277
materials 277
kid 277
explain 277
cars 277
impact 276
potential 276
industry 276
development 275
games 275
relationship 274
fly 273
white 273
support 273
World 272
act 272
meet 272
led 272
resources 271
involved 271
eye 271
absolutely 271
present 271
okay 270
chance 270
haven 270
soon 269
issues 269
sounds 267
ocean 267
begin 266
fast 266
sleep 265
groups 264
available 264
happiness 264
deep 263
schools 263
tiny 263
Europe 263
Google 263
beyond 263
message 262
cut 262
technologies 262
democracy 261
journey 261
allow 261
send 261
major 261
situation 260
hit 260
sex 260
shape 259
South 259
device 259
choice 258
rules 258
color 258
recently 257
hundred 257
projects 256
table 256
cause 256
robot 256
Where 254
truth 254
yes 254
miles 254
street 253
son 253
individuals 253
died 252
tells 252
becomes 252
map 252
walking 252
designed 252
likely 252
stay 251
approach 251
putting 251
digital 251
memory 251
office 251
guess 250
bigger 249
creative 248
Maybe 247
After 246
reasons 246
effect 245
vision 244
Every 244
medical 244
First 244
similar 243
evidence 243
Of 243
month 243
results 243
smart 243
special 242
fight 242
dark 242
12 242
lived 242
law 242
towards 241
everywhere 241
lt 240
favorite 240
crazy 240
strong 239
drive 239
action 239
carbon 239
scientific 238
quality 238
ready 238
lose 238
starts 238
develop 238
basic 238
teacher 237
software 237
certainly 237
West 237
measure 236
gt 236
biggest 236
With 236
taught 236
examples 236
leaders 235
meaning 234
onto 234
low 234
perfect 234
em 233
moved 233
obviously 233
sit 233
boy 232
violence 232
particularly 232
Don 232
camera 232
drug 232
computers 232
showing 231
East 230
dream 229
spread 229
communities 229
faster 229
moral 228
code 228
choose 228
waste 228
listen 228
worth 227
25 227
general 227
song 227
fish 227
response 227
indeed 226
Are 226
decisions 226
region 225
student 225
break 225
add 225
fall 225
road 224
follow 224
totally 224
further 224
lead 224
several 224
reach 223
drugs 223
Even 223
brains 222
nine 222
plan 222
worse 222
tool 221
mental 220
watching 219
nobody 219
connected 219
safe 218
content 218
wants 218
training 218
jobs 218
minute 217
grew 217
mine 217
Look 217
shown 217
trust 217
TV 217
allowed 216
wish 216
class 216
sea 215
bodies 215
studies 214
activity 214
meant 214
wait 214
including 214
trees 214
largest 213
continue 213
suddenly 213
anybody 213
Most 213
objects 213
village 213
pain 212
Who 212
notice 212
kill 212
sun 212
rich 212
national 211
forms 211
hour 211
peace 211
buildings 211
income 211
positive 210
expect 210
named 210
ended 210
re@@ 210
crisis 210
eventually 210
movie 210
context 209
plant 209
among 209
conditions 208
period 208
wife 208
interest 208
traditional 208
truly 208
compassion 208
source 208
HIV 208
poverty 207
killed 207
hospital 207
anymore 206
plants 206
un@@ 205
extremely 205
conversation 205
revolution 205
pick 205
allows 204
excited 204
David 204
late 204
products 204
mass 204
finding 204
politics 204
points 203
provide 203
math 203
alive 203
solutions 203
screen 203
solar 203
artist 203
sorts 202
kept 202
skin 202
cases 202
exciting 201
specific 201
Which 201
listening 201
skills 201
extraordinary 200
door 200
Today 200
freedom 200
role 200
200 200
societies 200
reading 199
goal 199
service 199
fire 199
models 198
North 198
loved 198
position 198
-@@ 198
successful 197
hot 197
college 197
families 197
fine 196
list 195
sent 195
Imagine 195
evolution 195
expensive 195
impossible 194
anywhere 194
neurons 194
bunch 194
machines 194
robots 194
higher 193
Americans 193
above 192
60 192
magic 192
critical 191
main 191
types 190
somewhere 190
supposed 190
famous 190
series 190
doctors 190
pieces 189
raise 189
wall 189
usually 189
larger 189
funny 189
recognize 189
upon 189
doctor 189
patterns 189
greater 188
talks 188
object 188
University 188
page 188
treatment 188
becoming 188
uses 187
perspective 187
travel 187
seconds 187
tend 187
thousand 186
pattern 186
actual 186
teaching 186
Those 186
rise 186
rights 186
written 185
11 185
minds 185
somehow 185
molecules 184
effective 184
site 184
legs 183
familiar 183
concept 183
train 183
Your 183
John 183
wind 183
beauty 183
version 183
security 182
consider 182
conflict 182
shared 181
standing 181
bed 181
smaller 181
financial 181
engineering 181
self 181
healthy 180
complicated 180
increase 179
bacteria 179
fundamental 179
costs 179
organizations 179
babies 179
organization 178
80 178
levels 178
connection 178
plastic 178
decades 178
humanity 178
website 178
progress 178
visual 178
dangerous 177
policy 177
beings 177
older 177
Western 177
connect 177
current 177
Afghanistan 177
essentially 177
mom 177
lower 176
African 176
genes 176
female 176
please 176
record 175
hole 175
forth 175
protect 175
practice 175
weight 174
immediately 174
store 174
genetic 174
throughout 174
surgery 174
lines 173
board 173
wonder 173
remarkable 173
biology 173
creativity 173
win 173
electricity 173
pull 172
path 172
surprising 172
evolved 172
mobile 172
fantastic 172
Like 172
decision 171
architecture 171
production 171
exist 171
following 170
citizens 170
television 170
police 170
clearly 169
serious 169
waiting 169
earlier 169
Another 169
From 168
speed 168
challenges 168
walked 168
understood 168
sell 168
services 168
draw 168
career 167
final 167
international 167
18 166
emotional 166
improve 166
private 166
helped 166
stress 166
unique 166
strange 166
speaking 165
City 165
cold 165
environmental 165
focused 165
price 165
military 164
whose 164
himself 164
eating 164
race 163
medicine 163
performance 163
S@@ 163
function 163
intelligence 163
choices 163
experiments 163
therefore 163
massive 162
except 162
Two 162
slightly 162
fit 162
blind 162
subject 161
ran 161
values 161
useful 161
dance 161
track 161
decide 161
weren 161
aware 161
recent 161
creates 161
lights 161
touch 160
near 160
physics 160
cultural 159
task 159
yeah 159
networks 159
summer 159
complexity 159
meeting 158
daughter 158
sat 158
His 158
direction 158
willing 157
invented 157
oh 157
treat 157
secret 157
$ 157
prison 157
instance 157
nuclear 157
square 157
Facebook 156
spending 156
slide 156
active 156
answers 156
temperature 156
90 155
London 155
survive 155
inspired 155
coffee 155
dying 155
event 155
ahead 155
obvious 155
driving 155
differences 155
decade 154
boys 154
search 154
stars 154
slow 154
shares 153
clean 153
explore 153
party 153
popular 153
speech 153
greatest 153
artists 152
birds 152
Middle 152
brings 152
Many 152
tree 152
gas 152
identity 151
paid 151
dad 151
birth 151
central 151
streets 151
causes 151
diseases 151
various 151
range 151
highly 151
terrible 150
afraid 150
noticed 150
worst 150
capacity 150
virus 150
flying 149
shot 149
etc 149
radio 149
War 149
directly 149
trial 149
communicate 149
published 149
sustainable 149
forget 148
press 148
flow 148
scientist 148
glass 147
Instead 147
Have 147
standard 147
Dr. 147
experiences 146
spaces 146
sign 146
floor 146
twice 146
missing 146
states 146
male 146
push 145
nation 145
photograph 145
trouble 145
knowing 145
sharing 145
leadership 145
join 144
closer 144
stopped 144
Think 144
California 144
mostly 144
possibly 144
extra 144
Take 144
institutions 144
below 143
purpose 143
complete 143
aid 143
devices 143
basis 143
forces 142
pass 142
colleagues 142
chemical 142
conference 142
autism 142
molecule 141
communication 141
moments 141
opportunities 141
reduce 141
dog 140
played 140
produced 140
carry 140
trade 140
Iraq 140
corruption 140
helping 139
A@@ 139
Chris 139
bringing 139
feels 139
hearing 139
original 139
traffic 139
bread 139
passed 138
rule 138
structures 138
supply 138
programs 138
effort 137
faces 137
consciousness 137
nearly 137
quick 137
opposite 137
500 137
shift 137
fully 137
members 136
apart 136
degrees 136
studying 136
forest 136
foot 136
16 136
significant 136
web 136
return 136
emotions 135
passion 135
straight 135
National 135
relationships 135
religion 135
importantly 134
husband 134
drop 134
sand 134
bought 133
anyway 133
lucky 133
necessary 133
agree 133
tissue 133
AIDS 133
held 132
Great 132
Actually 132
failure 132
benefits 132
70 132
forever 132
interact 132
address 132
urban 132
condition 132
saving 132
Indian 132
engine 132
although 131
apply 131
cover 131
differently 131
stick 131
vote 131
town 131
feed 131
entirely 131
Hey 131
wisdom 131
turning 131
easily 131
bone 131
civil 131
arm 130
3D 130
lesson 130
core 130
imagination 130
photo 130
stem 130
sky 130
text 129
leading 129
14 129
broken 129
events 129
majority 129
laws 129
achieve 129
colors 129
atmosphere 128
enormous 128
ancient 128
matters 128
Bill 128
sexual 128
However 128
responsible 128
statistics 128
worry 128
Audience 128
cloud 128
British 127
U.K. 127
Mr. 127
engage 127
describe 127
dollar 127
smell 127
mission 127
deeply 127
related 127
diversity 127
vast 126
landscape 126
crime 126
classroom 126
suffering 126
attack 126
foreign 126
oxygen 126
infrastructure 125
received 125
Japan 125
method 125
benefit 125
fix 125
French 125
fashion 125
governments 125
random 125
workers 125
painting 125
total 125
fascinating 124
dreams 124
heat 124
fighting 124
argument 124
effects 124
users 124
none 124
la 123
extreme 123
photos 123
Sometimes 123
justice 123
responsibility 123
gotten 123
interaction 123
researchers 123
zero 123
afford 123
bees 123
shoes 122
sector 122
throw 122
Once 122
shouldn 122
strategy 122
loss 122
balance 122
Over 121
equal 121
despite 121
seemed 121
Again 121
compared 121
Everybody 121
corner 121
10,000 121
raised 121
300 121
window 121
term 121
adults 121
creatures 121
definition 120
Brazil 120
cycle 120
voices 120
An 120
pressure 120
Big 120
affect 120
transform 120
gay 120
GDP 120
meters 119
offer 119
deliver 119
collective 119
perfectly 119
dinner 119
Go 119
managed 119
capital 119
legal 119
biological 119
protein 119
breast 119
report 118
Did 118
drawing 118
married 118
park 118
character 118
13 118
European 118
Would 117
typical 117
email 117
rock 117
stuck 117
respect 117
mountain 117
thinks 117
Asia 117
tremendous 117
farmers 117
account 117
Arab 117
fuel 117
possibility 116
names 116
easier 116
distance 116
calls 116
discovery 116
flu 116
failed 116
lack 116
target 116
belief 116
leads 116
invisible 116
amp 116
insects 116
discover 115
check 115
hate 115
visit 115
note 115
24 115
investment 115
experts 115
bank 115
versus 115
figured 115
equipment 114
languages 114
profound 114
genome 114
de 114
billions 114
sudden 114
holding 114
emotion 114
sick 114
helps 114
watched 114
quote 114
childhood 114
due 114
notion 114
limited 114
bridge 114
desire 114
studied 114
giant 114
fairly 114
detail 113
houses 113
keeping 113
everyday 113
graph 113
necessarily 113
ball 113
campaign 112
hidden 112
daily 112
Japanese 112
collect 112
Iran 112
designer 112
facts 112
planning 112
influence 112
Mexico 112
moves 111
1,000 111
leaving 111
edge 111
joy 111
leader 111
brand 111
background 111
planets 111
businesses 111
chair 111
Mars 111
San 110
ate 110
paint 110
capable 110
degree 110
wearing 110
surprise 110
brother 110
depression 110
struggle 110
See 110
respond 110
argue 110
grown 110
advantage 110
mouse 110
opened 110
Very 110
mothers 110
17 110
increasingly 109
followed 109
essential 109
ship 109
university 109
electrical 109
markets 109
creation 109
invited 109
Australia 109
enjoy 109
damage 109
Israel 108
neighborhood 108
negative 108
liked 108
hair 108
begins 108
sold 108
losing 108
lunch 108
feedback 108
vaccine 108
wear 108
survival 108
predict 108
homes 108
aging 108
letter 108
proud 108
yellow 107
finished 107
experienced 107
surprised 107
comfortable 107
spirit 107
block 107
river 107
separate 107
meat 107
School 107
trained 107
constantly 107
Einstein 107
magazine 107
associated 106
sorry 106
beat 106
avoid 106
phenomenon 106
sister 106
competition 106
threat 106
cheap 106
concerned 106
rid 106
universal 106
date 106
characters 106
suggests 105
rural 105
Washington 105
perception 105
gift 105
described 105
More 105
Twitter 105
sing 105
shapes 105
Yet 105
wild 105
dimensions 105
George 105
weapons 105
Thanks 105
believed 105
mouth 105
ultimately 105
airplane 105
killing 105
20th 104
Each 104
honest 104
tough 104
P@@ 104
elements 104
worldwide 104
charge 104
in@@ 104
grade 104
cognitive 104
labor 104
letters 104
brilliant 104
organs 104
holes 104
catch 104
Kenya 104
flight 103
normally 103
faith 103
star 103
base 103
identify 103
compare 103
engineers 103
factory 103
E@@ 102
arms 102
spot 102
analysis 102
expression 102
England 102
facing 102
Could 102
filled 102
economics 102
efficient 102
museum 102
sad 102
Charles 102
harder 102
Canada 102
marriage 102
moon 102
noise 102
highest 102
breath 102
generations 101
valuable 101
safety 101
illness 101
slowly 101
operating 101
theater 101
leaves 101
strength 101
distribution 101
industrial 101
B 101
soldiers 101
appear 101
era 101
construction 101
sugar 101
organic 100
chemistry 100
non-@@ 100
hasn 100
dots 100
earth 100
currently 100
Good 100
caused 100
commercial 100
multiple 100
gap 100
fail 100
details 100
artificial 100
wealth 100
puts 99
passionate 99
professional 99
testing 99
count 99
whom 99
weird 99
radical 99
considered 99
ordinary 99
demand 98
steps 98
awesome 98
paying 98
phones 98
jump 98
fell 98
property 98
Women 98
employees 98
Second 98
invest 98
400 98
rain 98
Paul 98
wondering 98
cultures 97
self-@@ 97
unfortunately 97
article 97
caught 97
MIT 97
While 97
asks 97
seriously 97
consequences 97
collection 97
sentence 97
swim 97
bubble 97
interface 96
otherwise 96
opening 96
scene 96
2008 96
religious 96
musical 96
walls 96
pleasure 96
feelings 96
empty 96
s 96
awful 96
fair 96
ing 96
tens 96
contact 96
gene 96
election 96
pages 95
unless 95
engineer 95
round 95
hadn 95
malaria 95
9 95
virtual 95
partner 95
treated 95
Everything 95
photographs 95
represent 95
videos 95
penguins 95
plane 94
clinical 94
curious 94
molecular 94
specifically 94
leg 94
according 94
sharks 94
pounds 94
remote 94
manage 94
tomorrow 94
unexpected 94
bus 94
convinced 94
Times 94
whenever 94
prevent 94
democratic 94
station 94
diet 93
sending 93
Does 93
chain 93
Their 93
finish 93
expected 93
wood 93
professor 93
spoke 93
released 93
empathy 93
fewer 93
covered 93
Come 93
soil 93
resource 93
vehicle 93
accident 92
president 92
equivalent 92
Street 92
promise 92
affected 92
deeper 92
grandmother 92
match 92
arrived 92
underneath 92
lies 92
politicians 92
Three 92
pollen 92
warming 92
weather 91
thoughts 91
importance 91
stood 91
direct 91
organized 91
launched 91
hopefully 91
saved 91
techniques 91
2 91
heads 91
circle 91
algorithms 91
sources 91
debate 90
define 90
user 90
dogs 90
dry 90
picked 90
lifetime 90
singing 90
players 90
Thomas 90
blocks 90
consumption 90
shop 90
gentlemen 90
ride 90
psychology 90
Adam 90
relatively 90
camp 90
Michael 90
printing 90
absolute 90
signal 90
arts 90
reaction 90
processes 89
fourth 89
narrative 89
king 89
worried 89
technical 89
calling 89
Harvard 89
Please 89
hell 89
forced 89
o 89
card 89
invention 89
intelligent 89
nations 89
prove 89
adult 89
hospitals 89
GPS 89
emissions 88
practical 88
organisms 88
gain 88
notes 88
hurt 88
emerging 88
budget 88
buying 88
switch 88
sides 88
vulnerable 88
foundation 88
battery 88
2,000 88
victims 88
require 88
goods 88
metaphor 88
link 88
requires 88
connections 88
driver 88
E 88
shark 88
wide 87
principle 87
fiction 87
toward 87
closed 87
designers 87
motion 87
nervous 87
management 87
infected 87
epidemic 87
heavy 87
evil 87
marketing 87
addition 87
independent 87
stronger 87
relevant 87
reward 87
topic 86
serve 86
lie 86
bits 86
risks 86
Germany 86
G@@ 86
mistakes 86
release 86
status 86
dynamic 86
smile 86
fill 86
Life 86
metal 86
island 86
civilization 86
folks 86
inner 86
newspaper 86
nose 86
transformation 86
location 86
mortality 86
signals 86
staff 86
ecosystem 86
producing 85
trials 85
memories 85
150 85
1 85
birthday 85
honor 85
lessons 85
accept 85
organ 85
drink 85
restaurant 85
effectively 85
double 85
exists 85
false 85
T@@ 85
Center 85
long-term 85
humor 85
ends 85
CO2 85
YouTube 85
gender 85
horse 85
da 85
exact 85
novel 85
regular 85
engaged 85
rates 85
Sun 85
print 84
grandfather 84
silence 84
actions 84
Since 84
spectrum 84
bottle 84
roughly 84
definitely 84
remain 84
personally 84
fold 84
3 84
driven 84
exercise 84
possibilities 84
bear 84
lady 84
stupid 84
alternative 83
D 83
layer 83
falling 83
farm 83
mention 83
insight 83
poetry 83
well-being 83
carefully 83
2010 83
kilometers 83
dramatic 83
introduced 83
tracking 83
fat 83
Haiti 83
cortex 83
James 83
tradition 83
principles 83
gun 83
meaningful 82
depends 82
row 82
roll 82
express 82
amounts 82
trick 82
designing 82
error 82
added 82
explains 82
cross 82
copy 82
generate 82
encourage 82
F@@ 82
platform 82
Al 82
liquid 82
Richard 82
dealing 81
mentioned 81
sees 81
C@@ 81
subjects 81
electric 81
fields 81
existing 81
interests 81
solving 81
re-@@ 81
B@@ 81
selling 81
seat 81
proteins 81
circumstances 81
scared 81
battle 81
fellow 81
rare 81
components 81
defined 81
Sweden 81
studio 81
protection 81
plans 81
35 81
wars 81
particles 81
sites 81
variety 80
typically 80
chose 80
sequence 80
participate 80
wine 80
acting 80
chicken 80
shame 80
peak 80
rapidly 80
Robert 80
carrying 80
accurate 80
45 80
constant 80
environments 80
capture 80
introduce 80
gold 80
tons 80
advice 80
Web 80
gravity 80
grid 79
joined 79
Re@@ 79
cutting 79
awareness 79
player 79
percentage 79
net 79
framework 79
root 79
Last 79
innovative 79
credit 79
Britain 79
fundamentally 79
Art 79
trip 79
worlds 79
graduate 79
hydrogen 79
unit 79
PM 79
unusual 79
economies 79
transition 79
senses 79
mathematics 79
goals 79
perform 78
controlled 78
authority 78
boat 78
confidence 78
replace 78
bike 78
applied 78
pair 78
wondered 78
funding 78
factor 78
sample 78
messages 78
forests 78
runs 78
operate 78
doubt 78
patent 78
galaxy 78
intellectual 78
mountains 78
movies 78
swimming 78
Los 78
interview 78
danger 78
Wow 78
member 78
plus 77
films 77
ed 77
opinion 77
atoms 77
concrete 77
Dan 77
element 77
setting 77
suggest 77
primary 77
medium 77
tumor 77
philosophy 77
lung 77
disaster 77
sweet 77
hoping 77
mix 77
Her 77
exchange 77
architect 77
combine 77
bright 77
manufacturing 77
collapse 77
click 77
solid 77
regions 77
Bank 77
economists 77
teams 77
passwords 77
21st 76
cave 76
fake 76
solved 76
increased 76
discussion 76
stream 76
fresh 76
traveling 76
polio 76
however 76
collaboration 76
oceans 76
processing 76
formed 76
100,000 76
sunlight 76
chemicals 76
string 76
factors 76
teeth 76
facial 76
instrument 76
animation 76
boxes 75
enter 75
computing 75
rational 75
behavioral 75
Only 75
yesterday 75
productive 75
2000 75
vaccines 75
movements 75
combination 75
option 75
warm 75
entrepreneurs 75
U.N. 75
resistance 75
cooking 75
conversations 75
sophisticated 74
behaviors 74
previous 74
therapy 74
applications 74
cents 74
sports 74
writer 74
centers 74
transportation 74
operation 74
severe 74
Russia 74
challenging 74
3,000 74
expert 74
Congress 74
de@@ 74
include 74
Obama 74
President 74
former 74
stands 74
destruction 74
author 74
tail 74
wave 73
ting 73
offers 73
reverse 73
mirror 73
miss 73
acts 73
generally 73
bird 73
agriculture 73
cure 73
cameras 73
busy 73
convince 73
2007 73
Perhaps 73
Talk 73
eggs 73
ought 73
steel 73
crowd 73
tea 73
mechanism 73
represents 73
ants 73
lifestyle 73
literature 72
prepared 72
correct 72
Nobody 72
parent 72
department 72
increasing 72
skill 72
dancing 72
pop 72
flowers 72
II 72
Also 72
mistake 72
samples 72
transformed 72
maps 72
bar 72
Pakistan 72
stayed 72
milk 72
illegal 72
conscious 72
situations 72
frame 72
parking 72
walks 72
iPhone 72
sustainability 72
Steve 72
Institute 72
earthquake 72
inspiration 72
German 72
May 72
Francisco 71
satellite 71
radiation 71
display 71
al 71
potentially 71
hits 71
options 71
sensitive 71
appropriate 71
physically 71
neighbors 71
intense 71
coast 71
Day 71
winter 71
ultimate 71
sets 71
pulled 71
determine 71
existence 71
75 71
identical 71
Gulf 71
somewhat 71
immune 71
Pole 71
signs 71
clouds 71
NASA 71
R 71
lay 71
Islamic 71
collecting 71
borders 71
tests 71
plays 71
hunger 71
motor 71
Wikipedia 71
laboratory 70
ant 70
detect 70
Everyone 70
Give 70
advanced 70
collected 70
south 70
joke 70
burning 70
globe 70
viruses 70
closely 70
er 70
waves 70
tonight 70
wake 70
allowing 70
equally 70
thanks 70
tape 70
Museum 70
interactive 70
embrace 70
centuries 70
technique 70
Paris 70
puzzle 70
ladies 70
vehicles 70
males 70
January 70
desert 70
properties 70
Derek 70
es 69
ated 69
admit 69
fears 69
Mark 69
painful 69
contrast 69
mainly 69
ears 69
keeps 69
Martin 69
activities 69
unknown 69
Nigeria 69
spreading 69
symptoms 69
broke 69
internal 69
arguments 69
implications 69
horrible 69
chart 69
lets 69
King 69
fund 69
R@@ 68
2009 68
Christmas 68
incentives 68
lying 68
hide 68
continent 68
Muslim 68
ring 68
September 68
chocolate 68
dropped 68
healthcare 68
pushing 68
conflicts 68
conclusion 68
Before 68
explained 68
underwater 68
kitchen 68
soul 68
Man 68
courage 68
phase 68
prefer 68
H@@ 68
Science 68
C 68
measuring 68
pregnant 68
attacks 68
obesity 68
designs 68
entertainment 68
ages 67
unlike 67
classes 67
conventional 67
quiet 67
dense 67
pure 67
surrounded 67
roads 67
Egypt 67
sight 67
records 67
prototype 67
largely 67
heroes 67
brothers 67
galaxies 67
insurance 67
relations 67
phrase 67
providing 67
invent 67
About 67
Manhattan 67
overall 67
advertising 67
struck 67
judge 67
D@@ 67
obsessed 67
Nobel 67
required 67
finance 67
reached 67
channel 67
section 66
nor 66
Basically 66
plate 66
M@@ 66
assume 66
grateful 66
State 66
Anyway 66
ideal 66
greenhouse 66
mystery 66
frankly 66
breathe 66
causing 66
angry 66
presence 66
faced 66
boring 66
Revolution 66
spoken 66
bias 66
length 66
launch 66
housing 66
19th 66
naturally 66
flower 66
disappear 66
consumer 66
bag 66
app 66
garden 66
mathematical 66
coal 66
pollution 66
mechanical 66
jail 66
liver 66
bold 65
papers 65
burn 65
latest 65
outcome 65
pocket 65
careful 65
Tom 65
signed 65
grab 65
nurses 65
remove 65
songs 65
Latin 65
suffer 65
north 65
protected 65
raw 65
visible 65
strangers 65
blog 65
cat 65
younger 65
efficiency 65
agencies 65
antibiotics 65
fingers 65
religions 65
apartment 65
diagnosed 65
Alzheimer 65
tribe 65
tested 65
methods 65
O@@ 65
continued 65
deaths 65
cards 65
handle 65
offered 64
classic 64
divide 64
academic 64
engagement 64
outcomes 64
input 64
abstract 64
reaching 64
shake 64
oxytocin 64
recorded 64
vulnerability 64
shoot 64
wherever 64
K@@ 64
mile 64
maintain 64
grain 64
toilet 64
dot 64
educational 64
functions 64
customers 64
violent 64
tall 64
shut 64
fascinated 64
flat 64
laugh 64
illusion 64
interactions 64
chip 64
sensors 64
angle 64
figures 64
likes 64
hearts 64
historical 64
grand 64
dozen 63
traveled 63
teenagers 63
ear 63
cheaper 63
post 63
2005 63
drives 63
volume 63
evolutionary 63
Finally 63
wise 63
theme 63
taste 63
roof 63
selection 63
relate 63
whereas 63
contribute 63
concepts 63
border 63
dictionary 63
4 62
Smith 62
component 62
tour 62
journalist 62
occurred 62
distributed 62
behave 62
volunteers 62
loop 62
shaped 62
ignorance 62
France 62
Foundation 62
furniture 62
frozen 62
poorest 62
commitment 62
cup 62
ingredients 62
equation 62
poem 62
claim 62
Joe 62
afternoon 62
happier 62
tax 62
raising 62
clever 62
ted 62
statement 62
technological 62
tries 62
attempt 62
Angeles 62
existed 62
library 62
partners 62
coral 62
cartoon 62
speaker 62
worker 62
windows 62
height 62
Five 62
wheel 62
master 62
precisely 62
translate 62
application 62
button 62
gray 62
practices 62
limits 62
wheelchair 62
Higgs 62
shock 61
en@@ 61
plenty 61
trend 61
Eric 61
official 61
rooms 61
combined 61
army 61
Eastern 61
feeding 61
sheep 61
evening 61
curve 61
rely 61
touched 61
appears 61
populations 61
seed 61
dramatically 61
hotel 61
Chicago 61
receive 61
appreciate 61
Boston 61
captured 61
three-dimensional 61
clothes 61
bomb 61
achieved 61
nowhere 61
stations 61
soft 61
seeds 61
Arabic 61
inequality 61
flies 60
Will 60
accessible 60
Project 60
increases 60
survey 60
mess 60
extent 60
adapt 60
cry 60
enemy 60
hungry 60
cook 60
climb 60
surely 60
destroy 60
hero 60
year-old 60
successfully 60
destroyed 60
church 60
hang 60
ts 60
wanting 60
Union 60
license 60
over@@ 60
Be 60
Health 60
golf 60
open-source 60
tribes 60
Really 60
herself 60
imagined 60
Unfortunately 60
photography 60
embedded 60
optimistic 60
elections 60
trillion 60
banks 59
Hi 59
Peter 59
imaging 59
aspects 59
director 59
villages 59
engaging 59
removed 59
remind 59
performing 59
breaking 59
zone 59
remains 59
21 59
divided 59
surgeon 59
disorder 59
scan 59
repair 59
meetings 59
expectations 59
laptop 59
cow 59
standards 59
invite 59
Next 59
oldest 59
wing 59
reference 59
charity 59
whales 59
whale 59
MRI 58
robotic 58
upper 58
celebrate 58
provided 58
appeared 58
react 58
evolve 58
instruments 58
gather 58
unlikely 58
consume 58
stable 58
piano 58
spinal 58
bet 58
proof 58
savings 58
95 58
Gates 58
knee 58
clock 58
delivered 58
tube 58
600 58
silent 58
bones 58
exploration 58
Darwin 58
split 58
van 58
expand 58
decline 58
Amazon 58
Islam 58
paintings 57
loud 57
aspect 57
chosen 57
injury 57
actor 57
morality 57
band 57
ignore 57
crying 57
beach 57
rising 57
breathing 57
suicide 57
anger 57
N@@ 57
reveal 57
efforts 57
Congo 57
missed 57
Prize 57
8 57
smoke 57
demonstrate 57
generated 57
style 57
Apple 57
scary 57
describes 57
astonishing 57
lovely 57
classical 57
succeed 57
presented 57
agenda 57
cats 57
criminal 57
fixed 57
shall 57
bicycle 57
shadow 57
telescope 57
speakers 57
regret 57
Gabby 57
makers 56
Rwanda 56
thrown 56
quest 56
properly 56
title 56
Bible 56
musicians 56
measured 56
conservation 56
spiritual 56
99 56
I@@ 56
Bang 56
essence 56
participants 56
depend 56
linked 56
functional 56
instantly 56
pool 56
exploring 56
thin 56
sphere 56
desk 56
In@@ 56
placed 56
beliefs 56
Valley 56
finds 56
symbol 56
represented 56
neuroscience 56
recovery 56
extinct 56
amongst 56
connecting 56
females 56
cartoons 56
agreed 56
fabric 56
grows 56
extract 56
debt 56
boundaries 55
season 55
neither 55
surprisingly 55
document 55
suit 55
letting 55
explanation 55
Remember 55
granted 55
cake 55
nets 55
failing 55
sticks 55
tied 55
23 55
corporate 55
presentation 55
origami 55
imagery 55
inspiring 55
rescue 55
logic 55
unclear 55
6 55
funded 55
spring 55
laser 55
T 55
axis 55
footprint 55
relative 55
units 55
cooperation 55
organize 55
talent 55
22 55
microscope 55
depending 55
Nothing 55
drone 55
truck 55
romantic 55
needle 55
sculpture 55
score 55
consumers 55
drill 55
drones 55
Girl 55
password 55
flew 54
i 54
stroke 54
50,000 54
Other 54
falls 54
policies 54
Get 54
flag 54
Something 54
floating 54
sensory 54
northern 54
struggling 54
returned 54
combat 54
advance 54
motivation 54
Act 54
affordable 54
neighborhoods 54
expectancy 54
ers 54
committed 54
proper 54
snow 54
institution 54
di@@ 54
privacy 54
underground 54
rat 54
&apos;@@ 54
recognition 54
minister 54
vessels 54
restore 54
bears 54
involves 54
Four 54
5 54
apple 54
hip 54
70s 54
locked 54
dinosaurs 54
occur 54
crops 53
clip 53
ten 53
produces 53
Indeed 53
Rio 53
richer 53
dis@@ 53
till 53
2004 53
depressed 53
protecting 53
sheet 53
tasks 53
distant 53
slides 53
personality 53
separated 53
discuss 53
dependent 53
permanent 53
shell 53
holds 53
hall 53
neighbor 53
ugly 53
carried 53
2003 53
recognized 53
ates 53
characteristics 53
ridiculous 53
features 53
dish 53
orbit 53
contains 53
zoom 53
Wall 53
crucial 53
density 53
automatically 53
foods 53
beer 53
baseball 53
mate 53
fan 53
reported 53
Muslims 53
stages 53
reform 53
usual 53
anxiety 53
apparently 53
Peace 53
profit 53
so-called 53
circuit 53
paradigm 53
Time 53
80s 53
chaos 53
muscles 52
explaining 52
tears 52
Ben 52
fossil 52
diverse 52
identified 52
entered 52
Ah 52
overcome 52
graphic 52
Pacific 52
visited 52
shopping 52
interacting 52
uncomfortable 52
searching 52
ensure 52
June 52
printed 52
afterwards 52
yours 52
Tony 52
ties 52
electronic 52
calculate 52
feature 52
poet 52
harm 52
limit 52
suppose 52
improved 52
fifth 52
strategies 52
barely 52
seek 52
continues 52
Department 52
Nature 52
sleeping 52
architects 52
dominant 52
attached 52
transplant 52
dung 52
Green 52
directions 52
impacts 52
lighting 52
colony 52
elephant 52
Mother 52
defense 52
fishing 52
dioxide 52
fathers 52
trends 52
capita 52
Voice 52
copyright 52
dolphins 52
provides 51
controlling 51
2006 51
pilot 51
Love 51
Howard 51
hackers 51
stops 51
improvement 51
Yorker 51
aside 51
gonna 51
served 51
drawn 51
painted 51
International 51
Stanford 51
dive 51
wireless 51
abuse 51
Henry 51
equality 51
chest 51
prepare 51
predictions 51
creature 51
researcher 51
ly 51
Should 51
ding 51
pack 51
contract 51
20,000 51
drivers 51
agricultural 51
orange 51
controls 51
physicist 51
5,000 51
agency 51
chairs 51
laid 51
psychological 51
enable 51
sum 51
mining 51
transparency 51
emergency 51
lawyers 51
estimate 51
pace 51
musician 51
Cambridge 50
colleague 50
Frank 50
L@@ 50
quarter 50
Korea 50
cheese 50
demonstration 50
thick 50
anti-@@ 50
curiosity 50
La 50
drinking 50
jazz 50
views 50
escape 50
east 50
globally 50
Children 50
flip 50
ending 50
27 50
productivity 50
uncertainty 50
elderly 50
robust 50
mice 50
secure 50
treating 50
De@@ 50
X-ray 50
toy 50
stores 50
meal 50
neural 50
assumptions 50
electronics 50
tricks 50
winning 50
tap 50
virtually 50
balloon 50
y 50
stone 50
fusion 50
House 49
detailed 49
fed 49
stock 49
disappeared 49
Con@@ 49
roots 49
loves 49
inevitable 49
soup 49
rarely 49
vegetables 49
scores 49
guide 49
luck 49
shocking 49
instructions 49
recording 49
Island 49
football 49
opens 49
picking 49
quantum 49
professionals 49
Fellow 49
staying 49
Arctic 49
trucks 49
lift 49
shifting 49
hitting 49
4,000 49
translation 49
closing 49
court 49
rocket 49
Number 49
prosthetic 49
pre-@@ 49
genius 49
pig 49
Minister 49
reduced 49
attract 49
dress 49
accidents 49
resilience 49
General 49
mixed 49
Antarctica 49
diabetes 49
activist 49
lecture 49
subtle 49
suggesting 49
assets 49
farmer 49
affects 48
scanner 48
founded 48
None 48
ain 48
drove 48
influenced 48
Ten 48
laughing 48
pushed 48
dedicated 48
trash 48
p@@ 48
Brian 48
anonymous 48
s@@ 48
cord 48
vital 48
doors 48
monitor 48
exposed 48
reduction 48
crossing 48
plain 48
reflect 48
mark 48
strongly 48
session 48
rats 48
frog 48
ans 48
serving 48
magical 48
compelling 48
sits 48
comfort 48
begun 48
insights 48
February 48
category 48
intuitive 48
passenger 48
Dad 48
parties 48
2011 48
links 48
ad 48
grass 48
killer 48
governance 48
dignity 48
tired 48
Central 48
prices 48
sentences 48
precise 48
darkness 48
lions 48
review 47
steal 47
probability 47
bill 47
weak 47
frequency 47
19 47
Research 47
Long 47
Sunday 47
ceiling 47
facility 47
Within 47
mail 47
senior 47
determined 47
privilege 47
output 47
ownership 47
spots 47
underlying 47
parallel 47
improving 47
footage 47
supported 47
photographed 47
passing 47
layers 47
outer 47
organism 47
sensor 47
welcome 47
elsewhere 47
writers 47
healthier 47
1970s 47
powers 47
openness 47
forgotten 47
toxic 47
dirty 47
suggested 47
entropy 47
Microsoft 47
odds 47
sauce 47
muscle 47
philosopher 47
telephone 47
dialogue 47
wheat 47
Ford 47
SW 47
gathering 46
hire 46
labs 46
Whether 46
translated 46
ethical 46
Any 46
bug 46
microbes 46
pre@@ 46
clients 46
Tell 46
soldier 46
ours 46
li@@ 46
eaten 46
ancestors 46
harvest 46
chances 46
logical 46
perceive 46
hardly 46
fires 46
Red 46
silly 46
additional 46
t@@ 46
Oxford 46
Di@@ 46
initial 46
repeat 46
backwards 46
external 46
optimism 46
adding 46
ation 46
arrive 46
accepted 46
pulling 46
collaborative 46
Moon 46
Ghana 46
sustain 46
host 46
-like 46
keyboard 46
Isn 46
traits 46
wings 46
monkey 46
pizza 46
dies 46
wire 46
filter 46
tank 46
encounter 46
prize 46
suspended 46
focusing 46
expressions 46
curriculum 46
specialized 46
simplicity 46
representation 46
shooting 46
colonies 46
sacrifice 46
revenue 46
programming 46
phosphorus 46
narrow 45
blow 45
circuits 45
concern 45
choosing 45
helpful 45
fuels 45
synthetic 45
analyze 45
nurse 45
originally 45
Make 45
bars 45
pretend 45
Me 45
documents 45
transport 45
egg 45
mad 45
integrated 45
infection 45
shoulder 45
promote 45
Listen 45
Army 45
hypothesis 45
rebuild 45
reminded 45
victim 45
diagnosis 45
Ph.D. 45
7 45
origin 45
smarter 45
disorders 45
sales 45
plot 45
Third 45
attractive 45
miserable 45
St. 45
categories 45
restaurants 45
super 45
Russian 45
lawyer 45
belong 45
precious 45
homeless 45
wired 45
pitch 45
tubes 45
- 45
kingdom 45
items 45
entrepreneur 45
refugees 45
targets 45
instant 45
remained 45
wider 45
Stage 45
transfer 45
includes 45
odd 45
industries 45
retirement 45
ink 45
texting 45
viewer 45
comedy 45
answered 45
be@@ 45
Mom 45
ads 45
ongoing 45
toys 45
enables 45
Koran 45
jihad 45
immediate 44
attitude 44
favor 44
Six 44
nonprofit 44
facilities 44
earn 44
o@@ 44
meter 44
Without 44
remembered 44
universities 44
difficulty 44
smiling 44
Obviously 44
primarily 44
judgment 44
woke 44
plastics 44
airport 44
trains 44
clinic 44
operations 44
Taliban 44
transparent 44
substance 44
convert 44
dust 44
emerge 44
fought 44
cute 44
Amy 44
merely 44
CEO 44
objective 44
extension 44
opposed 44
tissues 44
shine 44
frustrated 44
pointing 44
adventure 44
district 44
edges 44
fortune 44
dressed 44
alcohol 44
offices 44
Jesus 44
e@@ 44
leap 44
Florida 44
chips 44
procedure 44
December 44
reducing 44
refugee 44
proposed 44
prime 44
neuron 44
pause 44
burden 44
Uganda 44
Back 44
rush 44
confused 44
delivery 44
Spanish 44
globalization 44
Hans 44
engines 44
suffered 44
elected 44
Space 44
habitat 44
mushroom 44
photographer 44
Beijing 44
headlines 43
pursuit 43
dozens 43
sisters 43
inspire 43
infinite 43
friendly 43
download 43
breakfast 43
quit 43
Wait 43
economist 43
whatsoever 43
nodes 43
confident 43
poster 43
legacy 43
calories 43
mobility 43
paralyzed 43
innocent 43
southern 43
&apos;clock 43
Ladies 43
Somebody 43
preparing 43
hanging 43
landed 43
2001 43
funds 43
educated 43
Soviet 43
peaceful 43
firing 43
Blue 43
sub-Saharan 43
algorithm 43
White 43
completed 43
investors 43
managers 43
federal 43
youth 43
regime 43
generous 43
conclude 43
Square 43
prosperity 43
250 43
con@@ 43
voting 43
healing 43
armed 43
brief 43
magnetic 43
preserve 43
isolated 43
retina 43
figuring 43
domestic 43
bizarre 43
actors 43
65 43
garage 43
depth 43
rating 43
drawings 43
tech 43
mosquito 43
penguin 43
grandparents 42
Jim 42
description 42
genetically 42
tip 42
threw 42
printer 42
silver 42
experimental 42
intuition 42
onstage 42
hormone 42
scratch 42
performed 42
ters 42
Israeli 42
factories 42
Islands 42
inches 42
meals 42
located 42
Friday 42
briefly 42
panels 42
October 42
blank 42
brown 42
secrets 42
Texas 42
expanding 42
60s 42
a.m. 42
claims 42
accounts 42
g@@ 42
lens 42
glad 42
ds 42
dig 42
donor 42
intervention 42
remaining 42
mindset 42
grandchildren 42
naked 42
positions 42
capitalism 42
qualities 42
unprecedented 42
widely 42
ubiquitous 42
mammals 42
conservative 42
array 42
observation 42
blame 42
route 42
Bush 42
clay 42
freely 42
fabulous 42
Norway 42
owned 42
observe 42
Park 42
bubbles 42
currency 42
disabled 42
MT 42
Human 42
liberal 42
elite 42
native 42
responses 42
fastest 42
straightforward 42
fluid 42
articles 42
matrix 42
leather 42
gear 42
aircraft 41
collapsed 41
slums 41
Stewart 41
Sir 41
hiding 41
citizen 41
hardware 41
miracle 41
Watch 41
finger 41
X 41
Christian 41
March 41
bottles 41
crop 41
label 41
pile 41
nerve 41
fragile 41
rolling 41
load 41
Vietnam 41
previously 41
emerged 41
threatened 41
ecosystems 41
tragedy 41
Suddenly 41
predicted 41
recover 41
ignored 41
caring 41
headed 41
stability 41
mechanisms 41
Secondly 41
biologists 41
resistant 41
profoundly 41
College 41
heaven 41
nowadays 41
90s 41
vertical 41
clinics 41
3@@ 41
bee 41
arguing 41
ab@@ 41
Cyrus 41
gotta 41
extend 41
personalized 41
newspapers 41
communications 41
Mandela 41
circles 41
flexible 41
Show 41
fruit 41
announced 41
robotics 41
database 41
wealthy 41
Charlie 41
illustrate 41
sandwich 41
Never 41
autonomous 41
devil 41
cap 41
Hollywood 40
speaks 40
Am 40
Nations 40
spectacular 40
inter@@ 40
Design 40
commit 40
tie 40
excitement 40
gut 40
pen 40
beneath 40
comments 40
e-@@ 40
bags 40
contain 40
surrounding 40
2050 40
terrifying 40
activate 40
iron 40
dose 40
beating 40
believes 40
warning 40
flowing 40
distinct 40
glasses 40
pump 40
treatments 40
worthy 40
lands 40
formula 40
prisoners 40
Industrial 40
rice 40
comparison 40
homework 40
Hello 40
28 40
habits 40
co@@ 40
guarantee 40
daughters 40
Northern 40
fortunate 40
agent 40
packed 40
decision-making 40
partly 40
realizing 40
storytelling 40
t 40
physician 40
ceremony 40
temporary 40
shelter 40
Turkey 40
shipping 40
variation 40
Daniel 40
Until 40
candidate 40
nearby 40
Social 40
experiencing 40
polar 40
Academy 40
puzzles 40
a@@ 40
navigate 40
supporting 40
smartphone 40
33 40
manager 40
hemisphere 40
dough 40
errors 40
High 40
athletes 40
120 39
tackle 39
artistic 39
tendency 39
presents 39
backyard 39
covers 39
ous 39
Co@@ 39
Coke 39
hat 39
corporations 39
asleep 39
exhibition 39
scenario 39
devastating 39
Ex@@ 39
Whatever 39
compete 39
kidney 39
Italy 39
hopes 39
threats 39
ratio 39
significantly 39
se 39
reminds 39
tends 39
buried 39
hunting 39
diagram 39
listened 39
wash 39
perceived 39
wheels 39
bombs 39
ded 39
washing 39
selves 39
mood 39
genetics 39
inch 39
Mar@@ 39
innovations 39
stored 39
4@@ 39
forming 39
maker 39
bite 39
wedding 39
bedroom 39
radically 39
Jewish 39
crows 39
2@@ 39
arrested 39
William 39
terrorism 39
reveals 39
rituals 39
rapid 39
besides 39
obstacles 39
consequence 39
sciences 39
audio 39
charming 39
sexy 39
crimes 39
schizophrenia 39
democracies 39
gradually 39
limb 39
Aristotle 39
neat 39
demands 39
tongue 39
Whereas 39
investing 39
Norden 39
tower 38
comment 38
ra@@ 38
owner 38
mainstream 38
Sorry 38
unable 38
transmit 38
demo 38
burned 38
breaks 38
sheets 38
le 38
Same 38
survived 38
posted 38
Al@@ 38
ti@@ 38
connects 38
spill 38
structural 38
approaches 38
resolve 38
800 38
November 38
barriers 38
sons 38
throwing 38
expertise 38
volunteer 38
domain 38
Stephen 38
division 38
agreement 38
NGOs 38
courses 38
graduated 38
climbing 38
Lego 38
satellites 38
powered 38
continuing 38
damn 38
habit 38
myth 38
household 38
reactions 38
folding 38
architectural 38
surfaces 38
constraints 38
monkeys 38
purposes 38
spin 38
barrier 38
gases 38
via 38
sport 38
deals 38
rocks 38
tragic 38
god 38
safer 38
symbols 38
flash 38
smoking 38
clusters 38
traditions 38
Things 38
aim 38
compromise 38
nutrients 38
plug 38
failures 38
Using 38
Gore 38
sharp 38
prior 38
Arthur 38
yourselves 38
an@@ 38
recipe 38
lottery 38
85 38
Indonesia 38
ton 38
weapon 38
Watson 38
skull 38
cousin 38
mosquitos 38
marine 38
tag 37
independence 37
forgot 37
Iranian 37
tale 37
crew 37
Dutch 37
Carolina 37
rough 37
bacterial 37
cash 37
pride 37
fits 37
opera 37
audiences 37
vessel 37
teenager 37
fallen 37
Half 37
Up 37
gods 37
nights 37
contemporary 37
covering 37
despair 37
pandemic 37
chapter 37
Zealand 37
sake 37
boom 37
offering 37
Lee 37
pointed 37
spreads 37
bow 37
unbelievable 37
dimension 37
reports 37
denial 37
firm 37
estimates 37
included 37
syndrome 37
officer 37
boss 37
pairs 37
condoms 37
package 37
affecting 37
Swiss 37
County 37
installed 37
Me@@ 37
kills 37
authors 37
socially 37
en 37
endangered 37
analogy 37
Santa 37
graphics 37
lamp 37
pink 37
patents 37
1960 37
1990s 37
nuts 37
abandoned 37
request 37
blindness 37
historic 37
garbage 37
Anyone 37
Nelson 37
insane 37
Andrew 37
tune 37
hormones 37
transmission 37
calculations 37
Ocean 37
corn 37
Chile 37
interviews 37
rope 37
lanes 37
Rosling 37
TEDTalks 37
Shanghai 37
applying 37
broad 37
measures 37
passes 37
file 37
yield 37
strategic 37
Ray 37
dictionaries 37
Jack 37
guns 37
rivers 37
prostate 37
particle 37
artwork 37
interventions 37
profile 37
Singapore 37
glimpse 36
rainforest 36
topics 36
teenage 36
awkward 36
Was 36
achievement 36
capabilities 36
ecological 36
demos 36
rethink 36
keys 36
authentic 36
brave 36
typing 36
L.A. 36
bound 36
1980s 36
pigs 36
pockets 36
2002 36
stepped 36
refer 36
wires 36
desperately 36
deserve 36
mapping 36
River 36
Bronx 36
collectively 36
responding 36
static 36
banking 36
locations 36
shocked 36
item 36
excellent 36
counting 36
Professor 36
representative 36
happily 36
shed 36
crash 36
parenting 36
se@@ 36
subway 36
explosion 36
lifespan 36
stopping 36
profits 36
Mike 36
Brown 36
TEDTalk 36
club 36
well-@@ 36
seeking 36
classrooms 36
prisons 36
stretch 36
chief 36
palm 36
abilities 36
Abraham 36
high-@@ 36
engineered 36
invested 36
gained 36
fortunately 36
racing 36
shrimp 36
officials 36
August 36
ticket 36
concert 36
mayor 36
marker 36
cooperate 36
discipline 36
mines 36
mechanics 36
agents 36
juice 36
beautifully 36
clue 36
Global 36
lit 36
autistic 36
p 36
colored 36
educate 36
silk 36
simplest 36
foundations 36
mycelium 36
destiny 36
builds 35
electrodes 35
Shakespeare 35
biologist 35
Put 35
one-@@ 35
ambitious 35
chess 35
orchestra 35
enabled 35
cast 35
shy 35
trace 35
e 35
bucks 35
wrapped 35
landscapes 35
gathered 35
expansion 35
intensive 35
26 35
exception 35
pyramid 35
aggressive 35
nutrition 35
surgeons 35
wildlife 35
psychologist 35
hill 35
ating 35
hometown 35
freezing 35
occasionally 35
honestly 35
challenged 35
sexuality 35
mysterious 35
breeding 35
ships 35
manipulate 35
raises 35
mode 35
physicists 35
pound 35
gesture 35
damaged 35
cycles 35
injured 35
deadly 35
right-hand 35
fate 35
panel 35
airplanes 35
elementary 35
reliable 35
readers 35
Joshua 35
visually 35
smells 35
Yemen 35
ch 35
candidates 35
ethnic 35
ter 35
hallucinations 35
civic 35
July 35
medication 35
simulation 35
signature 35
lungs 35
candy 35
determines 35
Men 35
Atlantic 35
rape 35
fiber 35
stranger 35
riding 35
transforming 35
worms 35
Hong 35
protest 35
Boy 35
mall 35
initially 35
primitive 35
simpler 35
terrain 35
flows 35
telescopes 35
upset 35
concentration 35
channels 34
b@@ 34
truths 34
Its 34
Eve 34
portion 34
d-@@ 34
der 34
smooth 34
cheat 34
Bob 34
Kevin 34
courageous 34
five-@@ 34
recycled 34
obese 34
clues 34
believing 34
als 34
interpret 34
consciously 34
storm 34
momentum 34
tight 34
embarrassing 34
shaking 34
proposal 34
leverage 34
defining 34
bathroom 34
conducted 34
lock 34
dawn 34
command 34
29 34
competing 34
carries 34
pursue 34
Both 34
criteria 34
psychologists 34
unhappy 34
30,000 34
brands 34
waters 34
shit 34
threshold 34
appearance 34
gentleman 34
SS 34
exhibit 34
contrary 34
boots 34
paradox 34
Through 34
18@@ 34
US 34
resolution 34
IBM 34
competitive 34
talents 34
rewards 34
someday 34
supermarket 34
tumors 34
detection 34
discovering 34
replaced 34
approved 34
disturbing 34
findings 34
proven 34
interestingly 34
J@@ 34
contribution 34
magnificent 34
camps 34
historically 34
Catholic 34
workforce 34
Sam 34
strike 34
cylinder 34
st 34
interviewed 34
electron 34
portrait 34
simultaneously 34
participation 34
gorgeous 34
planted 34
helicopter 34
implant 34
luxury 34
legislation 34
40,000 34
shelf 34
suggestion 34
Church 34
pie 34
labeled 34
li 34
tunnel 34
demographic 34
cuts 34
tracks 34
Tim 34
intriguing 34
sir 34
mushrooms 34
Tasmanian 34
Freedom 34
Detroit 34
insulin 34
pills 33
Technology 33
genocide 33
concerns 33
la@@ 33
defend 33
badly 33
hated 33
versions 33
recall 33
bills 33
dynamics 33
answering 33
Although 33
enjoyed 33
high-tech 33
continuous 33
Almost 33
succeeded 33
venture 33
deepest 33
ill 33
raped 33
extended 33
messy 33
troops 33
pet 33
graphs 33
sale 33
customer 33
proportion 33
reasonable 33
prevention 33
frightening 33
guilty 33
32 33
wound 33
realm 33
trajectory 33
loving 33
pharmaceutical 33
offspring 33
genomes 33
beetles 33
surveillance 33
staring 33
cart 33
limitations 33
websites 33
planned 33
Li@@ 33
authorities 33
1990 33
Queen 33
systematically 33
capability 33
prediction 33
50s 33
manual 33
replicate 33
Geographic 33
bo@@ 33
super-@@ 33
overwhelmed 33
drag 33
voted 33
relation 33
regularly 33
wrap 33
grains 33
fancy 33
batteries 33
highway 33
permission 33
adopt 33
aesthetic 33
judgments 33
ri@@ 33
intent 33
pigeon 33
theories 33
actively 33
Southern 33
fireflies 33
dolphin 33
controversial 33
uncle 33
Bell 33
gaps 33
expedition 33
Jill 33
seal 33
Montana 33
Africans 33
J 33
methane 32
mimic 32
attacked 32
iconic 32
During 32
narratives 32
associate 32
ons 32
Gandhi 32
understands 32
tone 32
propose 32
+ 32
rehabilitation 32
pour 32
periods 32
cheating 32
technically 32
half-@@ 32
doubled 32
hired 32
systematic 32
hardest 32
microphone 32
fraction 32
heading 32
An@@ 32
Rome 32
earliest 32
nerves 32
terrified 32
investments 32
randomly 32
D.C. 32
column 32
mentally 32
Afghan 32
extraordinarily 32
supplies 32
Little 32
alien 32
civilizations 32
horizon 32
Being 32
seemingly 32
overwhelming 32
disasters 32
assumed 32
scanning 32
destroying 32
Joseph 32
empowered 32
therapies 32
year-olds 32
incentive 32
lake 32
publish 32
viral 32
700 32
winds 32
bend 32
scales 32
jumped 32
inmates 32
tions 32
cube 32
encouraged 32
lonely 32
expecting 32
opinions 32
clothing 32
physicians 32
Rather 32
suspect 32
minimum 32
profession 32
monitoring 32
storage 32
marathon 32
compassionate 32
over-@@ 32
assumption 32
marry 32
heritage 32
bored 32
Wright 32
zing 32
medicines 32
reproduce 32
rose 32
bin 32
1930s 32
format 32
real-time 32
impression 32
dear 32
mere 32
witness 32
pole 32
constructed 32
abundance 32
projections 32
caves 32
Anybody 32
hierarchy 32
computational 32
illusions 32
intention 32
criminals 32
bribe 32
exam 32
Ooh 32
acids 32
likelihood 32
regardless 32
drum 32
trigger 32
observed 32
sculptures 32
cellular 32
grave 32
winner 32
dating 32
duck 32
reflection 32
twins 32
recession 32
GG 32
annual 31
El 31
scenes 31
grasp 31
ward 31
i@@ 31
documentary 31
ah 31
elegant 31
informed 31
beetle 31
sacred 31
touching 31
correctly 31
Turns 31
easiest 31
remarkably 31
boats 31
f@@ 31
enemies 31
Moore 31
sink 31
estimated 31
established 31
Greek 31
humanitarian 31
striking 31
1999 31
shots 31
receiving 31
stack 31
ritual 31
kindness 31
out@@ 31
sweat 31
safely 31
occurring 31
under@@ 31
31 31
meditation 31
campus 31
tables 31
shower 31
wins 31
Asian 31
namely 31
advances 31
longevity 31
Lewis 31
replacement 31
suck 31
adopted 31
ling 31
encouraging 31
confront 31
lists 31
Mexican 31
April 31
programmers 31
stunning 31
verb 31
favorites 31
lectures 31
calculated 31
soap 31
ingredient 31
b 31
Silicon 31
Ar@@ 31
36 31
insect 31
motors 31
x 31
ultrasound 31
discoveries 31
detector 31
rejected 31
strings 31
motivated 31
injuries 31
tion 31
wooden 31
k@@ 31
realistic 31
kiss 31
spare 31
tolerance 31
Alexander 31
crack 31
Virginia 31
lo@@ 31
nonviolent 31
amazed 31
blogs 31
Greece 31
acknowledge 31
2012 31
frequently 31
apps 31
Law 31
toilets 31
installation 31
farms 31
involving 31
realization 31
computation 31
Someone 31
assignment 31
Palestinian 31
terror 31
proposition 31
ha 31
Matt 31
neck 31
News 31
cares 31
Delhi 31
phenomena 31
impressive 31
chimpanzees 31
universes 31
approaching 31
temperatures 31
BJ 31
WK 31
Teszler 31
Spain 30
vacation 30
ked 30
dominated 30
filmmaker 30
awe 30
m@@ 30
cared 30
Brooklyn 30
flavor 30
balls 30
confronted 30
paths 30
predictable 30
apples 30
multi-@@ 30
thumb 30
node 30
basking 30
intact 30
Alex 30
Scott 30
eliminate 30
grocery 30
minus 30
vocabulary 30
partnership 30
corners 30
generosity 30
Saturday 30
coach 30
delay 30
6@@ 30
entering 30
disability 30
stolen 30
origins 30
pe@@ 30
dopamine 30
attitudes 30
belongs 30
switched 30
workplace 30
cope 30
48 30
refrigerator 30
cooling 30
worrying 30
integrate 30
frames 30
breakthrough 30
chromosomes 30
5@@ 30
glacier 30
d 30
jellyfish 30
tic 30
exposure 30
addiction 30
valley 30
beloved 30
autonomy 30
Pro@@ 30
infections 30
Switzerland 30
Italian 30
zones 30
Pretty 30
passive 30
coverage 30
two-@@ 30
joint 30
1984 30
left-hand 30
privileged 30
incident 30
Ted 30
trapped 30
obsession 30
accomplished 30
Le@@ 30
rescued 30
Iceland 30
Sierra 30
visions 30
ally 30
tar 30
convey 30
Simon 30
pleasant 30
feminist 30
broccoli 30
crossed 30
significance 30
Parkinson 30
pot 30
H 30
salt 30
politician 30
shifts 30
downtown 30
7@@ 30
Ken 30
harbor 30
follows 30
roles 30
peer 30
Saturn 30
or@@ 30
resist 30
improvisation 30
JH 30
ideology 30
tangible 30
Wolfram 30
overhead 30
overseas 30
Ministry 30
squared 30
Line 30
spaghetti 30
bombsight 30
protocell 30
branches 29
g 29
measurements 29
sections 29
journalists 29
knife 29
Ch@@ 29
ar@@ 29
DVD 29
fantasy 29
mu@@ 29
hacking 29
literacy 29
regulations 29
procedures 29
yeast 29
passions 29
des 29
managing 29
bugs 29
plates 29
norms 29
honesty 29
span 29
automobile 29
Coast 29
heal 29
embracing 29
responded 29
client 29
Syria 29
Lebanon 29
logo 29
melting 29
melt 29
cleaning 29
ously 29
canvas 29
pray 29
y@@ 29
gu@@ 29
consistent 29
drew 29
linear 29
panic 29
200,000 29
knees 29
Johnny 29
toes 29
march 29
pad 29
rolled 29
equations 29
cancers 29
Keep 29
intended 29
urge 29
I. 29
bullet 29
37 29
thrive 29
preparation 29
bridges 29
metabolism 29
sands 29
55 29
altitude 29
Age 29
philosophical 29
d@@ 29
blocking 29
mapped 29
Cambodia 29
attracted 29
yards 29
siblings 29
deforestation 29
ness 29
woods 29
Muhammad 29
researching 29
practicing 29
Stop 29
O 29
altered 29
ma@@ 29
parks 29
helmet 29
Lab 29
masses 29
beef 29
TEDGlobal 29
interconnected 29
amazingly 29
smallest 29
cliff 29
Lord 29
interpretation 29
tribal 29
elevator 29
Organization 29
professors 29
thus 29
Copenhagen 29
Tanzania 29
shops 29
Out 29
chromosome 29
micro-@@ 29
sheer 29
Still 29
sanitation 29
pancreatic 29
producers 29
spinning 29
wasted 29
Jones 29
isolation 29
magician 29
convicted 29
in-@@ 29
dropping 29
tension 29
occurs 29
coat 29
extinction 29
LED 29
Absolutely 29
variable 29
sts 29
laptops 29
accuracy 29
reflected 29
connectivity 29
mentor 29
honey 29
Seven 29
Kids 29
quantities 29
octopus 29
unconscious 29
calculation 29
OECD 29
penis 29
per@@ 29
hut 29
regenerate 29
streams 29
vacuum 29
Neanderthals 29
congestion 29
Sarah 29
texture 29
islands 29
functioning 28
selected 28
pathways 28
secular 28
discussions 28
richest 28
perspectives 28
tu@@ 28
manner 28
mutations 28
massively 28
relief 28
Try 28
explores 28
decent 28
dancers 28
comic 28
documented 28
poison 28
consumed 28
famously 28
vegetable 28
mask 28
1950s 28
pays 28
founder 28
burst 28
seats 28
teaches 28
jumping 28
counted 28
leaf 28
observations 28
cosmic 28
fatal 28
charged 28
dare 28
absence 28
neutral 28
fruits 28
illustrates 28
Sure 28
planes 28
involve 28
tiger 28
talented 28
friendship 28
bond 28
spell 28
trusted 28
Ra@@ 28
guard 28
cage 28
comparing 28
journal 28
sensing 28
gate 28
processed 28
boundary 28
shifted 28
exceptions 28
al@@ 28
blowing 28
preventing 28
Public 28
Jerusalem 28
ses 28
Clinton 28
communicating 28
laughed 28
astronomers 28
obsolete 28
discrimination 28
squares 28
reader 28
authenticity 28
er@@ 28
Coca-Cola 28
entrepreneurial 28
ve 28
electrons 28
pulse 28
budgets 28
biodiversity 28
junk 28
Julia 28
Sylvia 28
activists 28
destination 28
s-@@ 28
usage 28
fence 28
collaborate 28
argued 28
publishing 28
log 28
diplomacy 28
archive 28
museums 28
entry 28
si@@ 28
regrets 28
Together 28
forgive 28
apartments 28
infant 28
authoritarian 28
awake 28
pipeline 28
accurately 28
spider 28
sperm 28
Goliath 28
Court 28
12,000 28
reflects 28
Leonardo 28
useless 28
bats 28
sizes 28
elephants 28
scans 28
2030 28
donors 28
stereotypes 28
metabolic 28
institutional 28
YR 28
embodied 28
EDI 28
contributed 27
Inter@@ 27
terribly 27
releases 27
integration 27
r@@ 27
favelas 27
binary 27
Bi@@ 27
craft 27
intensity 27
envelope 27
torture 27
Star 27
According 27
west 27
voters 27
posters 27
decides 27
introduction 27
Notice 27
multinational 27
zed 27
dreamed 27
piles 27
inevitably 27
C. 27
interior 27
geometry 27
mis@@ 27
activated 27
cracks 27
drops 27
calm 27
Jay 27
closest 27
shoulders 27
boost 27
landing 27
twist 27
lifted 27
exotic 27
condom 27
low-cost 27
st@@ 27
accounting 27
enjoying 27
minority 27
rises 27
Republic 27
owners 27
Parliament 27
arise 27
dumb 27
regard 27
catching 27
luckily 27
loses 27
sexually 27
anxious 27
folded 27
tear 27
beaten 27
l 27
repeated 27
stimulation 27
ations 27
upside 27
primate 27
thinkers 27
Canadian 27
chains 27
vary 27
estate 27
visualize 27
generating 27
relates 27
creator 27
hugely 27
emotionally 27
Except 27
traces 27
Jews 27
vi@@ 27
shepherd 27
Christians 27
expressed 27
lowest 27
les 27
ze 27
frightened 27
reforms 27
blogging 27
welfare 27
residents 27
miracles 27
platforms 27
bi@@ 27
Ireland 27
operated 27
Security 27
virtue 27
golden 27
curves 27
1950 27
initiative 27
post-@@ 27
transit 27
administration 27
acquired 27
cousins 27
priority 27
y-@@ 27
staircase 27
portraits 27
adjust 27
membrane 27
unfair 27
terrorists 27
tide 27
formal 27
taxes 27
reasoning 27
hunt 27
towel 27
concentrated 27
Newton 27
ambulance 27
purple 27
ecology 27
recycling 27
romance 27
Phoenix 27
controversy 27
Greenland 27
immense 27
Homo 27
brush 27
instruction 27
edit 27
AK 27
negotiate 27
inflation 27
infectious 27
Olympic 27
nest 27
helpless 27
marrow 27
celebrity 27
veterans 27
mastery 27
Sweeney 27
Ushahidi 27
headline 26
risky 26
AM 26
sub@@ 26
sensation 26
ty 26
explored 26
tattoo 26
Jane 26
analyzed 26
vice 26
nevertheless 26
weigh 26
… 26
adaptation 26
adapted 26
girlfriend 26
stigma 26
ex@@ 26
endless 26
cigarette 26
Ma@@ 26
millimeter 26
pose 26
temple 26
marks 26
mi@@ 26
Berkeley 26
compound 26
bulb 26
Somalia 26
ator 26
bang 26
targeted 26
pants 26
routine 26
belly 26
Everest 26
refuse 26
philanthropy 26
seventh 26
cable 26
Society 26
murder 26
Monday 26
grades 26
stressed 26
innovate 26
assemble 26
mixing 26
storms 26
8,000 26
winners 26
Ethiopia 26
Sea 26
le@@ 26
modest 26
behalf 26
abundant 26
uniform 26
defeat 26
m 26
sa@@ 26
tiles 26
delicious 26
experimenting 26
construct 26
fails 26
meets 26
visualization 26
hoped 26
orgasm 26
optical 26
self-interest 26
visceral 26
Lincoln 26
alongside 26
Per@@ 26
rubber 26
ge@@ 26
rays 26
demonstrated 26
submit 26
matched 26
eats 26
tomato 26
Netherlands 26
co-@@ 26
distances 26
warrior 26
shaping 26
Lama 26
sends 26
script 26
peoples 26
textbooks 26
peers 26
surgeries 26
networking 26
relatives 26
Jonathan 26
shining 26
bother 26
Laden 26
presidential 26
bat 26
observing 26
revolutions 26
Zimbabwe 26
Leone 26
shirt 26
clips 26
appeal 26
6,000 26
generic 26
conduct 26
award 26
album 26
Thailand 26
three-@@ 26
tent 26
tr@@ 26
Council 26
cows 26
filling 26
Marco 26
TEDsters 26
charges 26
emergence 26
deployed 26
clarity 26
weekend 26
fungi 26
slept 26
pouring 26
copies 26
corrupt 26
large-scale 26
textbook 26
deaf 26
harmony 26
antibodies 26
stressful 26
Party 26
farming 26
expectation 26
satisfaction 26
browser 26
Ha@@ 26
anesthesia 26
ch@@ 26
votes 26
.@@ 26
feeds 26
bush 26
lips 26
Roger 26
Rives 26
cups 26
famine 26
heating 26
Julian 26
Sa@@ 26
Country 26
parasite 26
stays 26
ooh 26
Egyptian 26
reef 26
adolescence 26
deserves 26
mature 26
compounds 26
Alpha 26
leopard 26
quad 26
decrease 25
n 25
picks 25
celebrated 25
participating 25
improvements 25
witnessed 25
iceberg 25
coding 25
mankind 25
Tokyo 25
index 25
reflective 25
stealing 25
Carnegie 25
fans 25
accelerate 25
Disney 25
halls 25
passage 25
captain 25
naive 25
dishes 25
Beach 25
caps 25
mo@@ 25
horses 25
transported 25
USA 25
Car@@ 25
eastern 25
geography 25
chase 25
premise 25
strikes 25
Cameron 25
Starbucks 25
Air 25
En@@ 25
consensus 25
Probably 25
cotton 25
intimate 25
wives 25
refused 25
bloody 25
distinction 25
selfish 25
borrow 25
alike 25
mating 25
scientifically 25
approached 25
lethal 25
territory 25
anticipate 25
pi@@ 25
priorities 25
implemented 25
Lake 25
diving 25
el@@ 25
grammar 25
kidding 25
counts 25
pan 25
dome 25
erotic 25
intimacy 25
branch 25
boards 25
folds 25
kilos 25
hybrid 25
Yves 25
regulation 25
Edinburgh 25
imagining 25
du@@ 25
generates 25
disruptive 25
serves 25
achieving 25
Media 25
2.0 25
developers 25
container 25
72 25
Dalai 25
longest 25
disagree 25
widespread 25
cor@@ 25
Luther 25
kit 25
conscience 25
Swedish 25
tuberculosis 25
machinery 25
utterly 25
syringe 25
detected 25
enterprise 25
Philadelphia 25
pleased 25
Sh@@ 25
as@@ 25
puberty 25
mustache 25
dirt 25
super@@ 25
mesh 25
heavily 25
norm 25
ps 25
recommend 25
Tempest 25
t-@@ 25
projection 25
exploit 25
excuse 25
publicly 25
critically 25
myths 25
Kennedy 25
compute 25
beam 25
slower 25
25,000 25
Grand 25
96 25
discussing 25
alarm 25
AO 25
ves 25
emails 25
revolutionary 25
chop 25
Su@@ 25
bamboo 25
charities 25
mind-wandering 25
renewable 25
assuming 25
Elizabeth 25
well-known 25
pill 25
philosophers 25
Francis 25
Venice 25
scheme 25
operates 25
displays 25
trait 25
salary 25
poems 25
c@@ 25
suspicious 25
attributes 25
metals 25
low-@@ 25
violin 25
statistical 25
1900 25
patience 25
Saudi 25
Information 25
subjective 25
revenues 25
Jeopardy 25
blah 25
approximately 24
calculating 24
130 24
inventor 24
demonstrates 24
anatomy 24
tsunami 24
aunt 24
drama 24
screening 24
whistle 24
solo 24
strengths 24
irrational 24
bowl 24
pencil 24
checking 24
rhythm 24
singers 24
mic 24
adaptive 24
continents 24
beside 24
discussed 24
recognizing 24
acceptance 24
Palestine 24
stomach 24
Scotland 24
promised 24
Hill 24
cruel 24
highlight 24
nightmare 24
Hospital 24
trivial 24
secondary 24
equity 24
handed 24
countless 24
addressing 24
ine 24
theoretical 24
sixth 24
banned 24
chasing 24
fired 24
cattle 24
goodbye 24
Therefore 24
settled 24
lean 24
motivate 24
guards 24
describing 24
Seattle 24
powder 24
Democratic 24
couples 24
Fortunately 24
minerals 24
losses 24
catastrophic 24
steady 24
genuine 24
expanded 24
jet 24
precision 24
gestures 24
critic 24
greatly 24
Lu@@ 24
op@@ 24
History 24
continuously 24
instinct 24
trauma 24
loads 24
Sputnik 24
disappointed 24
trap 24
horizontal 24
mutation 24
ca@@ 24
backs 24
processor 24
mammography 24
proved 24
sticky 24
SMS 24
Stone 24
ruins 24
harness 24
requirements 24
tickets 24
ta 24
fundraising 24
matches 24
balanced 24
youngest 24
me@@ 24
considering 24
appreciation 24
1998 24
Meanwhile 24
digging 24
loan 24
beneficial 24
TEDx 24
multiply 24
epidemics 24
tropical 24
opposition 24
fairness 24
vocal 24
86 24
Buddhist 24
broadcast 24
Benjamin 24
blew 24
trips 24
1.5 24
loans 24
K 24
chamber 24
atomic 24
ft 24
valve 24
Similarly 24
Korean 24
buttons 24
accountability 24
returns 24
analog 24
iPad 24
odor 24
angles 24
fibers 24
PH 24
formation 24
drunk 24
filmed 24
ordered 24
exercises 24
slope 24
he@@ 24
regional 24
Atlanta 24
Kong 24
revealed 24
evolving 24
perceptions 24
advocate 24
gross 24
educating 24
ashamed 24
Johnson 24
contagious 24
timing 24
asteroid 24
ladder 24
surround 24
probe 24
tastes 24
42 24
rains 24
Jupiter 24
nucleus 24
Nike 24
wonders 24
fetus 24
handy 24
Par@@ 24
Alice 24
shelves 24
ching 24
97 24
herd 24
informal 24
Bosnia 24
occupy 24
neocortex 24
Jazeera 24
toast 24
chimps 24
FG 24
therapist 23
couch 23
chronic 23
irony 23
occasion 23
brutal 23
thoughtful 23
7,000 23
propaganda 23
biotechnology 23
inherently 23
ethics 23
ir@@ 23
examine 23
intentions 23
punishment 23
repeatedly 23
pin 23
noisy 23
et 23
accepting 23
ironic 23
shadows 23
os@@ 23
Hawaii 23
concentrate 23
sustained 23
mid-@@ 23
remotely 23
locally 23
unseen 23
vitamin 23
Kingdom 23
Help 23
Warren 23
handful 23
Inside 23
happiest 23
lo 23
equals 23
abroad 23
parachute 23
crushed 23
30-@@ 23
ass 23
wiped 23
apologize 23
blown 23
legitimate 23
bonds 23
rolls 23
divorce 23
employment 23
instincts 23
Association 23
sometime 23
victory 23
thrilled 23
correlation 23
expense 23
Bar@@ 23
characteristic 23
toll 23
convincing 23
implement 23
replacing 23
humility 23
Building 23
dates 23
Galapagos 23
screaming 23
Steven 23
spacecraft 23
Columbia 23
draws 23
spark 23
playful 23
politically 23
declining 23
columns 23
viewed 23
loose 23
w@@ 23
bell 23
impulse 23
glue 23
cardiac 23
Open 23
inventors 23
paste 23
acid 23
Lo@@ 23
primates 23
optimal 23
Whenever 23
episode 23
skilled 23
yard 23
stadium 23
poll 23
laboratories 23
nectar 23
demographics 23
stones 23
impaired 23
neurological 23
ors 23
empowerment 23
empower 23
irrelevant 23
overnight 23
horror 23
reporting 23
Type 23
atom 23
responds 23
Norwegian 23
slice 23
20s 23
Others 23
Less 23
ease 23
lu@@ 23
absorb 23
-based 23
reputation 23
M 23
default 23
1980 23
whoever 23
register 23
-year-old 23
encountered 23
prefrontal 23
k 23
1.2 23
Berlin 23
unpredictable 23
labels 23
problematic 23
deciding 23
editor 23
arbitrary 23
magazines 23
silicon 23
Ad@@ 23
mustard 23
globalized 23
pro@@ 23
gains 23
deck 23
n@@ 23
censorship 23
server 23
Colombia 23
Education 23
rockets 23
Kansas 23
Supreme 23
pulls 23
accelerating 23
speeds 23
govern 23
Kelly 23
mirrors 23
skeleton 23
worm 23
hey 23
analyzing 23
establish 23
ego 23
toxins 23
asset 23
Office 23
inherent 23
punch 23
jaw 23
DP 23
shore 23
pops 23
Indians 23
surveys 23
attempts 23
copying 23
Telescope 23
Ivan 23
posture 23
cerebral 23
integrity 23
cooperative 23
Tesla 23
goodness 23
determination 23
ratings 23
investigation 23
Movember 23
intangible 23
earning 23
post-conflict 23
cybercriminals 23
Anas 23
variables 22
assessment 22
Christopher 22
select 22
Mo@@ 22
z 22
transformative 22
viewing 22
fights 22
mouths 22
Consider 22
stimulate 22
goat 22
annoying 22
pregnancy 22
spray 22
mud 22
1,500 22
Hall 22
crap 22
symphony 22
Around 22
basketball 22
gallery 22
sadness 22
kick 22
debris 22
ethic 22
thermal 22
Jordan 22
Ro@@ 22
sized 22
Small 22
contained 22
constrained 22
stare 22
aluminum 22
DJ 22
wet 22
ders 22
symptom 22
ces 22
campaigns 22
heroic 22
S 22
reminder 22
stamp 22
to@@ 22
snake 22
hurts 22
sanitary 22
fame 22
nasty 22
visiting 22
es@@ 22
Way 22
struggled 22
returning 22
argues 22
quietly 22
ms 22
prisoner 22
magnitude 22
prototypes 22
confusing 22
oven 22
drought 22
planting 22
1995 22
accumulate 22
intervene 22
velocity 22
minor 22
attach 22
watches 22
confined 22
Glass 22
imperative 22
checklist 22
choir 22
52 22
investigate 22
kindergarten 22
Natural 22
novelty 22
existential 22
banjo 22
weighs 22
Civil 22
G 22
Companies 22
nicely 22
Susan 22
Much 22
colorful 22
centimeter 22
interfaces 22
icon 22
pipe 22
strip 22
representing 22
reproduction 22
enormously 22
98 22
1@@ 22
diameter 22
pulses 22
axes 22
separation 22
unfortunate 22
contributions 22
texts 22
respected 22
18th 22
ks 22
frequencies 22
Spring 22
slip 22
Pre@@ 22
climbed 22
tortured 22
1970 22
reaches 22
empowering 22
Jennifer 22
Black 22
qu@@ 22
full-time 22
sti@@ 22
lion 22
tuned 22
sectors 22
harmful 22
Olympics 22
adolescents 22
judges 22
Development 22
innovators 22
implanted 22
moms 22
Eventually 22
cream 22
appealing 22
Machine 22
collaborators 22
mundane 22
1960s 22
Si@@ 22
societal 22
Business 22
deception 22
Samuel 22
shoe 22
translator 22
Trade 22
hamburger 22
headquarters 22
Cold 22
Larry 22
Arizona 22
flesh 22
Light 22
converted 22
masters 22
peculiar 22
at@@ 22
Ask 22
broader 22
rigid 22
pity 22
magnets 22
sequences 22
standpoint 22
viable 22
expose 22
two-thirds 22
Michigan 22
Wouldn 22
regulate 22
Too 22
Van 22
ho@@ 22
drilling 22
Clearly 22
owe 22
te 22
Nick 22
introducing 22
guerrillas 22
Lesters 22
Apollo 22
phenomenal 22
Mama 22
slowing 22
Rick 22
el 22
N 22
helium 22
swing 22
multiverse 22
tricky 22
lately 22
sticking 22
encyclopedia 22
travels 22
tattoos 22
self-assembly 22
neuroscientist 22
scarce 22
Nathan 22
steam 22
chord 22
satisfying 22
trading 22
gratitude 22
holy 22
obtained 22
anniversary 22
thylacine 22
willingness 22
mild 22
middle-class 22
cardiovascular 22
journalism 22
Joel 22
Qatar 22
identities 22
supportive 22
Step 22
Arabia 22
Argentina 22
payments 22
gifts 22
identifying 22
petals 22
Lakota 22
Nanopatch 22
heh 22
chemist 21
pilots 21
arteries 21
pathway 21
64 21
clubs 21
float 21
ying 21
questioning 21
Quite 21
ce 21
playground 21
amateurs 21
pu@@ 21
glow 21
amateur 21
consistently 21
consent 21
tuna 21
promising 21
six-@@ 21
Child 21
Death 21
sounded 21
17@@ 21
improvise 21
Iranians 21
Se@@ 21
recycle 21
Mon@@ 21
gardens 21
sums 21
cardboard 21
dilemma 21
dancer 21
W@@ 21
rap 21
ac@@ 21
elaborate 21
sequencing 21
farther 21
eradication 21
explode 21
reporter 21
up@@ 21
hook 21
promises 21
derived 21
algae 21
glorious 21
redefine 21
attempted 21
measurement 21
Medical 21
misery 21
PowerPoint 21
1.3 21
resilient 21
households 21
coastal 21
avoiding 21
migration 21
acquire 21
differ 21
strain 21
shorter 21
grabbed 21
tweet 21
ins 21
tri@@ 21
counter 21
funeral 21
forcing 21
pressing 21
surviving 21
approval 21
dreaming 21
cafe 21
nurture 21
ro@@ 21
western 21
variations 21
ideals 21
rendering 21
Defense 21
profitable 21
denied 21
rows 21
flights 21
Carl 21
Margaret 21
noises 21
endeavor 21
modified 21
wolves 21
u@@ 21
emerges 21
qualified 21
posed 21
accompanied 21
surgical 21
grant 21
Cancer 21
gram 21
E.U. 21
install 21
to-@@ 21
detecting 21
mates 21
conception 21
ably 21
unemployed 21
30s 21
Mu@@ 21
representatives 21
shortly 21
Journal 21
ci@@ 21
employed 21
diagnostic 21
ultraviolet 21
filters 21
nearest 21
injustice 21
lobe 21
practically 21
frontier 21
documenting 21
elders 21
delivering 21
lesbian 21
testosterone 21
th 21
stepping 21
organizing 21
resonance 21
jokes 21
coma 21
tightly 21
Philip 21
Jackson 21
hostile 21
displaced 21
acres 21
deficit 21
pedestrian 21
earned 21
ingenuity 21
meanings 21
80,000 21
realities 21
Har@@ 21
cried 21
arrest 21
ham 21
gel 21
Fi@@ 21
Tower 21
suits 21
internet 21
washed 21
impose 21
applies 21
joining 21
monster 21
Welcome 21
Food 21
jungle 21
maximum 21
Online 21
140 21
assembled 21
ent 21
pies 21
poorly 21
desperate 21
Music 21
flexibility 21
gaining 21
350 21
sessions 21
copper 21
Mall 21
Fox 21
tanks 21
squid 21
sh@@ 21
purchase 21
B. 21
sweeping 21
hopeful 21
terrific 21
thread 21
reinvent 21
micro@@ 21
u 21
assembly 21
protests 21
translating 21
aged 21
charcoal 21
vibrating 21
93 21
indicate 21
alternatives 21
admire 21
scarcity 21
Denmark 21
illnesses 21
Princeton 21
beekeepers 21
clitoris 21
Modern 21
relax 21
Scientists 21
frontal 21
rig 21
consuming 21
mutual 21
l@@ 21
Heart 21
indoors 21
biased 21
phrases 21
cartoonist 21
Pat 21
bottom-up 21
four-@@ 21
Kiribati 21
athlete 21
temptation 21
Qaeda 21
animations 21
Emily 21
psychopath 21
accent 21
seals 21
educators 21
Sobule 21
parasites 21
Grace 21
oyster 21
doodling 21
protocells 21
remittances 21
Rachel 20
ic 20
44 20
storyteller 20
ter@@ 20
fied 20
v@@ 20
survivors 20
bio@@ 20
ler 20
A. 20
duration 20
beats 20
thumbs 20
geeks 20
arena 20
cathedral 20
waking 20
recovered 20
seawater 20
Sadly 20
packaging 20
owns 20
lays 20
armor 20
potent 20
doses 20
frustration 20
listed 20
est 20
E. 20
cloth 20
it@@ 20
spontaneously 20
specialists 20
embarrassed 20
fighters 20
poets 20
38 20
Brazilian 20
predators 20
threatening 20
statistically 20
valid 20
I.Q. 20
evaluate 20
Chad 20
stake 20
short-term 20
Bangladesh 20
TS 20
roofs 20
hotter 20
codes 20
incomplete 20
kilometer 20
iPod 20
symbolic 20
heavens 20
utter 20
Nigerian 20
attend 20
faculty 20
Virtual 20
Skype 20
frogs 20
Tibet 20
tics 20
desires 20
ity 20
laundry 20
waited 20
Jersey 20
microscopic 20
developments 20
partnerships 20
wilderness 20
valued 20
towns 20
Y 20
150,000 20
ban 20
appropriately 20
inform 20
coin 20
rushed 20
breasts 20
specialist 20
adoption 20
soccer 20
rainforests 20
introduces 20
Year 20
1994 20
afterward 20
remembering 20
cues 20
bath 20
flourish 20
supercomputer 20
veil 20
dictator 20
empire 20
Jefferson 20
vending 20
sucks 20
Medicine 20
guidance 20
unite 20
ni@@ 20
graffiti 20
Doesn 20
rewarded 20
Oliver 20
stairs 20
temporal 20
recognizes 20
Diana 20
Throughout 20
influences 20
association 20
ambiguity 20
coincidence 20
morally 20
basement 20
hacker 20
petition 20
chemotherapy 20
energetic 20
starvation 20
invitation 20
certainty 20
orientation 20
reject 20
Jonas 20
Melinda 20
al-@@ 20
charts 20
Luckily 20
strand 20
Siberia 20
Part 20
ators 20
liberals 20
comprehensive 20
blessed 20
caregivers 20
Alan 20
programmed 20
novels 20
gi@@ 20
bucket 20
Graham 20
ment 20
Ron 20
jam 20
Students 20
wow 20
modeling 20
vicious 20
P 20
McDonald 20
shuttle 20
Kyoto 20
Christ 20
Young 20
Bay 20
tips 20
Murray 20
worldview 20
calcium 20
periodic 20
amino 20
accomplish 20
Having 20
bleeding 20
Dean 20
1975 20
Mitchell 20
marriages 20
personalities 20
astronomy 20
combinations 20
Mumbai 20
donated 20
automatic 20
entrance 20
schooling 20
Beethoven 20
reclaim 20
Lesterland 20
statistic 20
om@@ 20
reefs 20
predator 20
Europa 20
purely 20
Despite 20
mathematicians 20
clicking 20
SR 20
mixture 20
blend 20
databases 20
enhance 20
Ryan 20
Dubai 20
Kenyan 20
creepy 20
Suppose 20
indoor 20
obstacle 20
literal 20
gosh 20
marketplace 20
20-@@ 20
F 20
allies 20
Cairo 20
employee 20
careers 20
Conference 20
laying 20
unemployment 20
primal 20
knock 20
assure 20
Caribbean 20
Anderson 20
migrate 20
protective 20
hypotheses 20
settings 20
Nairobi 20
calculus 20
bikes 20
Aaron 20
Titus 20
ballot 20
circulation 20
supermassive 20
Romo 20
XL 20
transformations 20
oiled 20
A-rhythm-etic 20
FGM 20
Recently 19
Climate 19
summary 19
matching 19
delight 19
articulate 19
artifacts 19
Pu@@ 19
ambition 19
negotiating 19
performs 19
34 19
deer 19
refined 19
experimentation 19
Thirty 19
intricate 19
os 19
numb 19
contributing 19
routes 19
reserves 19
Empire 19
imaginary 19
Toronto 19
urgent 19
uniquely 19
ically 19
releasing 19
smallpox 19
tru@@ 19
backgrounds 19
rooted 19
abandon 19
tactics 19
finishing 19
reads 19
sooner 19
eternal 19
requirement 19
organizational 19
knocked 19
dining 19
surplus 19
Hawking 19
Qu@@ 19
radius 19
Milky 19
o-@@ 19
So@@ 19
wishes 19
exquisite 19
entertaining 19
Harry 19
sufficient 19
40s 19
provocative 19
assistance 19
staggering 19
heated 19
redesign 19
pipes 19
RNA 19
progression 19
biologically 19
swam 19
Mt 19
shallow 19
astronauts 19
remembers 19
gentle 19
swallowed 19
den@@ 19
Com@@ 19
halfway 19
th@@ 19
Water 19
praise 19
steak 19
libraries 19
Nepal 19
noticing 19
preferences 19
duty 19
lover 19
mysteries 19
fore@@ 19
Oregon 19
60,000 19
suitcase 19
dy 19
for@@ 19
sion 19
culturally 19
Buddha 19
honored 19
humble 19
jewelry 19
mammal 19
Craig 19
unstable 19
mammogram 19
injection 19
altogether 19
Interestingly 19
calendar 19
kilograms 19
pa@@ 19
metric 19
fever 19
bonus 19
le-@@ 19
coordination 19
parked 19
Edward 19
attachment 19
ringing 19
slight 19
Pa@@ 19
Mrs. 19
hop 19
editors 19
Dave 19
medications 19
strains 19
diagnose 19
screens 19
Venus 19
Poland 19
unity 19
praying 19
Royal 19
singer 19
Sudan 19
learns 19
Especially 19
equipped 19
responsibilities 19
Democrats 19
par@@ 19
Rose 19
Franklin 19
Mary 19
cross-@@ 19
NGO 19
sighted 19
configuration 19
progressive 19
inherited 19
Happy 19
principal 19
disciplines 19
carrot 19
chickens 19
malnutrition 19
Diego 19
sketches 19
confusion 19
Poor 19
alert 19
industrialized 19
CEOs 19
grandmothers 19
Taylor 19
manages 19
dinosaur 19
executive 19
Best 19
buses 19
jury 19
pro-@@ 19
Essentially 19
enforcement 19
immigrants 19
do@@ 19
ion 19
Danish 19
acceptable 19
requests 19
compressed 19
retired 19
Station 19
varieties 19
intersection 19
Bo@@ 19
abalone 19
diffusion 19
retail 19
Otherwise 19
Scottish 19
lawn 19
surprises 19
deny 19
dependence 19
projected 19
Lawrence 19
distracted 19
Republicans 19
queen 19
Keith 19
2.5 19
visitors 19
strict 19
limestone 19
1996 19
reconstruct 19
Jerry 19
gasoline 19
hub 19
System 19
impressed 19
Forget 19
fulfilling 19
deploy 19
Say 19
state-of-the-art 19
Greeks 19
melody 19
preference 19
virtues 19
dangers 19
Secretary 19
negotiation 19
fiscal 19
donation 19
Justice 19
CNN 19
recipes 19
1945 19
wonderfully 19
taller 19
disappears 19
Plato 19
regain 19
deceased 19
sequenced 19
ver@@ 19
receptor 19
professions 19
prejudice 19
circuitry 19
policing 19
cigarettes 19
candle 19
indigenous 19
referred 19
entrepreneurship 19
summarize 19
traumatic 19
spends 19
hypothetical 19
two-dimensional 19
slum 19
collaborator 19
Emma 19
handling 19
Khan 19
Carol 19
janitor 19
Julie 19
Scratch 19
bay 19
Clay 19
Doug 19
Bertie 19
seafood 19
MG 19
envision 18
tional 18
cinema 18
commodities 18
reviews 18
tick 18
biotech 18
hack 18
minimize 18
bar@@ 18
justify 18
champion 18
basics 18
gloves 18
lever 18
explanations 18
update 18
outdoor 18
writes 18
poured 18
survives 18
ving 18
dragged 18
weakness 18
two-way 18
verge 18
Tehran 18
go@@ 18
rings 18
packaged 18
inventions 18
17th 18
Cities 18
apparent 18
Garden 18
trailer 18
z@@ 18
hand-@@ 18
eradicate 18
wipe 18
grip 18
settle 18
shing 18
economically 18
Vancouver 18
posts 18
behold 18
Tuesday 18
hooked 18
orders 18
Bangalore 18
installations 18
10-@@ 18
reasonably 18
scholar 18
enters 18
insist 18
grace 18
athletic 18
scholarship 18
successes 18
midst 18
directed 18
acknowledged 18
Sex 18
Katrina 18
rebuilding 18
pathology 18
immortality 18
intend 18
strokes 18
po@@ 18
cement 18
flourishing 18
Whoa 18
exit 18
cooler 18
radar 18
12th 18
applause 18
signing 18
ence 18
fade 18
reconciliation 18
cultivate 18
Working 18
guitar 18
Usually 18
Un@@ 18
explorers 18
f 18
Walker 18
2020 18
crowded 18
routinely 18
strangely 18
manufacturers 18
CC 18
claimed 18
races 18
benign 18
digitally 18
quotes 18
collision 18
X-rays 18
quo 18
rage 18
manufacture 18
Lots 18
CL 18
cookies 18
worries 18
consists 18
menu 18
conditioning 18
accountable 18
wages 18
inadequate 18
developer 18
Vietnamese 18
Prime 18
Mi@@ 18
Neil 18
spatial 18
commonly 18
murdered 18
explicitly 18
verbs 18
polls 18
lazy 18
ignorant 18
Radio 18
startling 18
historian 18
launching 18
reflecting 18
cracked 18
sidewalk 18
popping 18
43 18
bull 18
potato 18
lied 18
battles 18
analytics 18
sympathy 18
Save 18
poorer 18
transferred 18
addressed 18
presenting 18
semi-@@ 18
occupation 18
ambiguous 18
vivid 18
p.m. 18
commentary 18
checked 18
am@@ 18
Oakland 18
lightning 18
programmer 18
attribute 18
backed 18
loaded 18
Stay 18
Gaza 18
filming 18
tically 18
Ultimately 18
intrigued 18
abused 18
blocked 18
floors 18
evaluation 18
diarrhea 18
convenience 18
triangle 18
19@@ 18
1992 18
coined 18
Treasure 18
Between 18
salad 18
planetary 18
Home 18
potatoes 18
augmented 18
For@@ 18
conclusions 18
poses 18
habitats 18
cop 18
bacterium 18
tales 18
laughter 18
elevated 18
Rights 18
basket 18
eighth 18
Buy 18
tags 18
fi@@ 18
skip 18
inventing 18
Such 18
sail 18
D. 18
Chicken 18
resolved 18
overweight 18
inorganic 18
True 18
frequent 18
TEDMED 18
olive 18
animated 18
Stories 18
Ne@@ 18
nerd 18
bumps 18
Baby 18
demanding 18
traditionally 18
Dis@@ 18
tribute 18
sang 18
sin 18
composition 18
Ice 18
cosmos 18
bent 18
Liberia 18
Finance 18
sadly 18
African-American 18
physiology 18
thereby 18
crank 18
alphabet 18
strands 18
Saul 18
deliberate 18
disconnected 18
backup 18
efficiently 18
humanities 18
chaotic 18
mathematician 18
revelation 18
angels 18
pasted 18
microbial 18
urbanization 18
Doha 18
pheromones 18
themes 18
relaxed 18
high-speed 18
Guinea 18
emphasis 18
cleaner 18
pesticides 18
spills 18
frustrating 18
ph@@ 18
16@@ 18
intellect 18
satisfy 18
newly 18
county 18
electromagnetic 18
employ 18
pneumonia 18
weekends 18
paradise 18
scaffold 18
ED 18
offshore 18
nuclei 18
glucose 18
kicked 18
Alaska 18
skeptical 18
Rory 18
drinks 18
verbal 18
addicted 18
producer 18
20@@ 18
uploaded 18
Native 18
loser 18
margins 18
Roy 18
expressive 18
memorial 18
pioneers 18
comics 18
MoMA 18
RS 18
Stirling 18
46 18
Baltimore 18
Bhutan 18
preventable 18
oxide 18
AV 18
RG 18
toaster 18
FBI 18
bananas 18
degraded 18
S.O.S. 18
FOXO 18
RSW 18
frugal 18
Gwen 18
15,000 17
double-@@ 17
12-year-old 17
memorable 17
vibrant 17
issued 17
accidentally 17
pollutants 17
non@@ 17
exploded 17
behaving 17
cheated 17
worthwhile 17
bands 17
tively 17
Ross 17
popped 17
fees 17
La@@ 17
persistent 17
certified 17
sp@@ 17
communal 17
conceptual 17
Fair 17
spontaneous 17
adjacent 17
rigorous 17
500,000 17
TEDWomen 17
Harlem 17
superior 17
Stanley 17
grabs 17
Force 17
commands 17
chat 17
cumulative 17
officers 17
replied 17
wore 17
MBA 17
conspiracy 17
extensive 17
finite 17
Pe@@ 17
beans 17
operator 17
firsthand 17
noble 17
seize 17
registered 17
Yale 17
Potter 17
bankers 17
simplistic 17
manipulation 17
eliminating 17
associations 17
payment 17
Trust 17
flooding 17
pets 17
concentrations 17
Humans 17
il@@ 17
nonsense 17
1,@@ 17
expands 17
drowning 17
Ba@@ 17
res 17
Unlike 17
jacket 17
58 17
Digital 17
reconcile 17
entities 17
unimaginable 17
400,000 17
Fifty 17
den 17
envy 17
corporation 17
titles 17
tops 17
94 17
lakes 17
functionality 17
pillars 17
on-@@ 17
logically 17
identification 17
cockroach 17
Economist 17
obscure 17
detectors 17
crystals 17
Later 17
editing 17
effectiveness 17
stabilize 17
180 17
ker 17
donate 17
wander 17
h@@ 17
followers 17
structured 17
districts 17
donations 17
voluntary 17
Ed 17
Language 17
realizes 17
quarters 17
Alfred 17
cocktail 17
anytime 17
Super 17
man@@ 17
Truth 17
pumps 17
mimics 17
cu@@ 17
Kim 17
communist 17
Albert 17
bind 17
civilians 17
foster 17
metaphors 17
seasons 17
delivers 17
outrageous 17
glory 17
ma 17
declared 17
attraction 17
Norman 17
legally 17
forbid 17
psychiatric 17
inclusive 17
reduces 17
paralysis 17
15th 17
bitter 17
aorta 17
CAD 17
bypass 17
contents 17
Eat 17
lasts 17
anticipated 17
indicators 17
lining 17
grassroots 17
embraced 17
Jeff 17
Turn 17
developmental 17
relevance 17
stimulus 17
Studio 17
Lady 17
volumes 17
low-tech 17
pioneer 17
cane 17
cables 17
Gary 17
upload 17
tracked 17
providers 17
meantime 17
surroundings 17
directors 17
Barack 17
Mac 17
explicit 17
Fund 17
stocks 17
suey 17
82 17
stole 17
appreciated 17
Learning 17
fuzzy 17
secondly 17
poly@@ 17
ru@@ 17
Caltech 17
bench 17
ranging 17
backward 17
commercials 17
Talks 17
Bali 17
transmitted 17
leak 17
overlap 17
pirate 17
crosses 17
ful 17
snakes 17
scanned 17
Republican 17
innate 17
convention 17
wells 17
Deep 17
squeeze 17
Cape 17
liberty 17
artery 17
superstar 17
gravitational 17
Humanity 17
folk 17
ster 17
geographic 17
unequal 17
curator 17
UCLA 17
publication 17
avatar 17
wallet 17
camels 17
reactor 17
four-year-old 17
ever-@@ 17
independently 17
expressing 17
fy 17
dental 17
ideological 17
Gilbert 17
ance 17
wiring 17
arithmetic 17
scaling 17
prioritize 17
scenarios 17
ne@@ 17
serotonin 17
kidneys 17
assistant 17
receptors 17
prey 17
nitrogen 17
mosque 17
Tunisia 17
1997 17
125 17
airports 17
acute 17
mattered 17
Archie 17
404 17
Movement 17
corresponds 17
loyal 17
Cha@@ 17
cocaine 17
timeline 17
departments 17
Treating 17
cello 17
Oprah 17
harvesting 17
Fibonacci 17
Gando 17
sulfide 17
timber 17
Aimee 17
tagged 17
Data 17
SOPA 17
for-profit 17
pest 17
predatory 17
doo 17
guerrilla 17
nitric 17
Mahmoud 17
boreal 17
Ig 17
phthalates 17
Biosphere 17
FreeSpeech 17
fragmented 16
teen 16
Po@@ 16
revolutionize 16
Sahara 16
tennis 16
Mario 16
110 16
rip 16
Code 16
removing 16
consideration 16
Mozart 16
pit 16
Live 16
exclusive 16
stand-up 16
feared 16
Israelis 16
dude 16
8@@ 16
41 16
Hundreds 16
1,100 16
plankton 16
alized 16
passengers 16
commodity 16
Dolby 16
inviting 16
freeway 16
utility 16
loops 16
Bruce 16
eradicated 16
Oops 16
tropics 16
horrific 16
ninth 16
blink 16
smartest 16
postcards 16
uncover 16
Has 16
liberation 16
Fort 16
reserve 16
checks 16
steer 16
mantra 16
crises 16
provider 16
arose 16
suppress 16
quiz 16
owl 16
immortal 16
car@@ 16
Or@@ 16
ys 16
beds 16
delete 16
adolescent 16
retain 16
Nice 16
hills 16
eliminated 16
76 16
9@@ 16
life-saving 16
devastated 16
surge 16
rainfall 16
ta@@ 16
fo@@ 16
sensible 16
breakthroughs 16
incremental 16
predicting 16
Himalayas 16
flipping 16
ff 16
pervasive 16
notebook 16
Holy 16
lasted 16
breakdown 16
My@@ 16
guilt 16
Choir 16
epic 16
trunk 16
husbands 16
cosmology 16
humankind 16
butt 16
intentional 16
restoration 16
10-year-old 16
references 16
scope 16
minimal 16
ns 16
individually 16
man-made 16
introverts 16
Computer 16
Moses 16
Guess 16
glowing 16
pursuing 16
distribute 16
pressures 16
tering 16
selective 16
apes 16
FDA 16
Agency 16
balancing 16
rhetoric 16
Senate 16
criticized 16
refers 16
receives 16
faint 16
thrilling 16
full-@@ 16
motorcycle 16
enzyme 16
Peru 16
outbreak 16
comparable 16
limitation 16
continually 16
circular 16
storing 16
recreate 16
retire 16
ches 16
statue 16
maximize 16
bu@@ 16
celebration 16
richness 16
tense 16
freak 16
Babylon 16
promoting 16
divine 16
parliament 16
constitution 16
gangs 16
stated 16
Police 16
availability 16
involvement 16
burns 16
butterflies 16
sketch 16
maintaining 16
Tahrir 16
Millions 16
dragging 16
substantial 16
delighted 16
reply 16
acted 16
elites 16
slavery 16
sane 16
smiles 16
banana 16
copied 16
arrangement 16
ghost 16
instances 16
fictional 16
formats 16
defines 16
tweets 16
literary 16
sen@@ 16
complain 16
citizenship 16
21st-century 16
awards 16
rode 16
conferences 16
ministers 16
min@@ 16
buys 16
slogan 16
Use 16
saves 16
lasers 16
explorer 16
adventures 16
joyful 16
Captain 16
ven@@ 16
tive 16
Start 16
Either 16
hi@@ 16
supposedly 16
companion 16
Cu@@ 16
asthma 16
low-income 16
-to-@@ 16
zoning 16
top-down 16
h 16
holiday 16
marked 16
overlooked 16
disruption 16
veteran 16
Magic 16
publisher 16
um 16
accused 16
Index 16
simulate 16
Langley 16
lighter 16
illumination 16
CD 16
criticism 16
files 16
Everywhere 16
10th 16
Looking 16
ag@@ 16
decode 16
Da 16
Bring 16
incomes 16
billboard 16
PC 16
Man@@ 16
Tennessee 16
arrow 16
Victorian 16
speeches 16
carbonate 16
investigating 16
Gehry 16
nail 16
250,000 16
Hopkins 16
kindly 16
reproductive 16
ck 16
strictly 16
Maryland 16
digitize 16
Roman 16
susceptible 16
Top 16
urgency 16
depths 16
magnet 16
adequate 16
disgusting 16
sub-@@ 16
scream 16
ping 16
sed 16
ancestor 16
juvenile 16
Nico 16
ba@@ 16
extracted 16
er-@@ 16
sabbatical 16
steering 16
automated 16
prayer 16
shout 16
Kibera 16
Germans 16
millennia 16
regenerative 16
spores 16
cutting-edge 16
distinctive 16
B.C. 16
deserts 16
self-esteem 16
respiratory 16
ming 16
Abu 16
Gi@@ 16
methodology 16
satisfied 16
nurturing 16
Billy 16
Award 16
pollination 16
slowed 16
vagina 16
a-@@ 16
chunk 16
lifelike 16
focuses 16
Mandarin 16
cluster 16
thirds 16
fool 16
searches 16
Portugal 16
arc 16
dly 16
celebrating 16
focal 16
Mc@@ 16
Hungarian 16
Bonnie 16
Williams 16
fungus 16
jar 16
Australian 16
Europeans 16
Venezuela 16
arrows 16
Campaign 16
hats 16
airline 16
composed 16
dementia 16
bulbs 16
viewers 16
porn 16
SB 16
variability 16
insisted 16
Sebastian 16
= 16
intergalactic 16
puppet 16
intrinsic 16
MR 16
Financial 16
NBA 16
ists 16
Tumor 16
generator 16
Aye 16
Palm 16
PIPA 16
pond 16
executed 16
Essex 16
restricted 16
CAPTCHA 16
Find 16
Shake 16
Syrian 16
biosphere 16
roughness 16
Di 16
Solly 16
varied 15
900 15
spaceship 15
milliseconds 15
histories 15
Given 15
theirs 15
ra 15
humane 15
slate 15
crude 15
Be@@ 15
acquisition 15
sinister 15
underestimate 15
synthesize 15
contest 15
schedule 15
disabilities 15
hint 15
r 15
distorted 15
Austria 15
hip-hop 15
louder 15
bounce 15
denser 15
instinctively 15
intuitively 15
hallway 15
arrives 15
boiling 15
chicks 15
cleaned 15
84 15
grim 15
unsustainable 15
port 15
unaware 15
countryside 15
blob 15
trusting 15
blobs 15
deliberately 15
Evan 15
optimize 15
tours 15
oftentimes 15
fingertips 15
hammer 15
vertically 15
Jon 15
tougher 15
bullets 15
ripped 15
emailed 15
worn 15
11th 15
Bu@@ 15
sensitivity 15
evolves 15
impress 15
diamond 15
relativity 15
Under 15
sought 15
meanwhile 15
midnight 15
agrees 15
treaties 15
Somehow 15
stumbled 15
Karl 15
tremendously 15
branded 15
Sp@@ 15
neighboring 15
prone 15
77 15
Airport 15
considerably 15
illustration 15
AG 15
firmly 15
crystal 15
lobby 15
Hmm 15
questioned 15
ironically 15
self-worth 15
convenient 15
conductor 15
seven-@@ 15
undergraduate 15
Voyager 15
updated 15
dominance 15
lap 15
racism 15
secretly 15
1,200 15
prevented 15
creations 15
collaborating 15
flu@@ 15
hello 15
Nicholas 15
Darwinian 15
cloned 15
coupled 15
Da@@ 15
warehouse 15
survivor 15
shortage 15
sued 15
fatty 15
ner 15
suspected 15
financially 15
Connecticut 15
Map 15
desktop 15
advantages 15
hobby 15
migrant 15
Sri 15
collar 15
single-@@ 15
triangles 15
jeans 15
officially 15
guaranteed 15
persuade 15
resonate 15
cue 15
Didn 15
alism 15
invasion 15
exile 15
united 15
superpower 15
tor 15
responsive 15
crow 15
suburbs 15
equilibrium 15
Tech 15
Girls 15
Hopefully 15
strips 15
pollinators 15
fertility 15
Arabs 15
racial 15
academics 15
protesters 15
rightly 15
Making 15
all-@@ 15
de-@@ 15
treaty 15
lasting 15
ning 15
assign 15
assigned 15
Westerners 15
broadcasting 15
U@@ 15
embody 15
enabling 15
revealing 15
civilian 15
ad@@ 15
Believe 15
inspirational 15
bites 15
Oscar 15
nonviolence 15
statements 15
volcano 15
fooled 15
beginnings 15
reuse 15
unfinished 15
participated 15
ve@@ 15
USDA 15
carbs 15
ality 15
Browne 15
greed 15
dump 15
forgiveness 15
ments 15
environmentally 15
upgrade 15
penicillin 15
joins 15
mist 15
toothbrush 15
old-fashioned 15
thermostat 15
Louis 15
gifted 15
severely 15
excess 15
freeze 15
ved 15
aesthetics 15
conviction 15
theft 15
implants 15
hears 15
malware 15
hilarious 15
ski 15
guesses 15
semester 15
high-quality 15
Had 15
Dennis 15
implication 15
Finland 15
56 15
wed 15
downstairs 15
infect 15
Stefan 15
dividing 15
Want 15
intrinsically 15
unpleasant 15
pers 15
Copernicus 15
baker 15
stereo 15
founding 15
Transition 15
flood 15
council 15
lined 15
fault 15
HIV-positive 15
transformational 15
side-by-side 15
synthesis 15
Free 15
improbable 15
clapping 15
dealt 15
Often 15
infrared 15
warmer 15
cubic 15
accelerated 15
calculators 15
ZK 15
closet 15
brakes 15
Cor@@ 15
Going 15
Arkansas 15
funders 15
hopeless 15
missions 15
LEDs 15
Canyon 15
Thula 15
grounded 15
Russell 15
rendered 15
mer 15
telephones 15
Different 15
vastly 15
workshop 15
LHC 15
patch 15
practiced 15
belt 15
apparatus 15
Pennsylvania 15
regimes 15
tunnels 15
favela 15
Chernobyl 15
astronomical 15
occupied 15
enzymes 15
conservatives 15
Justin 15
packing 15
algebra 15
Got 15
vibrate 15
blows 15
Kepler 15
vibrations 15
back@@ 15
pension 15
respects 15
transcend 15
outrage 15
negotiations 15
surrounds 15
relational 15
exams 15
traded 15
shipped 15
Kate 15
sterile 15
Excuse 15
standardized 15
Power 15
kite 15
hatred 15
TB 15
footprints 15
neuroscientists 15
logging 15
receiver 15
humanoid 15
Ac@@ 15
hiring 15
controller 15
Pantheon 15
casting 15
collections 15
incorporate 15
thylacines 15
slaughter 15
anthropologist 15
one-dimensional 15
treadmill 15
creators 15
Do@@ 15
Zero 15
lane 15
Fly 15
Wilson 15
cellphone 15
Joey 15
anthropology 15
slaves 15
terrorist 15
investigative 15
Khmer 15
Rouge 15
competitors 15
air@@ 15
Money 15
Du@@ 15
Along 15
socioeconomic 15
breed 15
diary 15
friction 15
1989 15
settlement 15
Maya 15
Sarajevo 15
flour 15
elder 15
medieval 15
psychiatrist 15
Video 15
plaque 15
Tarahumara 15
windmill 15
paints 15
fertilizer 15
marshmallow 15
raft 15
progeria 15
flaw 15
Compassion 15
paragraph 15
heel 15
spiders 15
dumped 15
Sending 15
Guatemala 15
undercover 15
cochlear 15
TD 15
Cochrane 15
daf-2 15
cymatics 15
boson 15
Weibo 15
Sioux 15
Ni@@ 14
lation 14
explosions 14
canopy 14
chapters 14
fMRI 14
Soon 14
weaker 14
enduring 14
Jimmy 14
titled 14
Mountain 14
cops 14
Ri@@ 14
Nazi 14
brick 14
astronaut 14
reluctant 14
balloons 14
guidelines 14
Ho@@ 14
Por@@ 14
suggestions 14
experimenter 14
Behind 14
lyrics 14
id 14
te@@ 14
shouting 14
yelling 14
Real 14
liking 14
roommate 14
peaks 14
bleed 14
Exactly 14
spite 14
forage 14
Orleans 14
Maria 14
cooked 14
bricks 14
belonging 14
booth 14
disconnect 14
sync 14
stripped 14
fridge 14
develops 14
stakes 14
crawl 14
proves 14
enthusiasm 14
fairy 14
whip 14
Anthony 14
bust 14
zip 14
bri@@ 14
commander 14
monthly 14
transnational 14
Already 14
entity 14
exponentially 14
succeeding 14
League 14
exhilarating 14
Hope 14
Days 14
triumph 14
ered 14
manipulated 14
assumes 14
predictive 14
floods 14
eye-opening 14
nuanced 14
huh 14
submitted 14
tensions 14
Russians 14
Energy 14
virtuous 14
mor@@ 14
cent 14
alter 14
protects 14
thoroughly 14
thirdly 14
converting 14
partially 14
institute 14
Hy@@ 14
glaciers 14
rubble 14
similarly 14
gs 14
monument 14
med 14
hug 14
Picture 14
Club 14
Uh 14
correlated 14
interviewing 14
antidote 14
Sleep 14
Carter 14
meaningless 14
union 14
anticipation 14
Boys 14
15-year-old 14
simplify 14
establishing 14
randomness 14
slices 14
auditorium 14
78 14
sells 14
nu@@ 14
Luke 14
Miller 14
nerdy 14
rewarding 14
Laptop 14
physiological 14
selectively 14
bioluminescent 14
salmon 14
stuffed 14
DARPA 14
war@@ 14
zes 14
Rezero 14
Laboratory 14
counter@@ 14
orbiting 14
passionately 14
determining 14
distinguish 14
grams 14
Malcolm 14
gamma 14
40-@@ 14
83 14
rejection 14
integrating 14
projector 14
oriented 14
modify 14
browse 14
destined 14
Hu@@ 14
eco-@@ 14
57 14
peanut 14
livestock 14
vegetarian 14
gallons 14
1986 14
rent 14
reconstruction 14
fishermen 14
hippocampus 14
spike 14
stretched 14
day-to-day 14
Walk 14
commute 14
persist 14
destructive 14
notions 14
boyfriend 14
catastrophe 14
Old 14
thou 14
ha@@ 14
tolerant 14
chimpanzee 14
Hal@@ 14
ched 14
adds 14
sun@@ 14
lovers 14
Egyptians 14
idiot 14
smashed 14
kings 14
extremists 14
slave 14
oblivious 14
interrupted 14
interpreted 14
T.B. 14
containers 14
Knowing 14
hints 14
essay 14
flipped 14
Gu@@ 14
partial 14
ining 14
scroll 14
El@@ 14
filed 14
warfare 14
battlefield 14
450 14
Robinson 14
00 14
corridors 14
spouse 14
heights 14
Miss 14
Millennium 14
ash 14
confirmed 14
composer 14
mum 14
Jason 14
ruin 14
progressively 14
puppets 14
nanoscale 14
combining 14
imposing 14
unhealthy 14
Neither 14
fixing 14
wasting 14
immunity 14
ex-@@ 14
limbs 14
enterprises 14
shells 14
residential 14
intractable 14
mechanically 14
Jo@@ 14
firms 14
unthinkable 14
mythology 14
F. 14
Library 14
permanently 14
Bri@@ 14
blogger 14
counterintuitive 14
leaks 14
telecommunications 14
encrypted 14
scarf 14
fac@@ 14
dial 14
recruit 14
reinventing 14
supports 14
Morning 14
tion-@@ 14
Tso 14
and-@@ 14
chef 14
Col@@ 14
ism 14
fying 14
Linux 14
knives 14
definitions 14
toolbox 14
navigation 14
Cloud 14
substantially 14
Thousands 14
prescription 14
attended 14
extraction 14
Walmart 14
servers 14
listener 14
Guardian 14
endlessly 14
suburbia 14
systemic 14
maternal 14
tiniest 14
Text 14
Ber@@ 14
Mahatma 14
performances 14
Better 14
complained 14
enthusiastic 14
fee 14
cabinet 14
conductive 14
2013 14
attendance 14
sealed 14
contagion 14
hand@@ 14
accidental 14
painter 14
Johns 14
cheaply 14
underway 14
displayed 14
defending 14
attacking 14
multitasking 14
Cuba 14
attempting 14
fled 14
proving 14
tooth 14
streaming 14
– 14
flaws 14
descriptions 14
sh 14
Call 14
Ge@@ 14
74 14
outward 14
towers 14
Helen 14
asteroids 14
Mount 14
tes 14
veins 14
% 14
starving 14
strive 14
edited 14
plotted 14
induced 14
wounds 14
wearable 14
translates 14
Maps 14
char@@ 14
star@@ 14
kin 14
taxi 14
Local 14
no@@ 14
lifelong 14
grounds 14
Game 14
waving 14
reporters 14
aims 14
Len 14
ec@@ 14
powerless 14
bombing 14
persons 14
mites 14
goats 14
Stockholm 14
Freeman 14
53 14
subconscious 14
quoted 14
Tasmania 14
gigantic 14
graduates 14
seminal 14
monk 14
vague 14
collapses 14
sovereign 14
Brothers 14
vegetation 14
snap 14
biomaterials 14
refine 14
scare 14
Intel 14
locomotion 14
planner 14
shade 14
Amsterdam 14
remix 14
governed 14
wi@@ 14
fertilizers 14
reunion 14
killings 14
punish 14
initiatives 14
exposing 14
neurologic 14
Aurora 14
BP 14
gratefulness 14
respectful 14
ponds 14
nonetheless 14
outdated 14
cal@@ 14
Turk 14
CP 14
zoo 14
germ 14
flock 14
Nine 14
activism 14
Against 14
campaigning 14
verse 14
Honey 14
carpet 14
Lunch 14
cognitively 14
gratification 14
compress 14
casualties 14
Arts 14
Ze 14
Matthew 14
rigged 14
ruled 14
Sean 14
bipolar 14
prevents 14
disrupt 14
tra@@ 14
nation-state 14
Mister 14
achievements 14
helicopters 14
typed 14
Norse 14
larvae 14
auditory 14
bombers 14
forged 14
attorney 14
Mathematica 14
clicks 14
Andy 14
scaled 14
Pepsi 14
1993 14
MM 14
Player 14
HP 14
pore 14
Broadmoor 14
custom 14
reimagine 14
Message 14
flap 14
dengue 14
marries 14
Ukraine 14
Bageye 14
firefly 14
quot 14
reviewed 13
shrink 13
demanded 13
latter 13
Sho@@ 13
filmmakers 13
ell 13
guessed 13
measurable 13
gaze 13
Ellen 13
hands-on 13
Moscow 13
Desert 13
invasive 13
cereal 13
stratosphere 13
whistling 13
Super@@ 13
wa@@ 13
160 13
cra@@ 13
we@@ 13
interfere 13
carpenter 13
shredded 13
Commandments 13
refrigerators 13
Mellon 13
gamers 13
wondrous 13
Awesome 13
legendary 13
confuse 13
drowned 13
sponge 13
Philippines 13
ths 13
shook 13
dairy 13
erosion 13
oysters 13
wandering 13
arriving 13
rail 13
periphery 13
l-@@ 13
He@@ 13
lightweight 13
tearing 13
Twenty 13
tis 13
coordinated 13
toughest 13
guts 13
exceptional 13
shelters 13
Cross 13
demonstrating 13
ingenious 13
Hold 13
troubled 13
nine-year-old 13
-up 13
whatnot 13
Grant 13
adapting 13
pads 13
arranged 13
openly 13
world-class 13
sustaining 13
Sur@@ 13
appearing 13
sal@@ 13
accommodate 13
retreat 13
ce@@ 13
Seriously 13
Thursday 13
motivates 13
Legos 13
motivations 13
fueled 13
mers 13
droughts 13
ports 13
sewage 13
encourages 13
restoring 13
ventilation 13
Sta@@ 13
genuinely 13
excuses 13
ist 13
instability 13
pools 13
aggression 13
dimensional 13
pen@@ 13
raging 13
Woman 13
Though 13
dug 13
br@@ 13
Roosevelt 13
1991 13
conducting 13
insecure 13
flown 13
Lower 13
continuity 13
blended 13
repertoire 13
puzzling 13
c 13
incarceration 13
spotted 13
grief 13
differentiate 13
1957 13
missile 13
Pearl 13
TEDster 13
touches 13
stacks 13
madness 13
casual 13
Turkish 13
fu@@ 13
bending 13
manufacturer 13
whereby 13
har@@ 13
Massachusetts 13
Meet 13
lump 13
unnecessary 13
MBI 13
relies 13
lymph 13
journals 13
pixels 13
54 13
cartilage 13
pollinate 13
inhabitants 13
Pakistani 13
violated 13
sights 13
unbelievably 13
proposing 13
Taiwan 13
L 13
curtain 13
spikes 13
impulses 13
predicts 13
symmetry 13
Wide 13
continuum 13
cholera 13
arrangements 13
incidentally 13
undermine 13
tolerate 13
alist 13
logist 13
screw 13
Mubarak 13
prophet 13
Iraqi 13
worship 13
shattered 13
sha@@ 13
coins 13
thriving 13
devised 13
sweep 13
resort 13
valves 13
anecdote 13
Ali 13
Osama 13
ies 13
barrel 13
Sounds 13
anonymity 13
sponsored 13
straw 13
Gordon 13
ture 13
frontiers 13
Fa@@ 13
Bonnet 13
str@@ 13
miniature 13
hood 13
psychotic 13
encoded 13
fellows 13
follow-up 13
89 13
No@@ 13
prospect 13
inability 13
tourist 13
throws 13
Pi@@ 13
restored 13
collects 13
ky 13
echo 13
vaccinated 13
offensive 13
estrogen 13
contracts 13
twin 13
1988 13
immersed 13
slightest 13
aviation 13
keen 13
crust 13
cruise 13
poles 13
prototyping 13
textile 13
ens 13
transforms 13
headache 13
au@@ 13
ned 13
Dead 13
degradation 13
consumes 13
imaginations 13
cyber 13
sings 13
repeating 13
contacted 13
Point 13
costly 13
invaded 13
rainbow 13
offenders 13
geek 13
Cal@@ 13
caregiver 13
Baxter 13
visuals 13
reacting 13
Bono 13
chk 13
Simple 13
photographic 13
CIA 13
acre 13
undergo 13
adulthood 13
testimony 13
Indiana 13
Troy 13
47 13
human-@@ 13
post-traumatic 13
solves 13
zeros 13
surf 13
performer 13
rotating 13
leaked 13
Brother 13
Ms. 13
no-@@ 13
Ju@@ 13
leisure 13
terminal 13
decreased 13
certificate 13
obligation 13
mighty 13
Innovation 13
Ben@@ 13
1800s 13
Q@@ 13
fraud 13
searched 13
nanotubes 13
electrode 13
pleasures 13
adopting 13
sliced 13
throat 13
Rob 13
pushes 13
souls 13
needles 13
ites 13
alarming 13
Le 13
graves 13
disk 13
Evelyn 13
ear@@ 13
broadly 13
Kay 13
Antarctic 13
Jake 13
calculator 13
resulted 13
prizes 13
ray 13
inexpensive 13
rebel 13
fitting 13
incidence 13
Star@@ 13
delicate 13
baseline 13
mer@@ 13
exhausted 13
bs 13
Bahamas 13
Monterey 13
blues 13
crashes 13
Add 13
unfamiliar 13
protocol 13
ges 13
Solar 13
transistor 13
space-time 13
Schwarzschild 13
sur@@ 13
stic 13
pasting 13
Gillian 13
acceleration 13
Teacher 13
Marshall 13
eBay 13
tin 13
monitored 13
quantitative 13
JR 13
monsters 13
aerial 13
payload 13
Sandy 13
scalable 13
equator 13
marvel 13
needing 13
Netflix 13
scholars 13
ore 13
workshops 13
jars 13
numerous 13
speeding 13
unified 13
yields 13
confirm 13
3,@@ 13
59 13
miraculous 13
concerts 13
illiterate 13
Cultural 13
emphasize 13
digit 13
preservation 13
Hunter 13
Mountains 13
cleared 13
visionary 13
thinker 13
Brand 13
altruism 13
feminism 13
perceptual 13
Raise 13
mini-@@ 13
Doctor 13
placebo 13
Charlotte 13
vividly 13
von 13
Pascal 13
face-to-face 13
Ages 13
hives 13
Agnes 13
Von 13
gang 13
digitized 13
Jamie 13
Fantastic 13
Work 13
contaminated 13
hangs 13
fills 13
wirelessly 13
damaging 13
triggers 13
Mao 13
92 13
orangutan 13
bladder 13
vascular 13
portable 13
customization 13
smartphones 13
time-@@ 13
pedal 13
contacts 13
holistic 13
metrics 13
extracellular 13
Rich 13
publishers 13
commons 13
Elvis 13
hunters 13
flags 13
dials 13
technologists 13
Service 13
Beverly 13
sanctuary 13
polite 13
Company 13
Han 13
urges 13
accomplishment 13
Film 13
Uncle 13
foraging 13
Neanderthal 13
analogies 13
cleaners 13
corals 13
x-ray 13
Casey 13
Accenture 13
devastation 13
presentations 13
betting 13
Mechanical 13
dunes 13
Mo 13
crowds 13
Judy 13
automotive 13
Karen 13
concussion 13
holders 13
Cynthia 13
promotion 13
payoff 13
junior 13
Anything 13
Fifteen 13
uncertain 13
gaming 13
psychopathic 13
psychopaths 13
Papua 13
violation 13
biases 13
neuro@@ 13
crux 13
catalyst 13
scooped 13
semen 13
crackers 13
Row 13
Fields 13
groundbreaking 13
gridlock 13
bribes 13
levers 13
renewables 13
passport 13
Al-Qaeda 13
Islamist 13
decisive 13
legitimacy 13
Libya 13
Triceratops 13
Inuit 13
irrigation 13
Visual 13
dissection 13
Marc 13
Naomi 13
Hadron 13
Collider 13
Odysseus 13
hosts 13
peacekeepers 13
crater 13
Eden 13
grabbing 13
KB 13
embroidery 13
lawsuit 13
synapses 13
Zipcar 13
Hitler 13
seduction 13
landfill 13
grape 13
wrinkles 13
Actor 13
INCRA 13
WorldWide 13
slime 13
Scoop 13
wetsuit 13
atmospheric 12
weekly 12
tilt 12
iled 12
tackling 12
hurry 12
diamonds 12
occasional 12
ale 12
appetite 12
ot@@ 12
depressing 12
cur@@ 12
Holland 12
Ru@@ 12
Huh 12
nano 12
coated 12
bothered 12
Hebrew 12
Honor 12
packs 12
Pittsburgh 12
wrestle 12
rhythms 12
suited 12
Play 12
ju@@ 12
suicidal 12
hid 12
seas 12
under-@@ 12
an-@@ 12
one-third 12
settlements 12
compact 12
Wales 12
ng-@@ 12
ordering 12
metropolitan 12
Government 12
blessing 12
cabin 12
illustrated 12
oral 12
cru@@ 12
hi 12
750 12
impacted 12
preserving 12
mentality 12
redefining 12
versa 12
penny 12
Armstrong 12
suspects 12
ineffective 12
indicates 12
middle-aged 12
Terence 12
universally 12
readily 12
powerfully 12
defeated 12
enjoyment 12
trafficked 12
concerning 12
intentionally 12
derive 12
IKEA 12
Darfur 12
ke 12
spells 12
conserve 12
threatens 12
Beyond 12
interference 12
tre@@ 12
ble 12
speculation 12
indication 12
neglect 12
collector 12
disappearing 12
cre@@ 12
craving 12
Sergey 12
Shame 12
erase 12
Fortune 12
conflicting 12
Night 12
Riverside 12
longing 12
disposal 12
Side 12
encounters 12
forbidden 12
elusive 12
poetic 12
imaginative 12
dent 12
ry 12
Picasso 12
solitary 12
dazzling 12
ou@@ 12
ratios 12
preserved 12
historians 12
Friedman 12
commonplace 12
Camp 12
coolest 12
che@@ 12
desks 12
reserved 12
revelations 12
mon@@ 12
brink 12
champagne 12
Designer 12
Cooper 12
inhabit 12
camel 12
IT 12
sole 12
reactive 12
polymer 12
pla@@ 12
exhibitions 12
stunned 12
seamlessly 12
delayed 12
costing 12
joints 12
orthopedic 12
plentiful 12
insert 12
A-@@ 12
wealthier 12
U 12
kissing 12
Windows 12
expo 12
lings 12
desperation 12
enlightened 12
daunting 12
gates 12
forehead 12
correspond 12
extremes 12
com@@ 12
alizing 12
shes 12
biography 12
Gallery 12
guided 12
ot 12
Book 12
16th 12
V 12
1918 12
1979 12
su@@ 12
Klein 12
hyper-@@ 12
indicating 12
exponential 12
bait 12
w 12
monopoly 12
discarded 12
ws 12
Mayor 12
inefficient 12
starch 12
dictatorship 12
oppression 12
witnessing 12
photographers 12
internationally 12
50-@@ 12
apartheid 12
nursing 12
gyrus 12
infinitely 12
extracting 12
blindly 12
1.@@ 12
customs 12
disturbed 12
province 12
Years 12
wildly 12
delightful 12
j@@ 12
na@@ 12
announce 12
Over@@ 12
fearless 12
feminine 12
danced 12
Am@@ 12
bless 12
Ga@@ 12
365 12
teens 12
1973 12
10@@ 12
Governments 12
chemists 12
Barbara 12
finest 12
composite 12
Likewise 12
dentist 12
Ann 12
yogurt 12
indirectly 12
nutritional 12
advocating 12
Wired 12
triple 12
antibody 12
Swedes 12
pop-up 12
grad 12
Toyota 12
Early 12
15-@@ 12
executives 12
icons 12
lifts 12
youngsters 12
101 12
squ@@ 12
smelling 12
comprised 12
containing 12
deployment 12
di 12
photographing 12
mistaken 12
ups 12
attacker 12
similarities 12
relying 12
positively 12
Juan 12
downstream 12
cured 12
cognition 12
NIH 12
judging 12
antennae 12
Nope 12
un-@@ 12
blanket 12
plea 12
real-world 12
casually 12
blamed 12
Pants 12
ey 12
competitions 12
is@@ 12
bra@@ 12
prostitution 12
skies 12
pork 12
marched 12
Thanksgiving 12
Jamaican 12
Illinois 12
1965 12
downloaded 12
eight-@@ 12
antenna 12
Op@@ 12
As@@ 12
guessing 12
1985 12
Palestinians 12
Prot@@ 12
interrupt 12
liter 12
brilliance 12
ridge 12
creatively 12
alignment 12
antiretroviral 12
bur@@ 12
turbines 12
unsafe 12
sandwiches 12
devotion 12
sho@@ 12
pinpoint 12
clarify 12
placing 12
bandwidth 12
Fear 12
Photoshop 12
strongest 12
technician 12
Snow 12
dock 12
exploding 12
Hiroshima 12
butterfly 12
Midwest 12
tipping 12
confrontation 12
analytical 12
foremost 12
or-@@ 12
firemen 12
crashed 12
strengthen 12
teapot 12
six-year-old 12
electoral 12
manifestation 12
Hampshire 12
Fred 12
regarded 12
pancreas 12
hairs 12
tenth 12
bioluminescence 12
visualizing 12
stimulated 12
flashing 12
gently 12
warn 12
Tomorrow 12
fences 12
lexicon 12
dated 12
ots 12
ls 12
bark 12
Danny 12
addresses 12
emergent 12
limiting 12
imposed 12
watts 12
Galileo 12
celestial 12
vers 12
epiphany 12
cords 12
understandable 12
rotate 12
perceiving 12
Gapminder 12
differential 12
ss 12
verify 12
sulfur 12
head@@ 12
posting 12
masks 12
bury 12
ngs 12
capacities 12
depended 12
Speaking 12
freaking 12
gears 12
yoga 12
boils 12
clinically 12
disparate 12
automobiles 12
classification 12
examining 12
escaped 12
notation 12
improvising 12
bases 12
primordial 12
lacking 12
Diamond 12
possessions 12
pots 12
fluent 12
manipulating 12
admired 12
aspire 12
provoke 12
plywood 12
beard 12
dominate 12
upwards 12
Malaria 12
retinal 12
empirical 12
socks 12
pan@@ 12
ology 12
age-old 12
vacant 12
sunshine 12
non-profit 12
meadow 12
bells 12
honeybees 12
mind-blowing 12
shoved 12
Kosovo 12
Neumann 12
geneticist 12
gen@@ 12
lobes 12
ering 12
ap@@ 12
Molly 12
pessimistic 12
heartbeat 12
shoots 12
Know 12
IMF 12
governors 12
optic 12
palette 12
nests 12
360 12
Lisa 12
Vinci 12
clash 12
graduation 12
Ab@@ 12
triggered 12
smelled 12
whistles 12
2015 12
the-@@ 12
TVs 12
Madagascar 12
fla@@ 12
resulting 12
rectangle 12
constructive 12
womb 12
Run 12
taboo 12
Report 12
Artist 12
disastrous 12
educator 12
liberated 12
bombed 12
gravel 12
Certainly 12
melted 12
analyst 12
Large 12
incubator 12
advocacy 12
LOL 12
confession 12
nickname 12
divides 12
Ottoman 12
scripts 12
Ja@@ 12
EEG 12
deprivation 12
defenders 12
Cohen 12
knocking 12
cartoonists 12
Flickr 12
Medicines 12
Patent 12
loyalty 12
dispute 12
cortisol 12
opaque 12
1962 12
wounded 12
serial 12
unconsciously 12
troubling 12
dismiss 12
H5N1 12
acoustic 12
transducer 12
BBC 12
alpha 12
imperfect 12
automation 12
ventilated 12
salaries 12
Emmanuel 12
Splashy 12
whaling 12
Donald 12
spirituality 12
memorize 12
gging 12
fuse 12
impacting 12
alizes 12
Botswana 12
yo-yo 12
Eight 12
dissent 12
correctness 12
Shi@@ 12
cockpit 12
greatness 12
jams 12
Pur@@ 12
dysfunctional 12
Nation 12
strangeness 12
surrogate 12
time-lapse 12
void 12
Yellow 12
Sheryl 12
lawsuits 12
comp@@ 12
positioning 12
disagreement 12
mutant 12
ballast 12
participatory 12
appalling 12
growers 12
recruitment 12
Rufus 12
pipelines 12
Mayan 12
extracts 12
JK 12
flutes 12
mosquitoes 12
dune 12
restorative 12
Rockett 12
Critic 12
Riley 12
shipyard 12
thyroid 12
401 12
Tamiflu 12
Bilbao 12
Gayla 12
Barefoot 12
Subtitles 12
Transcript 12
ESG 12
meerkats 12
emitted 11
Malaysia 11
hung 11
valleys 11
inject 11
ic@@ 11
storytellers 11
imp@@ 11
influential 11
wished 11
aspiration 11
Hotel 11
on@@ 11
three-year-old 11
euros 11
aspirations 11
hazard 11
noted 11
annoyed 11
porous 11
Moving 11
encode 11
backpack 11
kes 11
token 11
Byrne 11
MP3 11
contexts 11
comedian 11
struggles 11
seriousness 11
embarrassment 11
reflex 11
End 11
Is@@ 11
populated 11
Bot@@ 11
rubbish 11
beaches 11
millimeters 11
magically 11
forgetting 11
starve 11
tile 11
smelly 11
railway 11
reconnect 11
foolish 11
portray 11
trek 11
unfold 11
ary 11
logistics 11
slows 11
silently 11
Growing 11
inferior 11
ten@@ 11
heroin 11
personnel 11
25-@@ 11
seniors 11
credible 11
scars 11
cellulose 11
accumulating 11
guest 11
Moreover 11
Amanda 11
eager 11
long-@@ 11
Giving 11
ngly 11
ne 11
Ca@@ 11
Paulo 11
maze 11
uh 11
flooded 11
fidelity 11
ribbon 11
aftermath 11
rebuilt 11
hard-@@ 11
replicated 11
festival 11
Delta 11
wetlands 11
bounds 11
desirable 11
civilized 11
evident 11
Computers 11
moderate 11
15@@ 11
assess 11
logists 11
centigrade 11
trans@@ 11
threaten 11
heartfelt 11
incidents 11
CDs 11
shores 11
beep 11
prince 11
lastly 11
goggles 11
motto 11
mp@@ 11
ath 11
performers 11
footsteps 11
tides 11
unlimited 11
coded 11
reciprocity 11
cul@@ 11
2.3 11
draft 11
astounding 11
algorithmic 11
mania 11
conquer 11
Harbor 11
savvy 11
Plan 11
warmth 11
cheer 11
crave 11
oddly 11
assignments 11
committee 11
Jobs 11
mimicking 11
featured 11
armies 11
Books 11
dangerously 11
skiing 11
branding 11
Mongolia 11
settling 11
cloning 11
Southeast 11
nutrient 11
Venter 11
fur 11
dynamically 11
pictured 11
scattered 11
discrete 11
alize 11
undergoing 11
Q 11
cricket 11
borrowed 11
markers 11
browsing 11
merge 11
webcam 11
sponsor 11
Achilles 11
collagen 11
template 11
dye 11
supermarkets 11
arrival 11
pavilion 11
moisture 11
termites 11
Lanka 11
guides 11
compass 11
divorced 11
tucked 11
necessity 11
proliferation 11
ticking 11
aligned 11
wakes 11
Judaism 11
ken 11
setup 11
freedoms 11
debates 11
Birds 11
complaining 11
nut 11
slot 11
hostility 11
Motor 11
competence 11
polling 11
flowering 11
symbiosis 11
wh@@ 11
spraying 11
apathy 11
Main 11
queue 11
policeman 11
dictators 11
67 11
interconnectedness 11
ruined 11
Aid 11
Reagan 11
attending 11
summarized 11
hallucination 11
unrelated 11
examined 11
handsome 11
coherent 11
Normally 11
ats 11
reinforce 11
soils 11
hers 11
observer 11
occasions 11
alization 11
14@@ 11
borrowing 11
spelled 11
il 11
re 11
sparked 11
dried 11
Hindu 11
excerpt 11
ark 11
Jeremy 11
subsequently 11
instrumental 11
Kabul 11
utilize 11
12-@@ 11
genital 11
nonprofits 11
plu@@ 11
bulk 11
employing 11
2,500 11
Na@@ 11
courtship 11
intellectually 11
drifting 11
Ed@@ 11
audacious 11
execution 11
sive 11
jargon 11
Taking 11
shortcut 11
prevalent 11
cans 11
swollen 11
bing 11
iling 11
soy 11
tended 11
crammed 11
absurd 11
empathize 11
por@@ 11
problem-solving 11
scheduled 11
complexities 11
Mission 11
flawed 11
waterfront 11
handled 11
community-@@ 11
Environmental 11
possess 11
land@@ 11
Avenue 11
stakeholders 11
proximity 11
regulatory 11
capitalist 11
Pen@@ 11
@ 11
scissors 11
Missouri 11
diver 11
Dark 11
gauge 11
stance 11
seeks 11
penetrate 11
closes 11
interacted 11
daycare 11
disbelief 11
Jean 11
compelled 11
sunset 11
blackboard 11
bookstore 11
spine 11
Collins 11
swap 11
reservation 11
anthropologists 11
edition 11
tigers 11
suffers 11
facade 11
Kentucky 11
simulated 11
blur 11
vector 11
high-resolution 11
jumps 11
NSA 11
classified 11
murderer 11
spy 11
blaming 11
constructions 11
63 11
policemen 11
Cri@@ 11
tallest 11
stereotype 11
perseverance 11
skier 11
Dance 11
Ku@@ 11
stabilized 11
cookie 11
crafted 11
bows 11
iness 11
accumulated 11
consolation 11
unconventional 11
greedy 11
geological 11
ards 11
pretending 11
ney 11
enjoyable 11
exercising 11
fleet 11
Jew 11
brilliantly 11
lenses 11
optics 11
scares 11
purchasing 11
lava 11
proposes 11
league 11
swept 11
Oil 11
rounded 11
Pope 11
unintended 11
linking 11
sprawl 11
churches 11
centered 11
Colorado 11
1.4 11
advent 11
flashes 11
thinner 11
dieting 11
Davis 11
fearful 11
typewriter 11
antique 11
Zetas 11
non-violent 11
insult 11
drums 11
vibration 11
hurdle 11
enhanced 11
cating 11
Allen 11
lag 11
Several 11
Pri@@ 11
programmable 11
ng@@ 11
rider 11
rushing 11
contamination 11
mar@@ 11
torn 11
cafeteria 11
Minnesota 11
Cleveland 11
Ori@@ 11
liberating 11
admitted 11
mat@@ 11
doubts 11
savanna 11
Beautiful 11
erectus 11
axe 11
republic 11
constitutional 11
Democracy 11
fragrance 11
undersea 11
knot 11
presumably 11
lure 11
wage 11
wrapping 11
founders 11
Gabriel 11
galleries 11
Mississippi 11
sneak 11
Compare 11
CERN 11
moons 11
riots 11
transistors 11
supernova 11
Surely 11
Stu@@ 11
investigations 11
0.@@ 11
mentoring 11
messaging 11
modern-day 11
ozone 11
wreck 11
geographical 11
ver 11
jo@@ 11
eureka 11
Nowadays 11
clicked 11
pheromone 11
imitate 11
Whole 11
efficacy 11
suppressed 11
pping 11
grilled 11
appliances 11
pressed 11
fingerprint 11
chi@@ 11
puzzled 11
son@@ 11
dances 11
Infinity 11
gardening 11
intimately 11
insurgency 11
rank 11
1949 11
Beau 11
T. 11
Move 11
undergraduates 11
archives 11
stimulating 11
39 11
linguistic 11
metaphorical 11
rainwater 11
ines 11
diner 11
sampling 11
declined 11
lawns 11
soprano 11
tenderness 11
Ka@@ 11
ents 11
Blair 11
communicates 11
stats 11
Chen 11
Yesterday 11
fireman 11
customized 11
vet 11
premature 11
clearer 11
temperate 11
shrinking 11
lemon 11
palms 11
sunny 11
fulfillment 11
proceed 11
rotates 11
1858 11
difficulties 11
2014 11
consistency 11
membranes 11
real-life 11
Eighty 11
Self-@@ 11
soda 11
Town 11
purchases 11
indirect 11
enhances 11
Group 11
census 11
pyramids 11
medal 11
bearing 11
prosperous 11
Faiza 11
mutilation 11
pains 11
resting 11
icy 11
suite 11
bathe 11
headphones 11
compatible 11
capturing 11
mold 11
Hyderabad 11
9,000 11
maintenance 11
melts 11
Enlightenment 11
drank 11
embryonic 11
Winter 11
compensate 11
paycheck 11
Goodbye 11
perpetual 11
non-verbal 11
pounding 11
thrust 11
artificially 11
Freud 11
premium 11
posing 11
adage 11
recipient 11
Perry 11
export 11
Anonymous 11
substances 11
nging 11
investigated 11
trillions 11
Jacques 11
temporarily 11
Monkey 11
Fire 11
ently 11
accounted 11
exaggerated 11
lesser 11
welcomed 11
Axis 11
Evil 11
hyena 11
Leo 11
kers 11
68 11
Pool 11
immersion 11
jets 11
saturated 11
newest 11
bribery 11
arousal 11
trustworthy 11
Fourth 11
small-scale 11
distress 11
immunization 11
judged 11
batch 11
disc 11
Architecture 11
tered 11
sacrifices 11
Judge 11
lone 11
emulate 11
Fine 11
influenza 11
five-year-old 11
rupees 11
infrastructures 11
psyche 11
belonged 11
Jessica 11
Linus 11
Eames 11
recurrent 11
extremist 11
arises 11
Reddit 11
tails 11
affairs 11
headaches 11
hollow 11
converts 11
democratization 11
Serra 11
Greg 11
Mal@@ 11
Board 11
widow 11
Renaissance 11
collapsing 11
administrators 11
all-time 11
ills 11
gecko 11
runners 11
drift 11
Yemeni 11
refrigeration 11
Choice 11
castle 11
sobering 11
heck 11
Nazis 11
pillow 11
fetuses 11
siege 11
shave 11
Lean 11
coumarin 11
carcinogens 11
Georgia 11
superpowers 11
Huck 11
reacted 11
implementation 11
Hamlet 11
Hannah 11
Bandura 11
establishment 11
obey 11
crossword 11
cucumber 11
haunted 11
reservations 11
Clonie 11
Progress 11
faked 11
Rebecca 11
Fold 11
same-sex 11
flute 11
aggregate 11
Najmuddin 11
desertification 11
Bear 11
two-year-old 11
glands 11
protons 11
Granny 11
Robicsek 11
waist 11
hump 11
sugars 11
red-haired 11
Kiva 11
Vivian 11
Copernican 11
migrants 11
bisexual 11
catadores 11
microRNAs 11
governmental 10
Gs 10
activation 10
preacher 10
arguably 10
defy 10
tier 10
overboard 10
barefoot 10
1948 10
immigrant 10
Anne 10
wrist 10
Oz 10
devoted 10
tinker 10
Far 10
bio-@@ 10
pathogens 10
DIY 10
Yep 10
feasible 10
ly-@@ 10
Max 10
poignant 10
astonishingly 10
framed 10
Ariely 10
shocks 10
tempted 10
in-group 10
intuitions 10
grandmaster 10
sounding 10
improves 10
Bach 10
Sin@@ 10
injected 10
mutually 10
Depression 10
ignoring 10
Magazine 10
announcing 10
digest 10
down@@ 10
latitude 10
Northwest 10
fragments 10
Ang@@ 10
outskirts 10
Kiteflyer 10
loneliness 10
ol@@ 10
devise 10
skins 10
one-on-one 10
stimuli 10
psychotherapy 10
win@@ 10
vaccination 10
suns 10
million-@@ 10
stark 10
stamps 10
invites 10
Daddy 10
tragically 10
secrecy 10
Sheila 10
inappropriate 10
McChrystal 10
straps 10
scrutiny 10
dispersed 10
Ranger 10
inversion 10
Close 10
microwave 10
3.5 10
aliens 10
resident 10
stresses 10
boarding 10
bullying 10
Silence 10
styles 10
aling 10
participant 10
punished 10
builders 10
diagrams 10
prevalence 10
Hurricane 10
300,000 10
Cy@@ 10
immigration 10
Rockefeller 10
hillside 10
Fahrenheit 10
splitting 10
Georgetown 10
tion@@ 10
Grey 10
trance 10
summed 10
hygiene 10
200-@@ 10
long-lived 10
philanthropic 10
sophistication 10
embryo 10
dip 10
committing 10
cyberspace 10
sucked 10
mounted 10
strapped 10
sporting 10
ya 10
Sing 10
lunches 10
kisses 10
coaches 10
Whitacre 10
ber@@ 10
burnt 10
admiration 10
warps 10
Coming 10
Cassini 10
phases 10
exclusively 10
transcendence 10
cowboy 10
mystical 10
Belgium 10
Holocaust 10
Management 10
quantify 10
inf@@ 10
bare 10
plan@@ 10
desolate 10
liters 10
preferred 10
workplaces 10
knowledgeable 10
spotlight 10
asylum 10
exchanging 10
advancing 10
Cla@@ 10
charismatic 10
magnetism 10
teamwork 10
sermons 10
softly 10
crawling 10
fused 10
dra@@ 10
mast 10
tablet 10
announcement 10
tasted 10
Dolly 10
Duke 10
simulator 10
bidding 10
sm@@ 10
criticize 10
densities 10
iPods 10
cubes 10
uptake 10
secretary 10
dness 10
sword 10
Pranav 10
switching 10
Fifth 10
transplants 10
logy 10
detergent 10
regeneration 10
diets 10
biomass 10
benefited 10
pests 10
butter 10
crab 10
antly 10
Agriculture 10
Sinclair 10
recyclable 10
disappointing 10
priest 10
leaking 10
autobiographical 10
employer 10
stirring 10
wretched 10
swings 10
Harris 10
spheres 10
conceivable 10
carved 10
endurance 10
fond 10
excluded 10
discourse 10
dumping 10
invade 10
weighed 10
consultants 10
tar@@ 10
Marduk 10
pri@@ 10
so@@ 10
Shah 10
freaked 10
peanuts 10
poke 10
tendencies 10
undermining 10
Sub-Saharan 10
extending 10
deceive 10
dam 10
sel@@ 10
t-shirt 10
Generation 10
counter-@@ 10
Morocco 10
protesting 10
Burma 10
monks 10
gged 10
shirts 10
1982 10
abnormal 10
landmines 10
sociable 10
Mozambique 10
considerable 10
Gogh 10
editorial 10
discomfort 10
stacking 10
joys 10
experimented 10
Invisible 10
Josh 10
evils 10
spins 10
legend 10
ard 10
watt 10
wiser 10
rang 10
unions 10
peek 10
donkey 10
qui@@ 10
pped 10
carts 10
unlock 10
Happiness 10
ser@@ 10
scratching 10
1,600 10
Brain 10
injecting 10
bonding 10
emission 10
Sch@@ 10
Saunders 10
upward 10
da@@ 10
der@@ 10
expeditions 10
Easter 10
bursts 10
antibiotic 10
Net 10
charitable 10
P. 10
intertwined 10
assured 10
marketed 10
fried 10
outlets 10
attributed 10
K. 10
Dec@@ 10
ruling 10
proportional 10
formerly 10
600,000 10
worthless 10
unveils 10
possession 10
Brooks 10
Americas 10
optimist 10
V@@ 10
merging 10
ren@@ 10
motivating 10
dashboard 10
Anna 10
Caroline 10
ther 10
Were 10
evolutionarily 10
aids 10
transactions 10
Getting 10
highlights 10
taped 10
soluble 10
spiral 10
W 10
Sound 10
abstraction 10
liberties 10
humorous 10
Newcastle 10
mosques 10
men@@ 10
acy 10
unleash 10
pharmaceuticals 10
charging 10
relay 10
JE 10
Extreme 10
soar 10
ther@@ 10
surfing 10
Eiffel 10
infamous 10
wholesale 10
encryption 10
targeting 10
advancement 10
cynical 10
aversion 10
mathematically 10
juxtaposition 10
charter 10
prophecy 10
dismissed 10
grand@@ 10
pepper 10
Koreans 10
cost-effective 10
Woo 10
uniforms 10
marvelous 10
inclusion 10
propulsion 10
Ser@@ 10
grandma 10
memorized 10
Sagmeister 10
1983 10
situated 10
Mor@@ 10
skyscraper 10
flo@@ 10
debating 10
hail 10
seven-year-old 10
Budrus 10
chooses 10
influencing 10
organizers 10
villagers 10
spam 10
circled 10
mini 10
unveil 10
evaporate 10
sew 10
suburban 10
CDC 10
asphalt 10
proudly 10
hotels 10
orphans 10
counseling 10
Typically 10
cherish 10
towels 10
smiled 10
Android 10
dove 10
darkest 10
parameters 10
outlines 10
Passage 10
restrictions 10
deleted 10
imbalance 10
91 10
examination 10
sible 10
inquiry 10
iteration 10
Kaplan 10
suppression 10
poop 10
ani@@ 10
tized 10
preliminary 10
mo 10
bathtub 10
collide 10
awarded 10
entries 10
comprehension 10
Democrat 10
fitness 10
feathers 10
ID 10
hive 10
close-up 10
gar@@ 10
snapshot 10
ite 10
breathtaking 10
combines 10
excessive 10
commissioned 10
Stalin 10
Tel 10
Aviv 10
inflate 10
pale 10
cyberattacks 10
tempting 10
Erik 10
Enceladus 10
1968 10
esoteric 10
behaves 10
humbling 10
assault 10
waterfall 10
km 10
vantage 10
clocks 10
render 10
fright 10
beasts 10
faulty 10
th-@@ 10
mortgage 10
sm 10
reassuring 10
bedside 10
self-awareness 10
referring 10
knit 10
excites 10
transporting 10
peer-to-peer 10
Britannica 10
distractions 10
debilitating 10
onset 10
randomized 10
et@@ 10
virgin 10
170 10
Senegal 10
substitute 10
whiskey 10
quarks 10
photons 10
albeit 10
recruited 10
exploitation 10
ethically 10
doctrine 10
knob 10
Control 10
compost 10
subset 10
Ohio 10
1987 10
Thankfully 10
heels 10
submarines 10
gra@@ 10
Planet 10
fixated 10
horizontally 10
skeptics 10
immensely 10
Amazing 10
pricing 10
psychiatry 10
psychiatrists 10
homemade 10
aisle 10
embodiment 10
Golden 10
daylight 10
misunderstood 10
Wisconsin 10
brutality 10
uncles 10
pissed 10
iPhones 10
Feynman 10
usable 10
IQ 10
high-performance 10
upright 10
delta 10
dataset 10
dreadful 10
singular 10
energies 10
pianist 10
1900s 10
66 10
colleges 10
lend 10
Poetry 10
tobacco 10
kites 10
1000 10
underlies 10
navigating 10
diffuse 10
maintained 10
fluorescent 10
orangutans 10
printers 10
crashing 10
ang@@ 10
three-quarters 10
profiles 10
Libby 10
plugged 10
abdomen 10
lifetimes 10
Bin 10
Estonia 10
quicker 10
apprentice 10
anomaly 10
safest 10
Chechnya 10
trail 10
flee 10
heterosexual 10
booming 10
wn 10
Viking 10
lesion 10
sank 10
gum 10
dissonance 10
distraction 10
Exxon 10
fifty 10
Philips 10
busted 10
stewardship 10
locate 10
exaggeration 10
4,@@ 10
life-changing 10
increments 10
Istanbul 10
mystic 10
Comedy 10
Daisy 10
scandal 10
60-@@ 10
SM 10
memes 10
LOLcats 10
Rule 10
nominate 10
outlet 10
specialize 10
pl@@ 10
st-@@ 10
Nikola 10
dialed 10
pigeons 10
toe 10
Saddam 10
Hussein 10
deserved 10
Baghdad 10
Trinidad 10
coil 10
Federal 10
near-@@ 10
Environment 10
animate 10
Cash 10
imagines 10
sails 10
woo 10
sociologist 10
killers 10
24-hour 10
Lucy 10
venom 10
Fall 10
summaries 10
pioneering 10
drifted 10
cross-border 10
7,@@ 10
aroused 10
Lebanese 10
Toby 10
Prince 10
limbic 10
foot@@ 10
see@@ 10
hubris 10
els 10
ounce 10
Warner 10
fies 10
Pop 10
dotcom 10
revenge 10
glove 10
empathic 10
preconceived 10
recline 10
Jesse 10
misuse 10
scar 10
one-party 10
convergence 10
materialistic 10
ubuntu 10
governor 10
Port-au-Prince 10
Build 10
Babies 10
stared 10
eling 10
angel 10
embassy 10
cloudy 10
ovarian 10
Rossy 10
mite 10
Blo@@ 10
jails 10
Nano 10
socket 10
expresses 10
veiled 10
awkwardness 10
replicating 10
Bon@@ 10
freshwater 10
pper 10
MW 10
ged 10
sling 10
invisibility 10
entertain 10
germs 10
dentists 10
janitors 10
abusive 10
maneuver 10
characterized 10
gamble 10
alliance 10
Transparency 10
Sharing 10
Derartu 10
Tulu 10
Paula 10
Ki@@ 10
extremism 10
one-way 10
mill 10
shiny 10
expenses 10
self-confidence 10
instructor 10
counterparts 10
plumes 10
modules 10
Traditional 10
teammates 10
ABC 10
microfinance 10
Broadway 10
Journalist 10
welcoming 10
Canal 10
pronounced 10
71 10
futures 10
Janine 10
solar-powered 10
tunneling 10
Duolingo 10
brine 10
Prego 10
ack 10
frustrations 10
troll 10
desalination 10
Malawi 10
Farmer 10
microcredit 10
Hunt 10
fluctuations 10
car-sharing 10
idle 10
Gowanus 10
arrange 10
fog 10
Hirshhorn 10
kits 10
aimed 10
courts 10
open-heart 10
miscarriage 10
multi-touch 10
leaning 10
nonverbals 10
Yo 10
ba 10
Noah 10
grapes 10
Aboriginal 10
Hills 10
rooster 10
Pray 10
Boltzmann 10
three-digit 10
Linda 10
Tide 10
doodle 10
Effects 10
Kaluza 10
Cargill 10
mockingbird 10
BR 10
HC 10
Shirley 10
Slow 10
Claus 10
Altos 10
tutor 10
Pine 10
quake 10
one-two-three-four 10
acumen 10
Giffords 10
Owens 10
Panel 9
PhD 9
lengths 9
At@@ 9
combustion 9
royal 9
50th 9
oms 9
Cap@@ 9
Shortly 9
provoked 9
competed 9
endure 9
absorbed 9
lousy 9
concluded 9
genomic 9
activating 9
nanotechnology 9
hurting 9
impressions 9
Left 9
McGonigal 9
Mas@@ 9
thumb-wrestling 9
Perfect 9
wrestling 9
ration 9
Wars 9
Stand 9
Creativity 9
venue 9
Talking 9
nicer 9
risking 9
ke@@ 9
high-end 9
Romantic 9
misconception 9
ridicule 9
taboos 9
battling 9
Post 9
oily 9
accumulation 9
PET 9
chick 9
polluted 9
untold 9
import 9
ge 9
devoid 9
Airstream 9
curved 9
commission 9
Block 9
migrated 9
consulting 9
sleeve 9
excruciating 9
flame 9
hardwired 9
packets 9
irrespective 9
seductive 9
Committee 9
anonymously 9
mailbox 9
Dear 9
burial 9
16-year-old 9
buddy 9
commanders 9
humiliation 9
coordinate 9
ste@@ 9
reset 9
napkin 9
cycling 9
stop@@ 9
giants 9
dropout 9
Self 9
kin@@ 9
classify 9
removes 9
suitable 9
graceful 9
curing 9
acknowledging 9
seized 9
turtles 9
bunk 9
devote 9
contemplating 9
messing 9
outliers 9
cult 9
counsel 9
work@@ 9
wellness 9
Wednesday 9
Doctors 9
mixes 9
guests 9
builder 9
Marx 9
pins 9
marketer 9
Nearly 9
fe@@ 9
evaluating 9
energy-efficient 9
makeshift 9
runway 9
vulnerabilities 9
ative 9
intermediate 9
persuaded 9
entitled 9
tal 9
withstand 9
corresponding 9
qualify 9
Brilliant 9
respectable 9
degrade 9
1.7 9
freezes 9
summit 9
fork 9
eu@@ 9
ox 9
weaknesses 9
Thai 9
cr@@ 9
birthplace 9
Barbie 9
tapes 9
bacon 9
perfume 9
light-@@ 9
networked 9
Marriage 9
centimeters 9
reception 9
willful 9
segregated 9
ll 9
1976 9
sourced 9
gasses 9
Living 9
counselor 9
coworkers 9
Eleanor 9
solitude 9
invitations 9
self-help 9
Friends 9
rabbi 9
weave 9
podium 9
mourn 9
bliss 9
skydiving 9
journeys 9
spear 9
col@@ 9
switches 9
suppliers 9
Animal 9
forwards 9
hemispheres 9
scaffolding 9
transplantation 9
fluids 9
toss 9
outraged 9
lar 9
Gladwell 9
hacked 9
skepticism 9
benefiting 9
mandate 9
Among 9
Based 9
championships 9
conversion 9
manure 9
analyses 9
sters 9
skyscrapers 9
rainy 9
monuments 9
resembles 9
tations 9
encouragement 9
paternity 9
pajamas 9
constitutes 9
factual 9
eternity 9
bomber 9
virgins 9
spoil 9
integral 9
needless 9
instinctive 9
imitation 9
picnic 9
atory 9
misses 9
episodes 9
twists 9
rediscover 9
Director 9
ruler 9
conquered 9
rated 9
Mediterranean 9
Persian 9
empires 9
communism 9
homeland 9
bly 9
someplace 9
knocks 9
Mind 9
momentous 9
Bowl 9
surveyed 9
rub 9
Las 9
Vegas 9
ally-@@ 9
McCain 9
lan@@ 9
markings 9
flips 9
volatile 9
absorbing 9
egos 9
ur 9
mutilated 9
occupying 9
Ronald 9
coup 9
Foreign 9
Ancient 9
marching 9
grandson 9
repetition 9
Face 9
sniff 9
Question 9
positives 9
cassette 9
Moral 9
ominous 9
Fe@@ 9
thed 9
od@@ 9
vo@@ 9
minded 9
sty 9
curl 9
insignificant 9
dyslexic 9
hippie 9
Ahmed 9
Costa 9
anti@@ 9
mentors 9
O2 9
graduating 9
Jackie 9
Nicole 9
prominent 9
Cup 9
champions 9
13th 9
fatigue 9
her@@ 9
neatly 9
impending 9
slap 9
adversity 9
life-threatening 9
cy@@ 9
the@@ 9
comparisons 9
conventions 9
bureaucratic 9
Sciences 9
Heather 9
fiery 9
pal@@ 9
Incredible 9
unchanged 9
lettuce 9
subsidies 9
res@@ 9
dressing 9
Lea@@ 9
cla@@ 9
Dick 9
Robin 9
of-@@ 9
Rom@@ 9
visits 9
taxpayers 9
ny 9
pursued 9
prostitutes 9
regarding 9
first-@@ 9
presidents 9
third-@@ 9
marijuana 9
Developing 9
forge 9
healthiest 9
toothpaste 9
employers 9
fragility 9
effortlessly 9
mediated 9
malleable 9
median 9
agreements 9
paperwork 9
Pla@@ 9
Running 9
underestimated 9
Penn 9
tings 9
holder 9
pragmatic 9
Cru@@ 9
harvested 9
absent 9
Protection 9
resemble 9
forensic 9
marking 9
photo@@ 9
simulations 9
witnesses 9
prosthetics 9
generalize 9
cal 9
UE 9
freaks 9
backstage 9
begging 9
hype 9
considers 9
Orchestra 9
foreigner 9
Snowden 9
Utah 9
ack@@ 9
Search 9
rude 9
underwear 9
Yorkers 9
bursting 9
formulation 9
abortion 9
Commission 9
Leave 9
mal@@ 9
daddy 9
sentiments 9
ethnicity 9
Cur@@ 9
redesigning 9
C-@@ 9
ger 9
gh@@ 9
collectors 9
artifact 9
bubbling 9
Sony 9
Mexicans 9
Beatles 9
cou@@ 9
zz@@ 9
volunteered 9
volunteering 9
correction 9
Seth 9
guru 9
hottest 9
bakery 9
Milk 9
ess 9
barrels 9
Alberta 9
turnover 9
lifestyles 9
Lion 9
sidewalks 9
sociologists 9
gradual 9
multi@@ 9
black-and-white 9
one-to-one 9
disclosure 9
enrolled 9
actress 9
vow 9
ideally 9
bake 9
wears 9
Petersburg 9
cries 9
can@@ 9
audition 9
clap 9
thunder 9
Knight 9
Hansen 9
cores 9
darker 9
politely 9
break@@ 9
Occasionally 9
brainstorms 9
blunt 9
plunged 9
Down 9
modernism 9
sculptural 9
railroad 9
foreground 9
separating 9
balcony 9
dull 9
plaster 9
St@@ 9
Survey 9
universality 9
ripe 9
fascination 9
calendars 9
Hudson 9
blade 9
indicated 9
sapiens 9
ancestral 9
micro 9
microscopes 9
bump 9
treasure 9
undoubtedly 9
shooter 9
intersections 9
Road 9
illustrations 9
adore 9
Enough 9
specimen 9
glaze 9
opponents 9
Simply 9
Bra@@ 9
R. 9
ur@@ 9
swear 9
sorted 9
defenses 9
aiming 9
acronym 9
saltwater 9
dedication 9
crush 9
Galaxy 9
banging 9
stretching 9
glamorous 9
kicks 9
UN 9
recovering 9
Lauren 9
Student 9
expenditure 9
emperor 9
four@@ 9
mortal 9
geeky 9
accelerometer 9
cooks 9
mafia 9
cha@@ 9
preferably 9
trivia 9
tro@@ 9
leaps 9
eaters 9
mindful 9
Iron 9
intestine 9
11,000 9
toddler 9
proxy 9
overlapping 9
residue 9
hides 9
Myhrvold 9
eyebrows 9
infused 9
Sophia 9
fast-forward 9
analogous 9
masterpiece 9
Born 9
serenity 9
democratized 9
Symphony 9
Celine 9
disputes 9
disadvantage 9
requiring 9
seeded 9
pumped 9
Teaching 9
superintendent 9
1978 9
Mad@@ 9
Economics 9
mobilize 9
bumblebees 9
Village 9
Recording 9
causality 9
fulfilled 9
Matthieu 9
plugging 9
dim 9
Jose 9
atheist 9
delusion 9
Case 9
overwhelmingly 9
slash 9
cat@@ 9
Bees 9
queens 9
pesticide 9
weed 9
shalt 9
deputy 9
births 9
meme 9
Alberto 9
Simpson 9
Dyson 9
51 9
79 9
genomics 9
dislike 9
1963 9
interpreting 9
Economic 9
utilitarian 9
fitted 9
bled 9
recorders 9
halved 9
DDT 9
limitless 9
Bro@@ 9
pioneered 9
Wind 9
Unless 9
interdependence 9
escaping 9
ited 9
favorable 9
sovereignty 9
economical 9
provinces 9
inequity 9
disparity 9
persuasive 9
turtle 9
Y@@ 9
critics 9
practitioners 9
Plus 9
recess 9
interplay 9
fellowship 9
tal@@ 9
diagnoses 9
mega-@@ 9
tactile 9
coordinates 9
elevators 9
lamps 9
pot@@ 9
depicted 9
conjunction 9
Teachers 9
synagogue 9
Um 9
Words 9
ish 9
possessed 9
precursor 9
reckless 9
Icelandic 9
cursor 9
con 9
exporting 9
drain 9
Fast 9
implementing 9
brightest 9
soundscapes 9
geographically 9
banker 9
fulness 9
daytime 9
six@@ 9
Ready 9
Phil 9
fragment 9
2D 9
ater 9
affection 9
Balkans 9
Rumi 9
Sufi 9
Alabama 9
Ever 9
Palin 9
credibility 9
biblical 9
censored 9
forum 9
forums 9
offline 9
Doing 9
inherit 9
receivers 9
cheapest 9
pluripotent 9
ambassador 9
Tobago 9
bore 9
fal@@ 9
Ob@@ 9
Ian 9
Sue 9
Irish 9
ridiculously 9
celebrates 9
pointless 9
thesis 9
stung 9
lbs 9
pro-social 9
kinder 9
commitments 9
wisely 9
harnessing 9
ghts 9
pe 9
picky 9
I.T. 9
flick 9
ballet 9
microseconds 9
otherness 9
fundamentalists 9
translations 9
Paradise 9
seller 9
coaching 9
open-ended 9
cures 9
slang 9
hosting 9
psycho-social 9
Wii 9
Mommy 9
seasonal 9
mitigate 9
carrots 9
abstractions 9
universals 9
dealer 9
0.1 9
violate 9
highways 9
plague 9
buyer 9
ics 9
theaters 9
Ballet 9
contempt 9
calibrated 9
rotten 9
doubling 9
arrogant 9
arrowheads 9
alliances 9
volcanic 9
chatting 9
fashionable 9
phantom 9
aquarium 9
pointer 9
insulation 9
childish 9
hurricane 9
handheld 9
broadband 9
Pinker 9
makeup 9
Pauling 9
helix 9
by-@@ 9
booms 9
sting 9
sampled 9
assist 9
Juliet 9
Tunisian 9
cholesterol 9
academy 9
infants 9
preview 9
finishes 9
messenger 9
interpersonal 9
diplomats 9
eness 9
paradigms 9
descend 9
rob 9
bureaucracy 9
Chaz 9
Gene 9
compensation 9
Th@@ 9
dire 9
crest 9
underdog 9
acromegaly 9
Nevada 9
activates 9
Lagos 9
Hole 9
BM 9
Test 9
Full 9
peel 9
sk@@ 9
interstate 9
runner 9
claws 9
Bolt 9
maize 9
sentenced 9
Gupta 9
snuck 9
reside 9
distort 9
Electrolux 9
Creative 9
liars 9
woven 9
deceptive 9
lip 9
blinded 9
AR 9
raced 9
classmates 9
Guys 9
mistrust 9
eco-friendly 9
boil 9
apex 9
Gould 9
admission 9
swimmer 9
tickle 9
neglected 9
riot 9
CAT 9
smiley 9
teamed 9
pickle 9
Pilot 9
kilo 9
lentils 9
Harvey 9
filing 9
protections 9
Shirky 9
Mermaid 9
tures 9
par 9
NT 9
ranks 9
carrier 9
30-year 9
allocate 9
hence 9
reconstructed 9
sequel 9
validated 9
hurdy-gurdy 9
cliche 9
Buenos 9
Aires 9
playwright 9
slammed 9
wasp 9
civilization-state 9
Laramie 9
binds 9
Voices 9
gymnosophist 9
reversed 9
Git 9
Specifically 9
nonverbal 9
positioned 9
tidy 9
tone-deaf 9
Zone 9
Bad 9
catalog 9
Tucson 9
Fowler 9
Samantha 9
prostheses 9
obtain 9
2000s 9
Jordans 9
spoofer 9
Hasan 9
Lang 9
JM 9
bloop 9
vent 9
framing 9
skied 9
replication 9
DH 9
whistleblowers 9
forgery 9
crease 9
contraceptives 9
commandment 9
Knee 9
Sting 9
JY 9
Jarrett 9
Maslow 9
forger 9
encoder 9
amygdala 9
bonobos 9
Nathaniel 9
Divergence 9
Constitution 9
briquettes 9
Hurtigruten 9
Vila 9
Cruzeiro 9
Hany 9
amyloid-beta 9
Ola 9
emerald 9
armpits 9
Change 8
IPCC 8
clearance 8
harnessed 8
Neuroscientist 8
scanners 8
parable 8
sky@@ 8
Tri@@ 8
heightened 8
illuminating 8
advocates 8
tter 8
sushi 8
censor 8
Shaw 8
coating 8
umbrella 8
absorbs 8
billionth 8
width 8
bandages 8
atheists 8
decreasing 8
multiplayer 8
Sunni 8
Heads 8
venues 8
hockey 8
bass 8
repetitive 8
shatter 8
whoa 8
unleashed 8
Marine 8
liberate 8
pellets 8
deposit 8
repository 8
que 8
Hawaiian 8
Peninsula 8
gyre 8
sies 8
nger 8
Carolyn 8
ables 8
A.D. 8
slaughtered 8
valuing 8
Singer 8
tender 8
modernity 8
Designers 8
molding 8
feather 8
torch 8
garment 8
neurotransmitters 8
plasticity 8
brighter 8
outbreaks 8
vial 8
vaccinate 8
shaky 8
Umar 8
nursery 8
unfolding 8
San@@ 8
doable 8
post@@ 8
postcard 8
candles 8
haunting 8
Sit 8
lifting 8
hostage 8
remorse 8
lumber 8
Boom 8
cks 8
Sort 8
handshake 8
affordability 8
Hillary 8
1920s 8
fossils 8
suing 8
licensed 8
swine 8
eri@@ 8
gri@@ 8
hopelessness 8
hospice 8
coward 8
trafficking 8
academia 8
freshman 8
bonuses 8
not-so-@@ 8
outweigh 8
mounting 8
Twin 8
Far@@ 8
0 8
aces 8
temper 8
feasibility 8
eless 8
turbulence 8
confer 8
rejuvenation 8
predictability 8
claiming 8
Alright 8
milestone 8
sis 8
hu@@ 8
Glacier 8
ery 8
revolving 8
uncovered 8
skulls 8
drawers 8
Lakshmi 8
handwriting 8
compiling 8
linguists 8
frees 8
comfortably 8
Bab@@ 8
ung 8
daring 8
gre@@ 8
Us 8
opt 8
antidepressants 8
P.@@ 8
Esther 8
wit 8
dilemmas 8
owning 8
reliability 8
boot 8
familiarity 8
surrender 8
vine 8
multiplied 8
incarcerated 8
Robbie 8
bluegrass 8
fiddle 8
99.9 8
visibility 8
segment 8
Hoffman 8
Unilever 8
Sha@@ 8
sponsors 8
Hel@@ 8
row@@ 8
introverted 8
extroverts 8
quieter 8
ical 8
witty 8
sty@@ 8
stool 8
selecting 8
dedicate 8
Austrian 8
symmetrical 8
Wi-Fi 8
altering 8
inten@@ 8
pups 8
Alexis 8
moth 8
brainwaves 8
Engineering 8
Due 8
radiologists 8
wolf 8
exquisitely 8
ordinarily 8
biomedical 8
regulated 8
thankfully 8
springs 8
prints 8
augment 8
grind 8
remedy 8
buzz 8
stripping 8
humanize 8
Masters 8
kilogram 8
ammonia 8
crabs 8
ministry 8
documentation 8
unethical 8
blankets 8
Kir@@ 8
crate 8
du 8
70,000 8
inputs 8
tor@@ 8
interconnections 8
work-life 8
messed 8
Batman 8
bruises 8
raping 8
intellectuals 8
Str@@ 8
with@@ 8
lust 8
Rhode 8
troublemaker 8
offense 8
BC 8
Babylonian 8
Thus 8
multicultural 8
Bal@@ 8
Declaration 8
oppressed 8
autumn 8
anecdotes 8
piss 8
Parents 8
tray 8
USC 8
nudge 8
decorated 8
centric 8
Independence 8
Drori 8
traps 8
hay 8
grasses 8
symbiotic 8
cleverly 8
jaws 8
ced 8
transmitting 8
textures 8
beast 8
scent 8
Curiosity 8
Brits 8
petrol 8
persuading 8
hovering 8
texted 8
Aung 8
Suu 8
Kyi 8
notebooks 8
bred 8
suspicion 8
leash 8
operational 8
WHO 8
specificity 8
explosives 8
commandments 8
serendipity 8
pristine 8
ng 8
suspense 8
taps 8
ca 8
Moi 8
Honolulu 8
sy 8
Ci@@ 8
accomplishments 8
dr@@ 8
Durga 8
overcoming 8
1947 8
pottery 8
Geneva 8
laureate 8
UNICEF 8
kidnapped 8
1.6 8
truce 8
rehearsal 8
transgender 8
sta@@ 8
transgendered 8
marketers 8
shareholders 8
bicycles 8
zations 8
avoidance 8
clinicians 8
AlloSphere 8
pitches 8
swarm 8
5.@@ 8
addictive 8
tasting 8
lated 8
plumbing 8
clones 8
circulatory 8
multidisciplinary 8
disciplinary 8
licenses 8
Polish 8
im 8
second-@@ 8
unnatural 8
im@@ 8
ranges 8
hubs 8
rationally 8
akin 8
recommended 8
lessly 8
Robots 8
conversational 8
pores 8
writings 8
sted 8
nails 8
awry 8
Success 8
Trying 8
working-class 8
deemed 8
democratize 8
alleviate 8
Gen@@ 8
loading 8
pornography 8
weights 8
hangers 8
recommendations 8
Edison 8
orient 8
month-old 8
wr@@ 8
divergence 8
motions 8
beforehand 8
deceived 8
suspend 8
wicked 8
Universal 8
Aicha 8
notable 8
inward 8
hy@@ 8
avian 8
Je@@ 8
eyewitness 8
alibi 8
robbery 8
maid 8
PTSD 8
sensations 8
pin@@ 8
initiate 8
bathed 8
adverse 8
cop@@ 8
wingsuit 8
divers 8
touring 8
smo@@ 8
punk 8
highlighted 8
foreigners 8
Yahoo 8
cooperating 8
Feel 8
brutally 8
Marcus 8
cracking 8
tly 8
dared 8
demolition 8
Math 8
impatient 8
formulate 8
redefined 8
shortest 8
sparkling 8
hoo 8
policymakers 8
tentacles 8
externalities 8
em@@ 8
Viagra 8
Ph@@ 8
ki@@ 8
Reporter 8
Cuban 8
benchmark 8
horrified 8
diplomat 8
centralized 8
sil@@ 8
extensively 8
S-@@ 8
Victoria 8
merged 8
numbered 8
comet 8
Angela 8
biomaterial 8
blueprint 8
negatively 8
skinny 8
phot@@ 8
Australians 8
Nirvana 8
Nancy 8
billboards 8
Isaac 8
unhappiness 8
lers 8
Silver 8
Gla@@ 8
Pay 8
disciplined 8
recruiting 8
demonstrations 8
tripled 8
promoted 8
loaf 8
747 8
graders 8
steadily 8
2100 8
parti@@ 8
District 8
informative 8
transitional 8
Personally 8
Thatcher 8
retrofitting 8
gallon 8
vy 8
compromised 8
uterus 8
smash 8
aries 8
holidays 8
chew 8
Kind 8
Titanic 8
aah 8
na 8
mineral 8
emailing 8
Daily 8
tuning 8
whilst 8
descended 8
humidity 8
ide@@ 8
Iowa 8
resigned 8
1981 8
vapor 8
latent 8
piled 8
lations 8
initiated 8
fa@@ 8
part-time 8
cabinets 8
Bureau 8
squirt 8
poo 8
flush 8
Forty 8
syringes 8
blades 8
sailing 8
crafts 8
projecting 8
schizophrenic 8
slipped 8
rodeo 8
cunning 8
seating 8
predominantly 8
Fu@@ 8
conditioned 8
sions 8
rotting 8
descendants 8
dependencies 8
TED@@ 8
bas@@ 8
submersible 8
sub 8
unwanted 8
chin 8
fin 8
currents 8
questionable 8
fl@@ 8
stain 8
Impossible 8
breathed 8
paranoid 8
displacement 8
sofa 8
treats 8
commenting 8
supernatural 8
rotation 8
protocols 8
PA@@ 8
IP 8
consultant 8
diapers 8
emits 8
shines 8
synthesized 8
morals 8
soundtrack 8
peripheral 8
hardworking 8
harsh 8
habitable 8
observable 8
adrenaline 8
nurtured 8
McLuhan 8
baking 8
rocking 8
.com. 8
61 8
caffeine 8
advertise 8
rented 8
Heroes 8
ea@@ 8
mat 8
brewing 8
cooled 8
thickness 8
quads 8
Chimborazo 8
Andes 8
dissolve 8
kicking 8
inks 8
diagnostics 8
squirrel 8
sweating 8
hurdles 8
foreseeable 8
Blackberry 8
minimally 8
Ger@@ 8
wastes 8
thousandth 8
Mostly 8
2,@@ 8
colder 8
starlight 8
sto@@ 8
sorrow 8
fare 8
thorough 8
separately 8
nomadic 8
Protestant 8
friendships 8
mastered 8
jelly 8
Brent 8
Adams 8
sparks 8
Ridge 8
1977 8
enlightenment 8
adjusted 8
life-@@ 8
uprising 8
tical 8
blinking 8
iTunes 8
cod 8
R-I-A-A 8
isolate 8
Robbins 8
believer 8
geniuses 8
unto 8
rusty 8
sins 8
fronts 8
bloom 8
parasitic 8
accustomed 8
greeted 8
lyrical 8
surreal 8
Isabel 8
Mohamed 8
chops 8
waiter 8
ners 8
propensity 8
futureless 8
portfolio 8
DVDs 8
KIPP 8
devils 8
shove 8
hunted 8
hydro@@ 8
contingent 8
invading 8
thyself 8
thought-controlled 8
deluge 8
fuss 8
indicator 8
beta 8
catches 8
similarity 8
lowered 8
doorstep 8
1972 8
pine 8
illegally 8
emitting 8
wi-fi 8
scaffolds 8
bronze 8
modeled 8
execute 8
planners 8
ization 8
drawer 8
self-portrait 8
appointment 8
prescribed 8
badge 8
Patient 8
1.8 8
App@@ 8
EL 8
lithium 8
scribble 8
Sun@@ 8
bundle 8
migrating 8
Budapest 8
Moderator 8
granddaughter 8
dilute 8
alists 8
LP 8
Pas@@ 8
pirates 8
Austin 8
dictate 8
inserted 8
stripes 8
specimens 8
curled 8
dotted 8
hospitality 8
tourism 8
homosexuality 8
Encyclopedia 8
grandfathers 8
turmoil 8
shaved 8
spirits 8
Kant 8
condemned 8
crappy 8
technologist 8
critique 8
lateral 8
1974 8
1969 8
Clean 8
Valdez 8
trachoma 8
ple 8
hull 8
polymers 8
outsource 8
accountants 8
sinking 8
Sig@@ 8
auto 8
buyers 8
elevate 8
workings 8
radioactive 8
hunch 8
coffeehouse 8
recurring 8
captures 8
Ha 8
rear 8
mes 8
Sutherland 8
bailout 8
Buffett 8
stab 8
Hispanic 8
Au@@ 8
Drew 8
innocence 8
specialization 8
1800 8
long-distance 8
inadvertently 8
Martha 8
barren 8
blast 8
supplement 8
Temple 8
diplomatic 8
Grandma 8
commercially 8
acidification 8
marginalized 8
voyage 8
warmed 8
afforded 8
reframe 8
Pain 8
cyborg 8
Navy 8
paraphrase 8
Invest 8
carcasses 8
billionaire 8
inertia 8
millennium 8
bosses 8
one-hour 8
passively 8
canoe 8
superficial 8
ranked 8
scraping 8
scored 8
OMG 8
eyebrow 8
Kaaba 8
Political 8
NFL 8
nutshell 8
scum 8
stellar 8
Gravity 8
swarms 8
indefinitely 8
tablets 8
mustaches 8
persistence 8
pivotal 8
non-governmental 8
Afghans 8
ory 8
Brenda 8
tragedies 8
maths 8
manufactured 8
preceding 8
peer-reviewed 8
take-home 8
irregular 8
90,000 8
pun 8
neutrality 8
appealed 8
Ground 8
recordings 8
ams 8
Went 8
circumstance 8
dragon 8
opposing 8
0.2 8
forecast 8
Denisovans 8
translators 8
immunized 8
preventive 8
ars 8
Model 8
privatization 8
cancerous 8
underwent 8
conceive 8
supporters 8
ased 8
celebrities 8
cited 8
monarchy 8
vocational 8
high-level 8
startup 8
Bayes 8
shuts 8
Embassy 8
therapeutic 8
beams 8
Bergen 8
fluidity 8
audible 8
Ideas 8
outdoors 8
Pictures 8
Metaphor 8
volcanoes 8
humpback 8
Greenpeace 8
astonished 8
Ornish 8
inhibited 8
promotes 8
residual 8
SC 8
succeeds 8
indulge 8
muffin 8
fraternal 8
transaction 8
plausible 8
corridor 8
Ebert 8
HAL 8
Photographer 8
greens 8
dice 8
Pollock 8
overfishing 8
Annie 8
Victor 8
5th 8
coalition 8
firstly 8
Cause 8
Dragon 8
Torosaurus 8
Mag@@ 8
chiefs 8
margin 8
contentious 8
acquiring 8
low-level 8
data-driven 8
massage 8
open-minded 8
Barry 8
objectives 8
motel 8
Mills 8
catcher 8
Lynn 8
panicked 8
underside 8
tires 8
recklessness 8
Goldilocks 8
meteorite 8
rounds 8
sue 8
desired 8
marathons 8
Usain 8
antelope 8
ped 8
manic 8
thermodynamics 8
remake 8
adventurous 8
Greenville 8
-and-@@ 8
contradictions 8
breadwinners 8
partisan 8
chatter 8
Yellowstone 8
excellence 8
UV 8
inert 8
rivals 8
Orkut 8
stri@@ 8
ow 8
sexes 8
pious 8
Bose 8
Michel 8
flavors 8
motives 8
sailed 8
magnesium 8
droplet 8
five-year 8
cubs 8
ethanol 8
sargassum 8
uploading 8
ranch 8
14,000 8
bets 8
zer 8
Sally 8
depositing 8
travelers 8
capitalists 8
Pentagon 8
merit 8
pat 8
naughty 8
Leadership 8
Allan 8
dictated 8
bit@@ 8
aerodynamic 8
Birmingham 8
clustering 8
meritocratic 8
bully 8
mush 8
Resnick 8
elect 8
MAS 8
Azerbaijan 8
learner 8
payback 8
ose 8
restraints 8
resisted 8
Head 8
unacceptable 8
Chair 8
Sachs 8
incorrect 8
blueprints 8
geo-engineering 8
hacks 8
Color 8
plutocracy 8
Forbes 8
boiled 8
crony 8
Ram 8
Manya 8
Railway 8
livelihoods 8
Licklider 8
pretzels 8
Pac-Man 8
Farm 8
Heritage 8
Earth-like 8
Chopin 8
Nor@@ 8
Patrick 8
bottleneck 8
divinity 8
rodent 8
rabbit 8
Rita 8
NO 8
Patel 8
Limb 8
scrap 8
sneakers 8
Evans 8
yawn 8
complications 8
bra 8
Wong 8
Karachi 8
ousness 8
sock 8
amputees 8
fluorescence 8
Nicolas 8
Shreddies 8
Instagram 8
Jacobs 8
Curitiba 8
Wang 8
Tahltan 8
Percy 8
JO 8
fries 8
Krosoczka 8
Makoko 8
Popcorn 8
Berners-Lee 8
yum 8
thermo-bimetal 8
Bloom 8
one-two-three 8
Vincent 8
Michoacán 8
Skid 8
microRNA 8
CSF 8
Randolph 8
goro 8
Fez 8
medina 8
Quixote 8
tapeworm 8
Tijuana 8
repairability 8
bossy 8
biofuels 7
Smo@@ 7
Hood 7
ari@@ 7
raid 7
restless 7
De 7
slu@@ 7
bro@@ 7
screened 7
Made 7
prose 7
Table 7
whispers 7
Bio@@ 7
Frankenstein 7
Reading 7
probable 7
Genome 7
ancestry 7
in-law 7
Ap@@ 7
Questions 7
Honestly 7
tting 7
Behavioral 7
predictably 7
ripping 7
Enron 7
tempt 7
fudge 7
Chaos 7
gamer 7
Grab 7
Excellent 7
recap 7
congratulations 7
Pick 7
flat@@ 7
ances 7
Popular 7
20th-century 7
Micro@@ 7
composers 7
buzzing 7
sincere 7
intensely 7
choking 7
Mental 7
Creek 7
nesting 7
tation 7
aquatic 7
swa@@ 7
Governor 7
washes 7
discusses 7
urbanism 7
hectares 7
temples 7
Fish 7
spi@@ 7
far@@ 7
zero-sum 7
Reader 7
creep 7
whisper 7
idealistic 7
exterior 7
bends 7
fooling 7
Starting 7
pediatrician 7
persists 7
Chandler 7
ibuprofen 7
onic 7
elbow 7
disease-@@ 7
modifying 7
d-up 7
originated 7
SARS 7
bor@@ 7
orphan 7
bye 7
Porter 7
dominating 7
proportions 7
Out@@ 7
ga@@ 7
sin@@ 7
ew 7
tin@@ 7
boredom 7
100-@@ 7
tioning 7
4.6 7
bean 7
play@@ 7
complaints 7
sli@@ 7
Senior 7
Janeiro 7
São 7
Yay 7
inspires 7
fours 7
thanked 7
scrambled 7
tailor 7
freshmen 7
Em@@ 7
intelligently 7
thanking 7
Contrary 7
Sisyphus 7
shredder 7
crane 7
observers 7
aspirational 7
skyline 7
I-@@ 7
poised 7
mping 7
outreach 7
installing 7
harming 7
Network 7
mangroves 7
buffer 7
arity 7
curable 7
fat@@ 7
Hands 7
immoral 7
coping 7
age-related 7
0-year-old 7
distract 7
Species 7
tactical 7
Common 7
colonized 7
synonymous 7
juicy 7
quoting 7
verses 7
sanity 7
Brin 7
conducts 7
query 7
Listening 7
streamed 7
out-@@ 7
Vulnerability 7
renamed 7
analysts 7
Can@@ 7
stu@@ 7
lin 7
185 7
73 7
Beth 7
Laura 7
deceptively 7
rehab 7
hosted 7
backing 7
afterglow 7
individuality 7
marital 7
contradiction 7
cation 7
curse 7
agile 7
wan@@ 7
Mer@@ 7
ize 7
Tommy 7
Mizzone 7
TM 7
preconceptions 7
sculpt 7
geometric 7
imaginable 7
variants 7
terrestrial 7
Gallup 7
G. 7
outgoing 7
extrovert 7
assertive 7
persona 7
transcendent 7
freed 7
Character 7
yielded 7
62 7
rests 7
pillar 7
niche 7
mammalian 7
Chi@@ 7
lic 7
gracefully 7
top@@ 7
mammograms 7
Services 7
ty-@@ 7
lating 7
compression 7
manuscript 7
individu@@ 7
Mistry 7
leveraged 7
tiveness 7
big-@@ 7
replacements 7
biologic 7
Doc 7
Aspen 7
blender 7
thicker 7
ware 7
estimation 7
delicacy 7
Bruno 7
Currently 7
Gold 7
Natalie 7
demolished 7
earthquakes 7
Kobe 7
commuting 7
Homer 7
epilepsy 7
stretches 7
incompatible 7
well-intentioned 7
afterlife 7
admitting 7
constitute 7
theorist 7
reliably 7
speci@@ 7
chopped 7
ecstasy 7
fallibility 7
Portland 7
stares 7
ony 7
unfolds 7
listeners 7
world-@@ 7
lin@@ 7
removal 7
scriptures 7
hyperbole 7
thee 7
thy 7
lent 7
Ir@@ 7
mute 7
cockroaches 7
breeders 7
Betty 7
entertained 7
wig 7
enjoys 7
shattering 7
4th 7
unites 7
atrocities 7
narcissistic 7
Chief 7
laureates 7
Evolution 7
noses 7
borne 7
adaptations 7
ops 7
orchid 7
heats 7
ambient 7
Python 7
Sal@@ 7
ko 7
Madrid 7
Z. 7
transitions 7
UK 7
rally 7
supervision 7
relieved 7
sufficiently 7
hyper@@ 7
Sesame 7
disturb 7
reassure 7
OS 7
pop@@ 7
dependency 7
imported 7
Action 7
transfers 7
Salaam 7
1,800 7
automate 7
Tan 7
seizures 7
rebellion 7
Box 7
Miranda 7
tweeting 7
homage 7
parody 7
progressed 7
engages 7
Edith 7
bilingual 7
authored 7
innovating 7
bald 7
sour 7
mash 7
Strange 7
non-violence 7
Rica 7
pumping 7
constituency 7
NATO 7
inter-@@ 7
tally 7
hom@@ 7
ol 7
skeletal 7
Maine 7
bathrooms 7
Goals 7
tapping 7
Teach 7
girlfriends 7
14th 7
25th 7
-free 7
FM 7
zinc 7
spec@@ 7
orbital 7
gulf 7
altitudes 7
coldest 7
metaphorically 7
ascending 7
hose 7
squeezing 7
recreational 7
Imperial 7
R.@@ 7
arrogance 7
Nixon 7
poisonous 7
overly 7
lobbyists 7
churn 7
Dictionary 7
housework 7
sou@@ 7
for-@@ 7
Robotics 7
Bla@@ 7
tinkering 7
Tinkering 7
immersive 7
sle@@ 7
siveness 7
Wake 7
well-meaning 7
untapped 7
good-looking 7
imprisoned 7
notwithstanding 7
underutilized 7
incorporating 7
municipal 7
lit@@ 7
insisting 7
audacity 7
Family 7
cy 7
B.@@ 7
smuggled 7
constructing 7
Harriet 7
mornings 7
blurry 7
ging 7
fulfill 7
provisions 7
Clarke 7
librarians 7
debut 7
suspension 7
resurrection 7
wholly 7
gathers 7
fantasies 7
polish 7
Chip 7
off-@@ 7
Dietrich 7
prehistoric 7
amber 7
dec@@ 7
Sel@@ 7
featuring 7
Fourteen 7
tur@@ 7
PR 7
breaker 7
veg 7
buds 7
Walt 7
Photography 7
capsule 7
submarine 7
Disease 7
brass 7
deep-@@ 7
Operations 7
dic@@ 7
fication 7
mid@@ 7
bathing 7
swims 7
tweak 7
mediate 7
arrays 7
uncommon 7
avenue 7
feat 7
Palmer 7
8-@@ 7
prolonged 7
circus 7
18-year-old 7
sticker 7
lord 7
telecom 7
consecutive 7
improv 7
comedians 7
aled 7
shutter 7
pavement 7
bushes 7
Politics 7
sideways 7
ini@@ 7
Meyer 7
prompt 7
Dea@@ 7
dum 7
Siri 7
retaining 7
cosmopolitan 7
Asi@@ 7
exclude 7
McMurdo 7
crisp 7
Rest@@ 7
self-organization 7
alligator 7
greener 7
bothers 7
Erin 7
doomed 7
lexicographer 7
fisherman 7
boo@@ 7
constraint 7
megafauna 7
bad@@ 7
hike 7
chalk 7
non-living 7
high-powered 7
self-assemble 7
Bre@@ 7
th-century 7
evoke 7
Authority 7
Genomics 7
domains 7
causal 7
Forty-@@ 7
Kid 7
stubborn 7
Cou@@ 7
shootings 7
sses 7
Chan@@ 7
incentivize 7
solidarity 7
Sil@@ 7
Wonder 7
remark 7
best-selling 7
otaku 7
sleeps 7
Hard 7
tract 7
Completely 7
scrambling 7
arctic 7
Market 7
schemes 7
drastically 7
manageable 7
addict 7
Frankie 7
mismatch 7
reviewing 7
drip 7
nerds 7
malls 7
reconstructing 7
ban@@ 7
detached 7
technologically 7
gourmet 7
Walking 7
Orange 7
Commons 7
1940 7
Bel@@ 7
d-out 7
Mothers 7
low@@ 7
PMTCT 7
Patients 7
ensuring 7
ballroom 7
plots 7
ner@@ 7
fucking 7
Berry 7
avoided 7
Apparently 7
definitive 7
Poverty 7
7th 7
opponent 7
tempo 7
teddy 7
orchestras 7
relating 7
televisions 7
elation 7
Celsius 7
time-consuming 7
quantity 7
floats 7
shoreline 7
loudly 7
Babbage 7
pledged 7
wildest 7
lobbied 7
Zach 7
braking 7
evaporates 7
wraps 7
Monica 7
Oldenburg 7
Couldn 7
Claes 7
Barcelona 7
carriage 7
bombings 7
Kerry 7
Mat@@ 7
impoverished 7
facilitate 7
Literally 7
animator 7
psychologically 7
Harold 7
ch-@@ 7
Beauty 7
Ol@@ 7
displaying 7
bipartisan 7
Lester 7
Always 7
Madison 7
Hell 7
polarization 7
solvable 7
wax 7
epi@@ 7
fountains 7
infinity 7
glows 7
in-the-@@ 7
peacefully 7
piercing 7
mama 7
smoothly 7
Cars 7
onion 7
Kh@@ 7
cafes 7
mp 7
laughs 7
Meyerowitz 7
quirky 7
strawberry 7
Dennett 7
Suzanne 7
Bradley 7
Blank 7
Boeing 7
meltdown 7
USB 7
shaft 7
coronary 7
chairman 7
powering 7
movable 7
emit 7
Hubble 7
open-@@ 7
exploiting 7
joking 7
A.@@ 7
swallow 7
Edwards 7
evenly 7
auction 7
lid 7
oranges 7
gadgets 7
self-knowledge 7
Learn 7
rooftops 7
dissolved 7
seams 7
ency 7
700,000 7
monitors 7
adaptable 7
farthest 7
ings 7
Smithsonian 7
edible 7
dle 7
Foods 7
illuminate 7
willpower 7
14-@@ 7
mindfulness 7
harmless 7
Print 7
personalization 7
heals 7
diabetic 7
amputation 7
heartbreaking 7
fertilize 7
Terry 7
crafting 7
widening 7
blending 7
120,000 7
hamburgers 7
barbecue 7
cookbook 7
distill 7
gelatin 7
unanswered 7
prevailing 7
tossed 7
macro 7
oasis 7
marches 7
symphonies 7
perfection 7
Jared 7
Older 7
Nevertheless 7
incapable 7
textiles 7
contributes 7
Hence 7
multiplication 7
Conversely 7
agonizing 7
Mushroom 7
Richards 7
Ce@@ 7
Schools 7
af@@ 7
ences 7
Kuznets 7
nudges 7
ome 7
Culture 7
cruelty 7
1953 7
normality 7
2-@@ 7
Industry 7
Seligman 7
treatable 7
repairing 7
amplify 7
accepts 7
murders 7
Marilyn 7
deathbed 7
seven@@ 7
reared 7
Kuwait 7
English-speaking 7
mildly 7
tail@@ 7
weaving 7
Increasingly 7
dresses 7
Disorder 7
outs 7
gateway 7
Embrace 7
crushing 7
Sunitha 7
Secret 7
enforced 7
14-year-old 7
risked 7
greeting 7
coconut 7
Allende 7
une@@ 7
coincidentally 7
autobiography 7
RCA 7
Z@@ 7
archetype 7
1954 7
unreliable 7
Bur@@ 7
notices 7
deadline 7
Biology 7
perfected 7
subtly 7
Brussels 7
Igbo 7
tyranny 7
dogmas 7
pouch 7
riddled 7
cervical 7
favors 7
Mom@@ 7
Flight 7
Tiger 7
not-@@ 7
accord 7
malarial 7
peaked 7
completing 7
knots 7
gies 7
summertime 7
pleasurable 7
fleeting 7
reinforces 7
zation 7
violinist 7
separates 7
headset 7
ft. 7
camping 7
dar@@ 7
&apos;s-eye 7
poachers 7
plantation 7
red-@@ 7
wingspan 7
changer 7
Atala 7
tease 7
pendulum 7
manifest 7
tremor 7
left-handed 7
upsetting 7
servant 7
titans 7
biopsy 7
Jenny 7
ge-@@ 7
highest-@@ 7
DARwIn 7
kinetic 7
geologists 7
chemically 7
-of-@@ 7
Intelligence 7
gy@@ 7
Challenge 7
cybercrime 7
ut 7
openings 7
Motors 7
contemplate 7
ceramics 7
1926 7
Pot@@ 7
Vibrio 7
fischeri 7
digitization 7
reusing 7
UC 7
trending 7
recreation 7
gastric 7
precipice 7
wasteful 7
bloodshed 7
Feki 7
dubious 7
Kinsey 7
Walter 7
opted 7
binding 7
deficits 7
Prison 7
Socrates 7
correlations 7
sameness 7
thought-provoking 7
carve 7
mid- 7
cushions 7
Multi@@ 7
sprint 7
faucet 7
duc@@ 7
byproducts 7
condensed 7
lapse 7
outsourcing 7
Holiness 7
Tree 7
Men@@ 7
contested 7
African-Americans 7
depleted 7
agrarian 7
H. 7
pilgrimage 7
Shelf 7
gin 7
bleep 7
Minority 7
meta-@@ 7
furthermore 7
contours 7
neurologist 7
horizons 7
Stress 7
Psychologist 7
energized 7
Pink 7
Newtonian 7
biting 7
portal 7
Vienna 7
wool 7
crayons 7
ridiculed 7
Song 7
lacked 7
grumpy 7
cheeks 7
prayers 7
solely 7
Identity 7
arch 7
Festival 7
destroys 7
sacrificed 7
spears 7
sourcing 7
rou@@ 7
Fast-forward 7
aurochs 7
band-tailed 7
clearing 7
thrived 7
ivory 7
human-computer 7
Mobile 7
Imp@@ 7
Nina 7
Earle 7
Lau@@ 7
Macintosh 7
crucially 7
choked 7
Emp@@ 7
Iraqis 7
Christianity 7
Cage 7
banal 7
comforting 7
Page 7
bla@@ 7
Pierre 7
Char@@ 7
ases 7
listing 7
crowd-sourced 7
Conservation 7
gentler 7
lemonade 7
ferry 7
Might 7
woken 7
involuntary 7
ephemeral 7
grueling 7
cab 7
misunderstanding 7
Horse 7
distinguishes 7
Port 7
giraffe 7
eyesight 7
Population 7
résumé 7
JavaScript 7
scoring 7
BMW 7
Heidi 7
ar 7
agnostic 7
judicial 7
lively 7
Senator 7
fiercely 7
obliged 7
patented 7
inundated 7
consist 7
Idol 7
ity-@@ 7
beers 7
Changing 7
parting 7
Foster 7
nationally 7
differentiated 7
cross-section 7
proceeds 7
tic@@ 7
nutritious 7
fats 7
Program 7
49 7
Fabian 7
--@@ 7
Luria 7
diploma 7
accountant 7
Seventh 7
Bernoulli 7
gambling 7
losers 7
retailers 7
monetary 7
flashy 7
sentencing 7
insecurity 7
cultured 7
propeller 7
Tweet 7
Donna 7
Crisis 7
Witness 7
untouched 7
hollowed 7
Liz 7
costumes 7
fallacy 7
salute 7
progressing 7
variant 7
utero 7
Race 7
Sivers 7
dissect 7
yearly 7
augmentation 7
mutates 7
prevail 7
Eliot 7
steeped 7
railways 7
facilitated 7
rides 7
chronically 7
altruist 7
Ecosia 7
Ubuntu 7
ecologist 7
Sti@@ 7
lls 7
affair 7
Further 7
biochemistry 7
mortgages 7
outlook 7
faded 7
statistician 7
n-@@ 7
Doyle 7
trade-offs 7
divisions 7
Similar 7
TNCs 7
stereotypical 7
improvised 7
bloggers 7
gossip 7
airstrip 7
emptied 7
heartbreak 7
repercussions 7
socializing 7
unrealistic 7
undo 7
88 7
Atkins 7
PSA 7
rethinking 7
Scientific 7
chassis 7
noun 7
negotiated 7
mindsets 7
compliance 7
Eddy 7
sunk 7
mi 7
outstanding 7
Bond 7
Im@@ 7
nailed 7
wards 7
Stor@@ 7
brand-new 7
Cousteau 7
Hi@@ 7
bal@@ 7
leveled 7
humbled 7
refuge 7
co-opt 7
ak 7
Corporation 7
Geoff 7
Luton 7
spongy 7
Dracorex 7
horns 7
fuses 7
Shephelah 7
warriors 7
soundscape 7
erasing 7
admittedly 7
learners 7
Antonio 7
Zambia 7
revered 7
sine 7
swi@@ 7
Velcro 7
flapping 7
hatch 7
masse 7
harmed 7
accelerator 7
top-@@ 7
waits 7
loosely 7
agora 7
WikiLeaks 7
childbirth 7
Radcliffe 7
psychic 7
Islamism 7
transplanting 7
crocodile 7
non-invasive 7
superheroes 7
searchable 7
advised 7
coercion 7
slid 7
canals 7
circling 7
torque 7
dwell 7
rhyme 7
Lying 7
Diane 7
Check 7
nagging 7
timely 7
superhero 7
cascade 7
reinforced 7
krill 7
Buddhas 7
don@@ 7
Burkina 7
rot 7
Kurzweil 7
Grail 7
pharmacology 7
chambers 7
Regardless 7
motivators 7
Standard 7
Mastery 7
yearning 7
Percent 7
ambitions 7
Spider-Man 7
Prospera 7
mps 7
PP 7
persuasion 7
Ani@@ 7
colonial 7
Bless 7
Store 7
Parikrma 7
Ahmedabad 7
membership 7
sucking 7
vicinity 7
franchise 7
quotation 7
Wrong 7
wor@@ 7
Phillips 7
Dereck 7
buffalo 7
clinging 7
plains 7
charm 7
vibrational 7
great-@@ 7
TH 7
Houston 7
.org. 7
generators 7
Diet 7
sweetness 7
Ragu 7
Cheese 7
Hotmail 7
UNESCO 7
tradeoffs 7
infer 7
steep 7
amen 7
Dai 7
Manju 7
missionary 7
Inconvenient 7
Balinese 7
Reed 7
M-Pesa 7
webpage 7
Curtis 7
Motion 7
DMCA 7
idealism 7
Googlers 7
confirmation 7
pollute 7
tirelessly 7
capillary 7
Tamara 7
mistakenly 7
gripped 7
Geoffrey 7
therapists 7
Alain 7
Durkheim 7
p-@@ 7
Understand 7
Ladenism 7
Swaptree 7
lollipop 7
bedrock 7
staple 7
boosting 7
Bike 7
sanctity 7
implicit 7
revisit 7
longer-term 7
disappoint 7
chaired 7
Goldman 7
G20 7
nat@@ 7
summers 7
Torvalds 7
sensibility 7
Alisa 7
proverbial 7
highs 7
phoned 7
LB 7
Bernard 7
embark 7
contextual 7
reclaimed 7
approximation 7
Ruby 7
violently 7
geopolitical 7
inference 7
brute 7
fossilized 7
imprisonment 7
Wealth 7
Erez 7
conveniently 7
low-power 7
Locke 7
ARES 7
Sugata 7
Mitra 7
foragers 7
teachings 7
funerals 7
readings 7
Haidt 7
purity 7
questionnaire 7
chimp 7
papercutting 7
stink 7
convictions 7
JS 7
biennial 7
Cookie 7
madly 7
mangrove 7
Rainforest 7
Wave 7
Bubble 7
tracker 7
shaman 7
barbaria 7
Cesar 7
fluctuation 7
novelist 7
consisted 7
two-digit 7
fission 7
shortcomings 7
Zurich 7
Sandberg 7
recipients 7
sprinter 7
Beijerinck 7
non-visual 7
Wofford 7
cassava 7
commissioner 7
Pia 7
Ma 7
straws 7
treaty-based 7
Slick 7
oneness 7
sandstone 7
Veterans 7
laundering 7
doorway 7
Randi 7
gaga 7
Headwaters 7
pennies 7
Mau 7
Maggie 7
Milly 7
neocortical 7
Turbo 7
epoxy 7
Huntington 7
Toraja 7
Farther 7
Gray 7
SK 7
tutoring 7
Whirlwind 7
Engelbart 7
insula 7
asthmatic 7
microblogging 7
Whale 7
old-growth 7
Fildes 7
gluten 7
caterpillar 7
WITNESS 7
solar-electrified 7
Gambia 7
Sughar 7
Khadija 7
Morgana 7
Pimp 7
DU 7
remittance 7
DemocracyOS 7
Tonya 7
Japanese-Americans 7
schema 7
eulogy 7
Toxo 7
caregiving 7
Hasbro 7
MOOCs 7
bloodstream 6
insides 6
ron@@ 6
Milan 6
consumerism 6
philosophies 6
uninterrupted 6
m-@@ 6
Six@@ 6
List 6
skirt 6
Austen 6
Mildred 6
fer@@ 6
overestimate 6
pathogen 6
dy@@ 6
whimsical 6
whistled 6
family-@@ 6
Rotterdam 6
tones 6
technicians 6
reassured 6
Bye 6
Dry 6
shield 6
bounces 6
hydrophobic 6
nanometers 6
icing 6
endemic 6
Pass 6
cost-benefit 6
Experim@@ 6
Et@@ 6
sively 6
configurations 6
awhile 6
amplification 6
fri@@ 6
yell 6
Joplin 6
whispering 6
arenas 6
Attenborough 6
pitched 6
sickness 6
intolerance 6
missiles 6
perceives 6
aggre@@ 6
ssi@@ 6
biodegrade 6
diesel 6
uninhabited 6
Cab@@ 6
litter 6
ure 6
Mid@@ 6
stomachs 6
Tra@@ 6
tioned 6
foyer 6
calorie 6
Fer@@ 6
Meat 6
northeast 6
650 6
alle@@ 6
laminate 6
conceived 6
referenced 6
trailers 6
Comp@@ 6
Palo 6
junction 6
glial 6
doings 6
pernicious 6
crippled 6
poli@@ 6
motivational 6
foregone 6
telltale 6
measles 6
vain 6
carriers 6
downloading 6
crossroads 6
dering 6
Secrets 6
artful 6
frailty 6
pee 6
Matty 6
Foun@@ 6
dru@@ 6
socialization 6
twisted 6
Kendall 6
props 6
upstairs 6
higher-@@ 6
T-@@ 6
adjusting 6
airborne 6
sergeant 6
thrill 6
lowering 6
calves 6
thighs 6
watermelon 6
wind@@ 6
firefight 6
chased 6
accessing 6
Furthermore 6
ut@@ 6
Bennett 6
Travel 6
exceedingly 6
coached 6
ty@@ 6
end-of-life 6
directive 6
Hos@@ 6
conquering 6
bid 6
Biologist 6
traffickers 6
frantic 6
asing 6
console 6
ADHD 6
inbox 6
ripples 6
canceled 6
voila 6
evaluated 6
DR 6
DRC 6
Kinshasa 6
financing 6
clone 6
13@@ 6
Ninth 6
Oklahoma 6
7-@@ 6
livelihood 6
retrofitted 6
accordingly 6
dents 6
one-size-fits-all 6
x@@ 6
sympathetic 6
ecologically 6
denying 6
Aging 6
auto@@ 6
gerontology 6
80-year-old 6
atively 6
speculative 6
irresponsible 6
inhibit 6
periodically 6
lifespans 6
000-year-old 6
glacial 6
rev@@ 6
unpack 6
cluttered 6
ids 6
Philippe 6
Starck 6
age@@ 6
Tracy 6
mation 6
boundless 6
footing 6
eye-@@ 6
Onstage 6
Mmm 6
smoked 6
Lock 6
awakening 6
stitch 6
miserably 6
deeds 6
straight-@@ 6
dads 6
listens 6
Cloudburst 6
embraces 6
Jacob 6
3-minute 6
coordinating 6
Universe 6
bounded 6
Plan@@ 6
comparative 6
containment 6
Titan 6
million-dollar 6
grounding 6
succession 6
therein 6
closeness 6
tivity 6
self-sustaining 6
parenthood 6
pivot 6
vitality 6
stifle 6
selfishness 6
Respon@@ 6
sibility 6
Douglas 6
signatures 6
6,@@ 6
prairie 6
Sleepy 6
osity 6
Nonetheless 6
intersect 6
tradeoff 6
layered 6
stacked 6
dreamt 6
radios 6
forefront 6
mother-in-law 6
Sustainable 6
coalitions 6
shameful 6
introvert 6
night@@ 6
O-@@ 6
grandiose 6
internalize 6
autonomously 6
yang 6
streak 6
jolly 6
talker 6
favored 6
Ralph 6
understandably 6
charisma 6
prematurely 6
Behar 6
Designing 6
skis 6
retrospect 6
humanistic 6
sunglasses 6
sodas 6
Uruguay 6
Puerto 6
niches 6
pat@@ 6
at-@@ 6
wavelengths 6
puppies 6
theoretically 6
EPA 6
Seoul 6
puppy 6
hybrids 6
transmitter 6
bot 6
Miguel 6
gated 6
reproduced 6
balances 6
usefulness 6
radiologist 6
predictor 6
ening 6
innovator 6
serendipitous 6
sc@@ 6
exceeds 6
Molecular 6
duct 6
modifications 6
blurred 6
investigators 6
requested 6
Ninety 6
SixthSense 6
pinch 6
operators 6
tore 6
ligament 6
halt 6
regrow 6
hiking 6
squeamish 6
provincial 6
tomatoes 6
vitamins 6
Arnold 6
laborers 6
tured 6
contractors 6
violations 6
Deci@@ 6
Ban 6
G8 6
next-door 6
viewpoint 6
k-@@ 6
startled 6
thorny 6
-time 6
meaningfully 6
T-shirt 6
pub 6
gym 6
mock 6
subjected 6
rod 6
news@@ 6
Bundy 6
pur@@ 6
ach 6
SH 6
modu@@ 6
Dakota 6
handing 6
ultra-@@ 6
idiots 6
defect 6
Hosni 6
hates 6
mind-boggling 6
baked 6
1879 6
Persians 6
weeping 6
faiths 6
Testament 6
dic 6
logies 6
ee 6
funnel 6
world-changing 6
applaud 6
Frederick 6
Drugs 6
injectors 6
int 6
showers 6
phi@@ 6
shades 6
sunscreen 6
anchor 6
expired 6
Wael 6
sians 6
repression 6
Rwandan 6
endeavors 6
infuse 6
cap@@ 6
degeneration 6
Kermit 6
oneself 6
nit@@ 6
Bart 6
rodents 6
trainer 6
miners 6
infects 6
nightmares 6
1967 6
narrator 6
cosmological 6
opium 6
underworld 6
synchrony 6
Wool 6
Elliott 6
Hol@@ 6
Crimer 6
bel@@ 6
Il 6
Catherine 6
rogue 6
predicated 6
Fighting 6
stry 6
ravaged 6
TED2010 6
evocative 6
Gone 6
war-torn 6
qualifications 6
granddad 6
Assembly 6
utilizing 6
Ambassador 6
pediatric 6
Nor 6
regi@@ 6
cho@@ 6
Knowledge 6
Namibia 6
Kerala 6
Somali 6
localized 6
circumcision 6
350,000 6
varying 6
lattice 6
doom 6
Min@@ 6
demoralized 6
anesthetize 6
aortic 6
bureaucrats 6
Prius 6
agribusiness 6
low-fat 6
snack 6
unheard 6
demise 6
proto-@@ 6
throne 6
bottled 6
ppies 6
Go@@ 6
McNuggets 6
kets 6
fil@@ 6
vor@@ 6
hierarchical 6
Advanced 6
droids 6
spooky 6
Gever 6
Tulley 6
doodles 6
completion 6
decoration 6
magicians 6
By@@ 6
aboard 6
Ear@@ 6
brainstorm 6
ghetto 6
Mac@@ 6
pel@@ 6
weeds 6
striving 6
secured 6
Ste@@ 6
Cool 6
Prior 6
hot@@ 6
parade 6
Built 6
narrowed 6
nationwide 6
rampant 6
Volvo 6
thereafter 6
Lothar 6
Meggendorfer 6
paused 6
J. 6
teeming 6
ined 6
launches 6
hustles 6
barber 6
finances 6
lea@@ 6
compares 6
terawatt 6
lightbulbs 6
demons 6
ried 6
cer@@ 6
M. 6
disadvantaged 6
anomalies 6
traction 6
trenches 6
stealth 6
emo@@ 6
roadside 6
gravit@@ 6
compensated 6
companions 6
groceries 6
computer-generated 6
Coleridge 6
dexterity 6
willingly 6
amazement 6
Rockwell 6
stationary 6
typography 6
suggestive 6
Kindle 6
cli@@ 6
penalty 6
Someday 6
ice-@@ 6
sustainably 6
intake 6
Han@@ 6
virginity 6
intercourse 6
exhibited 6
aci@@ 6
lity 6
corpse 6
simultaneous 6
30-day 6
air-@@ 6
acrylic 6
fur@@ 6
ye 6
kidnapping 6
Gregory 6
220 6
Webb 6
light-sensitive 6
Enriquez 6
electrically 6
headlights 6
maneuvers 6
flier 6
Free@@ 6
carving 6
Sky@@ 6
examines 6
Foot 6
harassed 6
Reuters 6
piracy 6
han@@ 6
Dou@@ 6
oring 6
Access 6
colonization 6
Seventy 6
Improv 6
videotape 6
mailing 6
tire 6
curb 6
Albania 6
barbaric 6
queues 6
bribed 6
ready-made 6
cohesion 6
mobilized 6
Sarkozy 6
tedious 6
multimedia 6
Nellie 6
McKay 6
Feminists 6
amp@@ 6
anew 6
Spo@@ 6
high-risk 6
ori@@ 6
out-of-the-box 6
depict 6
.05 6
Burger 6
gratuitous 6
flavored 6
advertisement 6
legends 6
buffet 6
Area 6
overlook 6
oops 6
-making 6
wandered 6
burrow 6
ple@@ 6
counterpart 6
photosynthesis 6
titanium 6
Winner 6
ridden 6
financed 6
Metropolitan 6
S. 6
dusk 6
advertisers 6
immerse 6
zero-g 6
stra@@ 6
mul@@ 6
Hatzalah 6
settlers 6
Panama 6
plight 6
Ko@@ 6
telegraph 6
interrupting 6
shel@@ 6
roast 6
purchased 6
albums 6
Gamble 6
fringes 6
sociology 6
refrigerated 6
marvels 6
petroleum 6
interval 6
widen 6
permafrost 6
warms 6
offset 6
relied 6
porridge 6
unravel 6
inventive 6
self-organizing 6
descent 6
Oba@@ 6
mas 6
cling 6
fit@@ 6
junkies 6
Lazarus 6
inhabiting 6
Researchers 6
drive-@@ 6
proclaim 6
retrofits 6
infill 6
V. 6
suburb 6
disproportionate 6
middle-income 6
infecting 6
disclose 6
Joan 6
ank 6
halves 6
assistants 6
floppy 6
typeface 6
huddled 6
RISD 6
Salinas 6
Carlos 6
Corruption 6
ades 6
Herbie 6
percussion 6
baggage 6
Shall 6
Months 6
Towers 6
radiate 6
sediments 6
CE 6
t-based 6
guarantees 6
cking 6
lofty 6
Bacon 6
generalizations 6
punched 6
folder 6
repel 6
conce@@ 6
painters 6
Jurvetson 6
Chemical 6
Fresh 6
communicable 6
feces 6
contaminate 6
Marie 6
latrine 6
inexhaustible 6
crumbling 6
foam 6
Pal@@ 6
canal 6
craftsmen 6
Sacramento 6
ramp 6
vents 6
Fin@@ 6
Kohn 6
high-rise 6
marble 6
pic@@ 6
book@@ 6
Euro 6
balconies 6
highlands 6
likewise 6
NYU 6
Chekhov 6
Ros@@ 6
adored 6
ribs 6
peacock 6
greenery 6
extends 6
clearest 6
artworks 6
arresting 6
ians 6
aristocracy 6
Capitol 6
dysfunction 6
proposals 6
Elec@@ 6
amusement 6
engulf 6
cobalt 6
Disneyland 6
Maui 6
hells 6
mainland 6
jewels 6
micrometeorites 6
constituents 6
beads 6
TED2011 6
fireworks 6
dives 6
tasty 6
twinkling 6
brittle 6
imitating 6
faceless 6
ignite 6
applicable 6
right-@@ 6
alternating 6
Author 6
illustrator 6
dre@@ 6
elegance 6
co 6
cl@@ 6
rep@@ 6
palace 6
shack 6
conjure 6
Vending 6
coli 6
coils 6
screamed 6
yelled 6
rotated 6
240 6
presses 6
.5 6
administrative 6
Hamburg 6
Mea@@ 6
leukemia 6
Cox 6
turbulent 6
explodes 6
ideologies 6
saint 6
sonic 6
rudimentary 6
havoc 6
gunfire 6
luminous 6
trails 6
evade 6
manifestations 6
fractal 6
jammed 6
six-year-olds 6
Monster 6
dit@@ 6
chant 6
geo-@@ 6
warned 6
prescriptions 6
pas@@ 6
strap 6
avant-garde 6
canvases 6
detained 6
cartel 6
exchanges 6
fermentation 6
threads 6
Tour 6
JPL 6
free@@ 6
Guy 6
double-click 6
Granted 6
fli@@ 6
leapfrog 6
Mali 6
newborn 6
Cos@@ 6
livable 6
leopards 6
tors 6
tle 6
dolls 6
creeping 6
irresistible 6
reforestation 6
biodegradable 6
regulates 6
overeating 6
scoop 6
meditate 6
collateral 6
Cronin 6
Organic 6
fanciful 6
Beware 6
broaden 6
Bieber 6
journalistic 6
regenerating 6
reactors 6
1930 6
induce 6
patches 6
Stem 6
X. 6
durable 6
deepening 6
recreating 6
empowers 6
Her@@ 6
steri@@ 6
reimagining 6
canning 6
acidic 6
grinding 6
align 6
popcorn 6
CSI 6
ballistics 6
Greene 6
astronomer 6
repulsive 6
Alley 6
fascinates 6
chy 6
cs 6
inscribed 6
not@@ 6
prioritized 6
nationalism 6
perfor@@ 6
synthesizers 6
Friend 6
Stern 6
Fol@@ 6
inequalities 6
litigation 6
regards 6
literate 6
multiplying 6
1-@@ 6
Compared 6
interdisciplinary 6
synthesizing 6
cultivating 6
decompiculture 6
ght-@@ 6
Auschwitz 6
Ghraib 6
school@@ 6
instructional 6
testament 6
cede 6
busting 6
statisticians 6
connectedness 6
Dow 6
Land 6
communicators 6
reunited 6
Mos@@ 6
timeless 6
portrayed 6
Lotto 6
screwed 6
Cut 6
allegedly 6
aff@@ 6
absorption 6
altruistic 6
relieving 6
Play-Doh 6
microprocessors 6
preaching 6
present-day 6
paralyzing 6
heartache 6
urged 6
teen@@ 6
liar 6
Wurman 6
Patricia 6
Dhabi 6
hardship 6
hind 6
heavier 6
drills 6
darn 6
cky 6
barbed 6
RA 6
migratory 6
surveying 6
meadows 6
Frans 6
glide 6
mb@@ 6
informs 6
suppressing 6
eight-year-old 6
hardened 6
Rift 6
hyenas 6
greet 6
Poet 6
shorthand 6
cryptic 6
berries 6
Barricelli 6
Turing 6
microprocessor 6
tele@@ 6
data-@@ 6
Nu@@ 6
Damn 6
Master 6
numerical 6
13,000 6
pit@@ 6
granular 6
pinnacle 6
kangaroo 6
adorable 6
ologists 6
karate 6
Memory 6
Congolese 6
frank 6
quartile 6
vest 6
prophets 6
malignant 6
free-@@ 6
megawatts 6
meditators 6
turquoise 6
downs 6
grasping 6
tainted 6
Ariel 6
sage 6
humanizing 6
notoriously 6
tandem 6
stove 6
Trans@@ 6
domination 6
averages 6
forging 6
Growth 6
representations 6
intervening 6
grasslands 6
ape 6
contracting 6
pixel 6
postage 6
oven-like 6
discard 6
paren@@ 6
computerized 6
sophomore 6
cone 6
simplified 6
fabricated 6
lab@@ 6
guesswork 6
xes 6
Allison 6
ental 6
built-in 6
Plat@@ 6
ax@@ 6
gait 6
compliant 6
lightbulb 6
IV 6
jurisdiction 6
qualitative 6
preach 6
distinctly 6
accents 6
Sea@@ 6
biochemical 6
gers 6
Rock@@ 6
secrete 6
locks 6
quorum 6
fashions 6
mutants 6
Connexions 6
flattening 6
modular 6
XML 6
Bat@@ 6
hobbies 6
bandstand 6
# 6
fertilized 6
tadpoles 6
damages 6
deposits 6
sh-@@ 6
pup 6
geneticists 6
dissolving 6
Yugoslavia 6
tribunal 6
remarks 6
scourge 6
Sao 6
Manchester 6
Shereen 6
bedrooms 6
uprisings 6
Brotherhood 6
Across 6
interpretations 6
interrogation 6
mentioning 6
hair@@ 6
procession 6
pacemaker 6
dystonia 6
Phase 6
promiscuous 6
cally 6
Ninety-@@ 6
risk-taking 6
Yourself 6
angst 6
informing 6
lar@@ 6
Kirk 6
Spock 6
perverse 6
schematic 6
DryBath 6
Opportunity 6
avail 6
modalities 6
scal@@ 6
whichever 6
plasma 6
self-assembling 6
cleans 6
cools 6
composites 6
collisions 6
rung 6
Wangari 6
plummeted 6
Future 6
Willie 6
embarked 6
monastery 6
Ridley 6
bouncing 6
barricades 6
recorder 6
bleach 6
Haas 6
Wi@@ 6
flashlight 6
Bolte 6
Texting 6
bruised 6
mechanistic 6
val@@ 6
nationality 6
cozy 6
spiritually 6
nuances 6
distrust 6
punctuated 6
compliment 6
menting 6
punchline 6
Pew 6
Mis@@ 6
organically 6
sec 6
4chan 6
Rules 6
MySpace 6
unstoppable 6
skeletons 6
combinatorial 6
barbs 6
narrower 6
curiously 6
telephony 6
parrot 6
reassemble 6
sey 6
Cruz 6
EG 6
Breaking 6
Maddie 6
Jamaica 6
gation 6
cellphones 6
oceanic 6
Nino 6
downright 6
1,300 6
sediment 6
backdrop 6
bitten 6
id@@ 6
blinding 6
undertaken 6
irs 6
Vermeer 6
silences 6
unexpectedly 6
motorbikes 6
gener@@ 6
complaint 6
spit 6
safari 6
skim 6
instantaneous 6
ise 6
hypothermia 6
faraway 6
resides 6
Yunus 6
Grameen 6
DC 6
landmark 6
Laurie 6
documentaries 6
mandatory 6
Convention 6
camouflage 6
Ain 6
Resources 6
appearances 6
fished 6
supplier 6
imply 6
est@@ 6
chers 6
Oslo 6
tivism 6
porch 6
interruptions 6
distracting 6
I.M. 6
natives 6
filtered 6
Iranian-American 6
Adrian 6
canoes 6
puppeteer 6
choreographer 6
Hear 6
formulas 6
bumping 6
electrochemical 6
extrinsic 6
yer 6
Sydney 6
Hazleton 6
my@@ 6
reminding 6
begs 6
mming 6
Cambodian 6
ecting 6
ggy 6
driveway 6
Treatment 6
termed 6
Typical 6
3D-printed 6
man-@@ 6
Push 6
ven 6
boardroom 6
TiVo 6
prescribe 6
Sox 6
proceeded 6
Kitchen 6
nephews 6
Carson 6
upside-down 6
Smart 6
oversight 6
LG 6
artillery 6
1910 6
omic 6
estimating 6
awfully 6
chocolates 6
sleek 6
Homeland 6
weddings 6
neo-@@ 6
disappointment 6
gradients 6
High@@ 6
narrows 6
occupations 6
biofabrication 6
bioreactor 6
Bas@@ 6
Current 6
Burns 6
JN 6
cathedrals 6
grapple 6
administrator 6
gy 6
video-@@ 6
Rock 6
seismic 6
dled 6
Reformation 6
alternate 6
tunes 6
fuselage 6
righting 6
dol@@ 6
headrest 6
Warcraft 6
grading 6
Boulder 6
Expl@@ 6
grandkids 6
0.8 6
urine 6
buckets 6
subversive 6
enhancing 6
annually 6
One-@@ 6
pandemics 6
36,000 6
H1N1 6
sla@@ 6
cease 6
gon@@ 6
four-year-olds 6
voiceless 6
masons 6
Kings 6
Huang 6
hin@@ 6
vis-a-vis 6
sizable 6
noninvasive 6
ponder 6
elevates 6
prime-time 6
istic 6
breadth 6
governing 6
prayed 6
motifs 6
Jo 6
Crick 6
Mass 6
Wilkins 6
Ti@@ 6
competent 6
testify 6
bowls 6
ducks 6
grownups 6
narrowing 6
Kamen 6
sunrise 6
Saint 6
infancy 6
vitro 6
Field 6
apped 6
flaps 6
dived 6
sled 6
troop 6
guiding 6
rebels 6
ammunition 6
sibling 6
microorganisms 6
reconsider 6
corrections 6
70-@@ 6
synesthesia 6
reclaiming 6
summoned 6
ed@@ 6
granny 6
downhill 6
supplements 6
Medicare 6
discount 6
gic 6
measurably 6
Ratan 6
Tata 6
vets 6
Gandhian 6
Thought 6
Spider 6
dine 6
devoured 6
categorized 6
reciprocal 6
Yochai 6
i.e. 6
Kamal 6
Pakistanis 6
tying 6
inflection 6
Salman 6
Playing 6
Nuclear 6
uranium 6
dos 6
Florence 6
justified 6
scuba 6
fisheries 6
permits 6
endowment 6
shar@@ 6
DB 6
firefighters 6
JB 6
MP 6
overconfidence 6
dismal 6
shrunk 6
Entrepreneurs 6
reptiles 6
30@@ 6
tive-@@ 6
petri 6
Solomon 6
ticks 6
beaver 6
Meadow 6
spectrogram 6
Basin 6
diminishing 6
Rao 6
Fra@@ 6
forecasting 6
negatives 6
controversies 6
e-mail 6
compiled 6
warehouses 6
dd@@ 6
Churchill 6
policy-making 6
SAT 6
leaned 6
Schwartz 6
liability 6
dispersants 6
phytoplankton 6
insecticides 6
back-up 6
t-like 6
mutated 6
Rabin 6
alo@@ 6
slogans 6
dormant 6
miner 6
Assange 6
Jenn 6
folklore 6
bunker 6
Muslim-majority 6
halal 6
civilizational 6
4Shbab 6
morph 6
ities 6
businessman 6
ia 6
geothermal 6
Worldchanging 6
detects 6
ve-@@ 6
Studies 6
poker 6
beg 6
dread 6
Hal 6
indifferent 6
rewilding 6
rabbits 6
Whales 6
regulating 6
boar 6
intolerable 6
Claron 6
Singing 6
Stars 6
pebble 6
clustered 6
agendas 6
crews 6
logistical 6
Faso 6
ising 6
arian 6
appy 6
Autonomy 6
trademark 6
leveraging 6
go-@@ 6
traumatized 6
&apos;am 6
Gol@@ 6
Avelile 6
full-blown 6
Hunger 6
depletion 6
Butler 6
chunks 6
self-driving 6
Highway 6
sailboat 6
utterances 6
Benoit 6
Mandelbrot 6
Svalbard 6
mined 6
home@@ 6
logos 6
ran@@ 6
ceremonies 6
LA 6
S-H 6
objection 6
off-the-shelf 6
cher 6
nifty 6
exploited 6
dollars-worth 6
compose 6
advert 6
plastered 6
Borges 6
superorganism 6
cers 6
Mullins 6
Jenkins 6
Twain 6
teeny 6
Collaborator 6
Conventional 6
Moskowitz 6
pasta 6
pleasing 6
Bolivia 6
bottlenecks 6
Virgin 6
Detail 6
digits 6
abuses 6
schoolhouse 6
Beatrice 6
perimeter 6
ob@@ 6
steroids 6
Montreal 6
insure 6
breeze 6
whiteboard 6
Kamkwamba 6
Copyright 6
enact 6
tory 6
soak 6
nodding 6
indicative 6
hypertension 6
2016 6
privately 6
Shackleton 6
Canadians 6
golfing 6
re-engage 6
Immediately 6
remodeling 6
M.D. 6
Botton 6
snobbery 6
EP 6
Nigerians 6
Bobby 6
heart@@ 6
Trek 6
Ashdown 6
confessed 6
fueling 6
Letters 6
full-scale 6
floss 6
Blood 6
remaking 6
processors 6
Atheism 6
Waste 6
vanished 6
Cel@@ 6
top-10 6
1959 6
exported 6
nostalgia 6
deposited 6
fierce 6
panda 6
clo@@ 6
ection 6
warp 6
Hulk 6
swimmers 6
freestyle 6
deconstruct 6
fin@@ 6
Elyn 6
harrowing 6
hedge 6
Grove 6
Autodesk 6
plaza 6
AA 6
magnifying 6
wasps 6
deregulation 6
defiance 6
bailouts 6
grizzly 6
denominator 6
presumption 6
ometer 6
do-it-yourself 6
diaspora 6
homelessness 6
supervise 6
wrongs 6
Angola 6
businesspeople 6
assessing 6
Isle 6
starches 6
malicious 6
Federation 6
Kar@@ 6
fundamentalism 6
Rajasthan 6
bribing 6
rebound 6
paranoia 6
Depp 6
fu 6
Kasparov 6
rearrange 6
byproduct 6
underbelly 6
AB 6
quarries 6
Resistance 6
Glasgow 6
Polar 6
high-power 6
Aristotelian 6
male-pattern 6
female-pattern 6
bl@@ 6
swiftly 6
arrests 6
cliché 6
photojournalist 6
bycatch 6
Jennings 6
FN 6
subsequent 6
Acumen 6
Pierson 6
Liu 6
Interpreter 6
Twelve 6
Weather 6
Ark 6
Synthetic 6
3.7 6
discharged 6
eff@@ 6
Karmapa 6
caribou 6
Athabasca 6
tailings 6
ir 6
Dharamsala 6
Z 6
whispered 6
Dunlap 6
harp 6
mucus 6
ja@@ 6
Grier 6
Musical 6
Zullinger 6
Sheena 6
Kiev 6
tals 6
bargain 6
appliance 6
kiln 6
Mill 6
rival 6
arguer 6
Bitcoin 6
Li 6
amputee 6
Tamil 6
necrophilia 6
informational 6
Blakley 6
Scrabble 6
fates 6
napot 6
Bartok 6
Milliken 6
Dorothy 6
micro-machines 6
Interval 6
validation 6
crisper 6
kettles 6
spacing 6
decks 6
Ferguson 6
Dublin 6
Hama 6
ginger 6
Georges 6
Sacred 6
Prickly 6
Pear 6
brewers 6
Kenneth 6
Dewey 6
AJ 6
Toonchi-too 6
guga 6
Webster 6
impactful 6
rift 6
Calcutta 6
cocoa 6
ga 6
E.R. 6
Jeanny 6
Fraser 6
slumber 6
Punta 6
pastor 6
kooks 6
nozzle 6
Torajans 6
Zabbaleen 6
self-transcendence 6
profane 6
Winky 6
Dink 6
HyperCard 6
warranty 6
euthanasia 6
stockpile 6
microbloggers 6
trustworthiness 6
Carrillo 6
Blackawton 6
A-rhythm 6
a-rhythm 6
One-two-three-four 6
Bayesian 6
Klee 6
ultra-dense 6
Netizens 6
paired 6
Kenyans 6
inspected 6
Goering 6
Meegeren 6
Capgras 6
sweater 6
cannibals 6
Wounded 6
leaven 6
1500 6
Apophis 6
Ferris 6
Cheval 6
Blanc 6
Collusion 6
Schlaug 6
sockets 6
terroir 6
Norwegians 6
Carroça 6
carroças 6
Maidan 6
VM 6
opportunity-makers 6
Erick 6
lymphatic 6
stutter 6
parallax 6
Usage 6
oculus 6
Xu 6
reactivate 6
Head@@ 5
smog 5
assessments 5
flex 5
ep 5
FILMCLUB 5
fable 5
blockbuster 5
palpable 5
bat@@ 5
dwellers 5
ords 5
bedtime 5
unarmed 5
sailors 5
maiden 5
On@@ 5
Genspace 5
DIYbio 5
Googled 5
dispose 5
Personal 5
saliva 5
caviar 5
Ele@@ 5
championship 5
rehearse 5
kicker 5
waterproof 5
175 5
oils 5
buggy 5
crunch 5
shred 5
Initially 5
shredding 5
petty 5
sweatshirt 5
taxation 5
contentment 5
declare 5
Focus 5
drumming 5
) 5
Nashville 5
encore 5
Wagner 5
gossiping 5
tex@@ 5
MC 5
stadiums 5
Crazy 5
ambassadors 5
drudgery 5
throwaway 5
Plastics 5
imaged 5
takers 5
two-and-a-half 5
oney 5
Steel 5
disposed 5
escalating 5
fertile 5
northwest 5
lia 5
Utopia 5
Sitopia 5
teaming 5
gory 5
chill 5
interiors 5
futuristic 5
iler 5
idiosyncratic 5
enti@@ 5
anesthesiologist 5
Alto 5
inflammation 5
unimportant 5
dishwasher 5
prophetic 5
Polio 5
dodge 5
tenacious 5
Hang 5
drags 5
trackers 5
berserk 5
Pradesh 5
heroism 5
PostSecret 5
voicemails 5
Vo@@ 5
Break 5
bam 5
apologizing 5
overdose 5
Folks 5
petrified 5
Four@@ 5
Bragg 5
refresher 5
drop-@@ 5
dier 5
comrades 5
chewed 5
Training 5
eyed 5
fists 5
generational 5
mindless 5
abs 5
jealous 5
Groups 5
TED2008 5
stant 5
SE@@ 5
lurking 5
Fulbright 5
Fo@@ 5
foe 5
wit@@ 5
Brad 5
45,000 5
26@@ 5
Shawn 5
weaponry 5
cavalry 5
painfully 5
avert 5
unicorn 5
Bobo 5
prestigious 5
gir@@ 5
merger 5
2.@@ 5
futile 5
cyclical 5
demo@@ 5
speculate 5
directing 5
experimentally 5
externally 5
reformed 5
pharmacy 5
Gal@@ 5
gues 5
ok 5
stor@@ 5
gr@@ 5
caution 5
uncharted 5
governs 5
road@@ 5
defeating 5
elimination 5
frail 5
unnecessarily 5
overpopulation 5
rejecting 5
inanimate 5
imperfections 5
catastrophes 5
pathogenic 5
Cell 5
dissatisfied 5
cite 5
ger@@ 5
Mouse 5
advantageous 5
motorbike 5
Pugh 5
mind-@@ 5
sausages 5
5,@@ 5
choke 5
gasp 5
ze@@ 5
pp@@ 5
excavated 5
Era 5
serpent 5
playfulness 5
y-ness 5
letter-writing 5
pardon 5
Flying 5
freaky 5
Brené 5
whole-hearted 5
live-@@ 5
ex-boyfriend 5
dorm 5
upbringing 5
Ing@@ 5
fry 5
bulletproof 5
choirs 5
bird@@ 5
pecking 5
ome@@ 5
chores 5
registration 5
Lin@@ 5
ghettos 5
gist 5
reconciling 5
confi@@ 5
momentarily 5
diness 5
eh 5
Imagination 5
tethered 5
renewal 5
jealousy 5
kid@@ 5
Fore@@ 5
resurrect 5
mach@@ 5
ina 5
paintbrush 5
Prisons 5
Corrections 5
partnered 5
Correc@@ 5
relic 5
rac@@ 5
bland 5
confinement 5
serene 5
Banjo 5
Jonny 5
Inspired 5
genesis 5
exert 5
cylinders 5
Columbus 5
snippets 5
1958 5
Pol@@ 5
longtime 5
responsibly 5
Milton 5
shareholder 5
3G 5
antisocial 5
instill 5
R-@@ 5
spouses 5
introversion 5
proactive 5
popularized 5
smack 5
contemplation 5
rec@@ 5
inheritance 5
Cat 5
Guide 5
ial 5
chat@@ 5
accessories 5
Cs 5
adjustments 5
sketching 5
Ali@@ 5
Negroponte 5
ethicist 5
whirlwind 5
mel@@ 5
deep-sea 5
kittens 5
duplicate 5
grey 5
nucleic 5
mitochondrial 5
joystick 5
eel 5
synthesizer 5
Autonomous 5
Rhodes 5
eminent 5
connective 5
taxpayer 5
biopsies 5
depiction 5
bulky 5
Imag@@ 5
entrenched 5
transmits 5
elated 5
worrisome 5
specialty 5
anatomic 5
menstrual 5
ouses 5
overview 5
Explorer 5
Sixth 5
Sense 5
cost-@@ 5
Abdul 5
Cen@@ 5
thri@@ 5
short@@ 5
meniscus 5
arthritis 5
70-year-old 5
graft 5
donating 5
gal 5
degrading 5
Uri 5
tack 5
outpatient 5
Marcel 5
chefs 5
Insects 5
dyed 5
Canary 5
proliferate 5
distantly 5
Qatari 5
of@@ 5
1.1 5
passports 5
protested 5
gem 5
Serious 5
Cra@@ 5
Re-@@ 5
Inven@@ 5
fire@@ 5
Hutu 5
Tutsi 5
durability 5
priests 5
dismantled 5
Sichuan 5
camp@@ 5
Wor@@ 5
childcare 5
step-by-step 5
rested 5
hour@@ 5
-a-@@ 5
Giant 5
Good@@ 5
upheaval 5
obligations 5
lest 5
ddle 5
consequential 5
meditating 5
torturing 5
vanilla 5
burqa 5
compulsory 5
Kathryn 5
Schulz 5
misunderstand 5
coyote 5
astro@@ 5
stitches 5
translucent 5
Augustine 5
sweetheart 5
vastness 5
alling 5
Belshazzar 5
feast 5
acked 5
Persia 5
geology 5
ly@@ 5
Isaiah 5
set@@ 5
articulated 5
Hacker 5
adept 5
prompted 5
proportionate 5
netted 5
Pandora 5
feeder 5
peck 5
nachos 5
wry 5
snippet 5
Zappos 5
DMV 5
Saying 5
counter-intuitive 5
miniaturization 5
microfluidic 5
achievable 5
forensics 5
disseminate 5
Plants 5
attracts 5
dium 5
lords 5
oo@@ 5
tripod 5
prosecuted 5
analytic 5
Islamists 5
Majesty 5
Ghonim 5
abolish 5
instantaneously 5
peacekeeping 5
ero 5
ins@@ 5
Animals 5
midair 5
Frog 5
deformed 5
anterior 5
neur@@ 5
coherence 5
migraine 5
maim 5
ils 5
clicker 5
accredited 5
Mine 5
Hippocrates 5
discriminate 5
illicit 5
rods 5
looping 5
18-minute 5
near-death 5
quirk 5
synergy 5
sayings 5
Saving 5
uncanny 5
Guizhou 5
Shu@@ 5
renaissance 5
Egan 5
manually 5
sa 5
multi-dimensional 5
dist 5
hapless 5
Don@@ 5
prolific 5
Wild 5
brigade 5
collaborated 5
disgust 5
chemo 5
quartet 5
Ethel 5
Billie 5
anic 5
Kofi 5
Annan 5
ISAF 5
ani 5
Safety 5
cessation 5
gonads 5
asexual 5
stunted 5
16-@@ 5
bowling 5
1928 5
locals 5
35,000 5
localize 5
refusing 5
loo 5
30th 5
endgame 5
undertaking 5
Oxygen 5
photon 5
simulating 5
Circle 5
Siberian 5
humanly 5
macho 5
dog@@ 5
repaired 5
piping 5
gruesome 5
lacks 5
high-pressure 5
bulges 5
CT 5
iterative 5
bespoke 5
implantation 5
Physical 5
conservatism 5
culprits 5
administered 5
carbohydrates 5
hyper-consumption 5
elitist 5
Hardly 5
farmland 5
canned 5
Rice 5
dessert 5
vegetarians 5
nugget 5
horribly 5
Hanson 5
macro-@@ 5
U.C. 5
and@@ 5
roller 5
gle@@ 5
oration 5
Terri@@ 5
curls 5
Gre@@ 5
tizing 5
jogging 5
Latino 5
wherein 5
spearheaded 5
begets 5
polluting 5
redesigned 5
seeding 5
homegrown 5
lame 5
visionaries 5
runaway 5
plazas 5
anthrax 5
clamp 5
paradoxical 5
Cannes 5
biking 5
wealthiest 5
depicting 5
Lessons 5
dealers 5
grouping 5
inmate 5
Ordinary 5
Salt 5
cautious 5
Extremely 5
endow 5
relentlessly 5
diverge 5
minorities 5
liabilities 5
shutting 5
five-minute 5
two- 5
conserved 5
naught 5
blizzard 5
Hepburn 5
P.C. 5
spreadsheet 5
computations 5
poking 5
vectors 5
boomers 5
semblance 5
TED2012 5
tracing 5
Scotch 5
hh 5
nings 5
memoir 5
water-@@ 5
gl@@ 5
mac@@ 5
hor@@ 5
Shepherd 5
prin@@ 5
Phyllis 5
patriotism 5
respecting 5
weekday 5
exhibits 5
otherworldly 5
Hamas 5
innocuous 5
outsider 5
Hidden 5
capsules 5
submerged 5
21@@ 5
deliberation 5
advisers 5
speculated 5
popularity 5
quarantine 5
etched 5
Campbell 5
implicated 5
izing 5
Timothy 5
11-year-old 5
inserting 5
atrophied 5
py@@ 5
upstream 5
millisecond 5
solace 5
fabricate 5
light-activated 5
averse 5
uncontrolled 5
channelrhodopsin 5
irreversible 5
photoreceptors 5
BASE 5
cliffs 5
Enjoy 5
propelled 5
tweeted 5
Melbourne 5
doorbell 5
Napster 5
tan@@ 5
Kickstarter 5
crowdsourcing 5
ninja 5
Orwell 5
denies 5
lored 5
NA@@ 5
cheesy 5
crimin@@ 5
synchronized 5
Ride 5
hugged 5
four-foot 5
one-by-one 5
911 5
pretended 5
12@@ 5
modernization 5
prot@@ 5
excel 5
robbing 5
quad@@ 5
retention 5
functionally 5
molded 5
grids 5
mid 5
dues 5
intro 5
tionally 5
rumors 5
dis 5
investor 5
pel 5
risk-@@ 5
commercialization 5
equitable 5
dosage 5
self-fulfilling 5
nation@@ 5
Scandinavia 5
tra 5
Nokia 5
cuisine 5
Fried 5
Palace 5
1904 5
Coo@@ 5
tian 5
vian 5
lore 5
cooker 5
treasures 5
rooftop 5
Horn 5
45-@@ 5
McKean 5
&apos;all 5
hugs 5
amused 5
F-@@ 5
damned 5
distinctions 5
8.1 5
OED 5
lumpy 5
comets 5
synecdochically 5
non-toxic 5
fluffy 5
fracture 5
starter 5
sec@@ 5
supplied 5
weightlessness 5
parabola 5
ever-increasing 5
jewel 5
moment-to-moment 5
likened 5
Eli 5
dash 5
Traffic 5
navigated 5
mob 5
Vision 5
oting 5
ories 5
small-@@ 5
Silk 5
TV-industrial 5
coupons 5
allo@@ 5
mitt 5
5,000-@@ 5
God@@ 5
two-hour 5
5-@@ 5
distilled 5
adaptability 5
underpins 5
breakup 5
lettuces 5
ess@@ 5
Prom@@ 5
myriad 5
stall 5
Wonderful 5
wiping 5
addicts 5
no-brainer 5
horrifying 5
darling 5
Eff@@ 5
ect 5
Ines 5
hoo@@ 5
varies 5
dweller 5
triggering 5
scraped 5
incrementally 5
funky 5
Denver 5
ened 5
subdivisions 5
layout 5
enlisted 5
inquire 5
HIV-negative 5
80-@@ 5
HIV-infected 5
lec@@ 5
bastards 5
rapid-fire 5
nicest 5
safeguard 5
Ree@@ 5
Maeda 5
Content 5
gradient 5
disrupted 5
sow 5
disguise 5
festivals 5
soaring 5
kettle 5
acoustics 5
cos@@ 5
para@@ 5
sor@@ 5
progresses 5
Rube 5
Goldberg 5
mills 5
grander 5
square-foot 5
1850 5
emphasized 5
criticizing 5
Adding 5
800,000 5
feedbacks 5
ans@@ 5
deviations 5
Plains 5
spiraling 5
electronically 5
mountaintop 5
bread@@ 5
famines 5
divert 5
reductions 5
1812 5
Historian 5
Whewell 5
dow@@ 5
traced 5
watershed 5
captains 5
tidal 5
lunar 5
calculates 5
conditional 5
tle@@ 5
ship@@ 5
walled 5
squishy 5
10-foot 5
water@@ 5
webs 5
Target 5
SJ 5
circulate 5
odors 5
spoiled 5
spun 5
lock@@ 5
fecal 5
sewers 5
wastewater 5
latrines 5
karma 5
Damon 5
Rec@@ 5
del 5
binoculars 5
ducts 5
ceilings 5
ep@@ 5
slicing 5
glu@@ 5
istically 5
slo@@ 5
perverted 5
Lou 5
1964 5
necks 5
moreover 5
ethnicities 5
manifests 5
sensibly 5
rails 5
wood@@ 5
cross-cultural 5
engraved 5
enlist 5
prehistory 5
hunter-gatherer 5
scramble 5
32,000 5
virtuoso 5
Lessig 5
01 5
00@@ 5
PAC 5
Leslie 5
Rod 5
Sar@@ 5
kickstart 5
pundits 5
micr@@ 5
Willy 5
beehive 5
oli@@ 5
urchin 5
gee 5
Widder 5
self-defense 5
blinds 5
Avatar 5
brushed 5
fly@@ 5
plunge 5
grown-ups 5
knitting 5
aters 5
Co 5
Gell-Mann 5
condense 5
Cod 5
rug 5
phenomenally 5
op-ed 5
dodo 5
ct 5
elegantly 5
berry 5
Louise 5
look-alike 5
strawberries 5
Philosopher 5
deri@@ 5
premises 5
inferences 5
pointillist 5
Marvin 5
sac@@ 5
Minsky 5
shadowy 5
Nah 5
dishonest 5
clogged 5
sy@@ 5
disengaged 5
repu@@ 5
hips 5
cardiologist 5
Fleming 5
Uranus 5
Sagan 5
presume 5
eras 5
sian 5
sped 5
frantically 5
sentient 5
pupils 5
mol@@ 5
Drawing 5
ffi@@ 5
bingo 5
proofs 5
nine-year-olds 5
Choose 5
interviewer 5
preoccupied 5
orchard 5
om 5
northeastern 5
culate 5
ography 5
milligrams 5
RE@@ 5
cked 5
glued 5
Join 5
optimum 5
PBS 5
Dawn 5
Pluto 5
cing 5
maternity 5
exp@@ 5
decentralized 5
megacities 5
Ham 5
colossal 5
exclamation 5
Pharaoh 5
glo@@ 5
Cameroon 5
billiard 5
gland 5
Kevlar 5
hologram 5
reintegration 5
vein 5
misleading 5
conserving 5
burgers 5
Psychologists 5
sizing 5
regained 5
toolkit 5
on-the-@@ 5
Zuckerberg 5
logged 5
Superman 5
impulsive 5
timescale 5
antithesis 5
Week 5
Lindbergh 5
ulcer 5
back-@@ 5
liposuction 5
definite 5
sorting 5
doubles 5
petrochemicals 5
Maker 5
cutaway 5
f-@@ 5
pickled 5
burger 5
flames 5
kitchens 5
paragraphs 5
realms 5
1929 5
ascent 5
outset 5
uniformly 5
neutrinos 5
Mystery 5
cosmologists 5
inflationary 5
one-time 5
musi@@ 5
geo@@ 5
chords 5
Keeping 5
authorized 5
abandoning 5
marginal 5
reliance 5
advertisements 5
scatter 5
objectively 5
knobs 5
circum@@ 5
formaldehyde 5
Mushrooms 5
toxin 5
Photos 5
Guard 5
resonates 5
robes 5
ro 5
eerie 5
lineage 5
13-@@ 5
interlocking 5
misinformation 5
Tzu 5
occurrence 5
apocalyptic 5
filmmaking 5
Shirin 5
realist 5
Casablanca 5
transcends 5
repeats 5
Pogue 5
Son@@ 5
od 5
humming 5
eleventh 5
bag@@ 5
300-@@ 5
whipped 5
play-dough 5
salty 5
lows 5
self-destructive 5
Clark 5
band@@ 5
til 5
Divide 5
kerosene 5
Steffen 5
Buildings 5
sequester 5
Patton 5
womanhood 5
Colony 5
Pos@@ 5
dead@@ 5
nomads 5
almond 5
pollinated 5
pollinating 5
food-@@ 5
Ensler 5
annihilated 5
embryos 5
tattooed 5
4,500 5
overheard 5
ticians 5
Giacometti 5
fran@@ 5
1932 5
Wislawa 5
Szymborska 5
ranking 5
gunshot 5
paper@@ 5
implausible 5
subtraction 5
marbles 5
Study 5
Theory 5
Games 5
logs 5
Integr@@ 5
Aha 5
belts 5
blower 5
regulator 5
duplicated 5
reinvented 5
reproducing 5
well-designed 5
brainstorming 5
tilting 5
ress 5
Renny 5
Gleeson 5
prop 5
implicitly 5
breastfeeding 5
W. 5
virulent 5
marsupial 5
arisen 5
Paravicini 5
Chopsticks 5
nanny 5
Nanny 5
terminology 5
Bumblebee 5
Slovenia 5
encompass 5
postpone 5
enliven 5
Bangladeshi 5
scholarships 5
majoring 5
lifeless 5
aspiring 5
childhoods 5
facto 5
Harvest 5
High-@@ 5
mega@@ 5
megawatt 5
Tibetan 5
Frenchman 5
ceases 5
Aren 5
detrimental 5
experiential 5
menacing 5
billowing 5
synaptic 5
tending 5
dimming 5
Zen 5
scrolling 5
ADD 5
Ritalin 5
Writer 5
sq. 5
Treaty 5
Deng 5
Xiaoping 5
Lehman 5
27th 5
explanatory 5
Ecologist 5
gun@@ 5
1938 5
ine@@ 5
volumetric 5
LM 5
Hockenberry 5
interfering 5
crocodiles 5
conceivably 5
elemental 5
monolithic 5
Illu@@ 5
Batiuk 5
ice@@ 5
customize 5
STriDER 5
rovers 5
Mul@@ 5
Blind 5
wacky 5
commerce 5
Basit 5
Amjad 5
Sitting 5
mount 5
hobbyists 5
lux 5
highlighting 5
starry 5
appreciating 5
journeyman 5
Set@@ 5
accusation 5
Bacteria 5
Anywhere 5
species-specific 5
interspecies 5
therapeutics 5
publishes 5
Borders 5
personalize 5
excite 5
interconnect 5
deed 5
licensing 5
alley 5
00s 5
conceptually 5
brooding 5
swallows 5
secretion 5
Tyler 5
Adelaide 5
freezer 5
hopping 5
fle@@ 5
oning 5
de-extinction 5
mycorrhiza 5
penetration 5
cular 5
diversify 5
consulted 5
coo@@ 5
rocky 5
Rico 5
certificates 5
izes 5
pragmatism 5
hazards 5
formidable 5
LGBTQ 5
resume 5
neurologically 5
unorthodox 5
disp@@ 5
small-town 5
gays 5
homosexual 5
neurosurgeon 5
neurosurgery 5
twisting 5
Horowitz 5
&apos;mon 5
pronunciation 5
downsides 5
Hat 5
tubing 5
thirsty 5
incorporated 5
avatars 5
voracious 5
moratoriums 5
confronting 5
helplessness 5
less-@@ 5
Gradually 5
Limpopo 5
drastic 5
Grateful 5
Hindus 5
irritable 5
protectors 5
pul@@ 5
poisoning 5
disposable 5
topsoil 5
s-worth 5
shipment 5
veneer 5
subsidiary 5
citations 5
Jody 5
Maathai 5
staunch 5
bankrupt 5
chu@@ 5
Detroiters 5
vacancy 5
mics 5
banding 5
Atacama 5
Alps 5
Astronomers 5
neutrino 5
repairs 5
observatory 5
outwards 5
incubators 5
Malthus 5
secretive 5
clunky 5
latte 5
stylish 5
Cruise 5
fr@@ 5
Marrow 5
Miner 5
emphasizes 5
hindsight 5
Polaroid 5
fragmentation 5
evenings 5
confines 5
sung 5
nicotine 5
overstated 5
Generally 5
philanthropist 5
shee@@ 5
tolls 5
delays 5
Pra@@ 5
velvet 5
Ironically 5
believers 5
egalitarian 5
bullied 5
Express 5
intimidating 5
circulated 5
imperson@@ 5
shi@@ 5
sul@@ 5
Sim 5
crystalline 5
Fey 5
vanity 5
misdirection 5
new@@ 5
patron 5
reas@@ 5
bles 5
self-expression 5
subculture 5
Channel 5
Dusty 5
sacrificing 5
16,000 5
Caucasus 5
Algeria 5
Leonard 5
graphite 5
I.@@ 5
Jansky 5
prosaic 5
originate 5
horn 5
enriched 5
bison 5
heath 5
methodologies 5
respiration 5
gorilla 5
0,000 5
fading 5
curtains 5
cease-fire 5
Kazakhstan 5
cab@@ 5
sci-fi 5
near@@ 5
T.@@ 5
purse 5
seated 5
Ninos 5
dri@@ 5
isotopes 5
skeptic 5
adviser 5
salient 5
noon 5
wand 5
mot@@ 5
tative 5
farce 5
JU 5
seventeenth 5
eldest 5
Clooney 5
handler 5
Hindi 5
insurgent 5
idol 5
patriotic 5
engulfed 5
provi@@ 5
me-@@ 5
Understanding 5
startups 5
23rd 5
playlist 5
dipped 5
ICU 5
staged 5
aunts 5
Participant 5
vings 5
illiteracy 5
resonated 5
educates 5
Forum 5
Violence 5
Celebrate 5
x-@@ 5
pick-up 5
jaw-dropping 5
head-@@ 5
rib 5
borderless 5
exacerbate 5
unlocked 5
Ibrahim 5
lic@@ 5
Pollution 5
Upon 5
Mani@@ 5
Maz 5
Allah 5
paw 5
Production 5
breathes 5
Theatre 5
brake 5
golfer 5
shu@@ 5
optimized 5
Sen@@ 5
sculptor 5
compromises 5
fractions 5
Opera 5
Torah 5
cadence 5
stewards 5
Mecca 5
swelling 5
prosecutors 5
Pros@@ 5
helmets 5
Speak 5
not-for-profit 5
10-year 5
Lima 5
jumbo 5
Airbus 5
comeback 5
Prostate 5
persisted 5
Southwest 5
Pierpont 5
pauses 5
flash@@ 5
repressive 5
restrictive 5
Monopoly 5
Zig 5
Any@@ 5
9,@@ 5
nieces 5
herbicides 5
sher 5
cafeterias 5
ferrofluid 5
Martian 5
escalated 5
capitals 5
ized 5
blacks 5
tornadoes 5
stupidity 5
inconsistency 5
bling 5
vanishing 5
implies 5
frighten 5
counteract 5
corrosive 5
fluke 5
cides 5
earnings 5
redistribution 5
polarizing 5
regulators 5
Sears 5
Buckminster 5
Fuller 5
micro-controllers 5
Deb 5
analyzes 5
Jehane 5
Noujaim 5
Statue 5
Liberty 5
MTV 5
disliked 5
simplification 5
Create 5
virtuality 5
luxurious 5
Christina 5
Stephanie 5
competitor 5
acutely 5
pro 5
thrives 5
torso 5
amazes 5
screenshot 5
Earlier 5
ecraft 5
Ever@@ 5
Quest 5
plow 5
Yosemite 5
Route 5
Wyoming 5
orbits 5
Cornell 5
great-great-@@ 5
headwinds 5
Electricity 5
ATM 5
follower 5
replay 5
Looks 5
Pap@@ 5
conduit 5
attributable 5
floral 5
interconnection 5
Berkley 5
eruption 5
trumpet 5
Finding 5
flowed 5
1940s 5
vigorous 5
Aah 5
nameless 5
welder 5
Ox@@ 5
surpassed 5
lesions 5
closed-loop 5
tractor 5
overload 5
Sandel 5
Kiran 5
defied 5
lars 5
gangsters 5
Outside 5
layering 5
signaling 5
lush 5
Berlow 5
Gourley 5
Mapping 5
24,000 5
meme-ome 5
reminiscent 5
transcripts 5
Joachim 5
Alison 5
outcry 5
conclusive 5
clu@@ 5
D.@@ 5
1966 5
chore 5
Traditionally 5
Dana 5
affectionately 5
oma@@ 5
draining 5
birthdays 5
cially 5
vens 5
dumps 5
grownup 5
lantern 5
zombie 5
archival 5
commonalities 5
bud 5
spelling 5
thankful 5
stained 5
Novocure 5
GBM 5
MRIs 5
Jetman 5
piloting 5
Des@@ 5
shockingly 5
euro 5
highly-@@ 5
dogma 5
wrenching 5
snipers 5
massacre 5
humbly 5
filtering 5
distributions 5
Mena 5
updating 5
Twenty-@@ 5
Romeo 5
commen@@ 5
dir@@ 5
Daphne 5
Polynesian 5
itors 5
Thinking 5
manners 5
gadget 5
trade-off 5
TG 5
mism 5
nuns 5
reversing 5
Huge 5
Lancet 5
scooter 5
Jaipur 5
conceptualize 5
dative 5
Fargo 5
fraught 5
Merckx 5
enshrined 5
Special 5
Tu@@ 5
starters 5
pearl 5
20-year-old 5
an-American 5
memo 5
schedules 5
Jr 5
ton@@ 5
assisted 5
Physicist 5
tritium 5
grips 5
splits 5
swirl 5
Total 5
Pilots 5
tombstone 5
Chocolate 5
visitor 5
acks 5
Skerry 5
B-@@ 5
spawning 5
never-ending 5
fishery 5
stalled 5
insured 5
MP@@ 5
Barton 5
Charley 5
crown 5
engagements 5
Paolo 5
responders 5
priceless 5
deployments 5
Bec@@ 5
drown 5
Mustafa 5
Major 5
medals 5
saddest 5
mmer 5
gnarly 5
Stygimoloch 5
juveniles 5
flatten 5
ticker 5
templates 5
Shadow 5
Yucatan 5
Java 5
dryer 5
continental 5
considerations 5
Soldiers 5
Philistines 5
Israelites 5
Send 5
infantry 5
slingers 5
Bernie 5
tundra 5
Wiki 5
contributors 5
revert 5
verifiable 5
trolls 5
McAfee 5
apocryphal 5
Reuther 5
self-aware 5
playbook 5
word@@ 5
Amnesty 5
whiz 5
humanism 5
oddities 5
Mel@@ 5
tel 5
mop 5
ition 5
Regu@@ 5
scripted 5
referendum 5
Smits 5
percentages 5
UNAIDS 5
Mankoff 5
Definitely 5
Rejection 5
purposeful 5
offended 5
Gross 5
first-born 5
yaw 5
dirtiest 5
sulfates 5
euphoria 5
Cour@@ 5
convoluted 5
detectable 5
viability 5
weakened 5
seldom 5
awaken 5
sleep-deprived 5
Ahn 5
Argentine 5
sunflower 5
submissions 5
Institu@@ 5
Thirdly 5
va@@ 5
gills 5
allegiances 5
far-right 5
gn@@ 5
chilling 5
keyhole 5
reprogram 5
mounds 5
youthful 5
stro@@ 5
hone 5
eagles 5
solids 5
run@@ 5
indistinguishable 5
condenses 5
JFK 5
invariably 5
palsy 5
Springs 5
skirts 5
Parker 5
blackout 5
Gov 5
Administration 5
Bright 5
fairer 5
vintage 5
salts 5
varsity 5
2nd 5
Pamela 5
parse 5
Koko 5
outright 5
rewind 5
Attention 5
Goldstein 5
untie 5
self-discipline 5
undertake 5
Hanna 5
romanticize 5
stumbling 5
ander 5
moose 5
reintroduce 5
memorizing 5
McFadden 5
coughing 5
flattened 5
campfire 5
Odyssey 5
Prozac 5
concoction 5
fertilization 5
Zimbardo 5
contradictory 5
supplying 5
thumb@@ 5
fix@@ 5
receptacle 5
Reserve 5
Gayle 5
JT 5
Rise 5
Animation 5
revi@@ 5
statesmen 5
troubles 5
telepresence 5
CAO 5
swamp 5
Hardy 5
lics 5
MA 5
SING 5
fetal 5
winters 5
post-war 5
bio 5
dwindling 5
Barnett 5
articulation 5
tot@@ 5
complementary 5
costume 5
cub 5
Thrun 5
driverless 5
tankers 5
spilled 5
Regi@@ 5
bachelor 5
forestry 5
mimicked 5
Torture 5
ries 5
blo@@ 5
Koolhaas 5
forearm 5
extremity 5
ffer@@ 5
Formula 5
Unclear 5
Legadema 5
bolt 5
Initiative 5
Turin 5
sublime 5
forks 5
CAPTCHAs 5
nic@@ 5
best-@@ 5
synchronize 5
seaweed 5
Diver 5
slick 5
LXD 5
Somewhere 5
sprinting 5
Interesting 5
Studs 5
Dallas 5
Myesha 5
controllers 5
zooming 5
Grave 5
Volta 5
electrolyte 5
kh@@ 5
chemistries 5
subsidy 5
psycho@@ 5
extra-chunky 5
servicing 5
Poupon 5
humid 5
Joyce 5
fateful 5
reshape 5
mbled 5
fibrosis 5
cosmetic 5
schism 5
Ukrainian 5
tents 5
Peri@@ 5
polarized 5
soot 5
monstrous 5
hassle 5
cyberwar 5
Cyber 5
subsistence 5
three- 5
Surve@@ 5
Metrics 5
hi-tech 5
remixing 5
centuries-old 5
premier 5
complement 5
emulation 5
75,000 5
wishing 5
illa 5
Partners 5
reorganize 5
Everyday 5
inhibits 5
3-D 5
cones 5
viewpoints 5
correspondence 5
seafarers 5
Kendal 5
registry 5
propellers 5
pulmonary 5
grit 5
8,@@ 5
hydrothermal 5
propellant 5
Wood 5
Ow 5
Image 5
aura 5
Occupy 5
delusions 5
Markus 5
decreases 5
creatives 5
sigmoidal 5
locomotor 5
hierarchies 5
meritocracy 5
exemp@@ 5
consolidated 5
Mujahideen 5
imam 5
sponsoring 5
Team 5
repeatable 5
compounded 5
millennial 5
would-be 5
cherished 5
413 5
handwritten 5
filtration 5
athleticism 5
redundancy 5
ario 5
conf@@ 5
Cave 5
resurrected 5
grandest 5
sermon 5
canonical 5
truer 5
Basque 5
tame 5
reverence 5
Bunker 5
Ner@@ 5
megabyte 5
Needless 5
sausage 5
Sustainability 5
silhouette 5
scouts 5
democratizing 5
inh@@ 5
inflated 5
[...]
